<pad>	0
<unk>	0
<s>	0
</s>	0
<sep>	0
<cls>	0
<mask>	0
▁	-3.46358
이	-4.25848
을	-4.4089
는	-4.41303
가	-4.53696
▁그	-4.55462
에	-4.61847
▁음	-4.75296
도	-4.83099
를	-4.83415
▁아	-4.91333
은	-4.97865
의	-5.08153
▁저	-5.1074
지	-5.12606
▁그런데	-5.18803
요	-5.22553
▁저기	-5.22732
고	-5.31372
▁아니	-5.33772
▁안	-5.41457
▁거	-5.45906
▁수	-5.47935
▁이	-5.51879
로	-5.55515
▁너무	-5.58478
다	-5.65679
▁것	-5.67787
서	-5.6855
▁잘	-5.74276
에서	-5.79108
야	-5.80207
▁좀	-5.81253
한	-5.86012
▁오늘	-5.89011
▁우리	-5.89121
▁게	-5.89279
해	-5.9249
만	-5.92624
어	-5.93256
으로	-5.95417
▁해	-5.96191
기	-5.96415
▁한	-5.9686
▁나	-5.98164
▁다	-6.00913
▁많이	-6.01906
▁자	-6.02724
하고	-6.03198
▁나는	-6.04381
▁있어	-6.10469
▁있는	-6.12317
게	-6.12943
할	-6.17575
▁거야	-6.17709
면	-6.18884
▁때	-6.19659
하는	-6.20971
▁더	-6.21684
▁내	-6.22749
▁정말	-6.27591
▁뭐	-6.27627
▁같아	-6.31915
라	-6.33216
▁내가	-6.33743
▁사	-6.36378
나	-6.3668
▁일	-6.37952
▁지금	-6.39499
인	-6.43869
과	-6.44474
▁못	-6.46814
자	-6.47192
▁이렇게	-6.47517
▁어	-6.47551
리	-6.48472
▁어떻게	-6.48639
▁때문에	-6.49468
▁하는	-6.5143
▁있어요	-6.52423
▁이제	-6.53724
▁요즘	-6.54311
니	-6.54465
▁할	-6.55674
▁이번	-6.56545
▁어떤	-6.58064
▁건	-6.58084
▁가	-6.58847
네	-6.6283
▁너	-6.63544
대	-6.64628
입니다	-6.64807
▁하고	-6.65007
아	-6.65114
▁그래서	-6.67047
▁오	-6.68822
는데	-6.70576
▁좋아	-6.71078
▁주	-6.71385
▁왜	-6.72365
사	-6.75615
라고	-6.7701
▁말	-6.77142
와	-6.77877
▁좋은	-6.79149
▁그런	-6.79627
▁지	-6.80242
▁또	-6.81059
▁거예요	-6.83081
▁같이	-6.83235
▁보	-6.83635
▁코로나	-6.8462
죠	-6.84917
▁진짜	-6.85303
시	-6.85711
▁난	-6.8778
들이	-6.88984
▁번	-6.8908
▁이런	-6.8931
▁돼	-6.9126
▁대해서	-6.91685
▁네	-6.94857
▁같아요	-6.95063
▁비	-6.95091
▁제가	-6.9688
니까	-6.97887
▁시	-6.9808
수	-6.98101
▁갈	-6.98233
▁꼭	-6.98561
▁제	-6.99423
▁저는	-6.99531
▁대해	-7.00883
▁전	-7.0117
네요	-7.01215
이야	-7.02029
▁살	-7.03235
해서	-7.03286
▁걸	-7.04458
▁없어	-7.05222
까지	-7.05687
▁두	-7.06001
▁그렇게	-7.06564
정	-7.07066
▁생각	-7.08091
▁해야	-7.08371
▁어제	-7.08955
▁줄	-7.0903
하게	-7.09576
주	-7.1014
하지	-7.10562
일	-7.10637
▁먹고	-7.10675
들	-7.11664
진	-7.11682
▁대	-7.12233
▁부	-7.12316
▁마	-7.12733
해야	-7.1277
스	-7.13522
▁여기	-7.14376
▁있습니다	-7.14784
다고	-7.16099
▁그냥	-7.16202
랑	-7.16568
▁영화	-7.17194
▁제일	-7.17555
▁그럼	-7.17736
▁집	-7.18874
러	-7.19485
▁너는	-7.19538
▁해요	-7.19903
▁사람이	-7.19984
으면	-7.20096
▁싶어	-7.20626
상	-7.20877
▁영양제	-7.20882
▁몇	-7.21463
▁하나	-7.21585
▁봐	-7.21668
▁개	-7.22454
부터	-7.2336
데	-7.23586
에는	-7.23632
적	-7.24054
▁가서	-7.24165
치	-7.25027
▁중	-7.25091
▁가장	-7.25768
▁어디	-7.26203
원	-7.27642
부	-7.27896
▁내일	-7.28733
장	-7.28883
화	-7.293
▁들어	-7.29316
신	-7.29357
▁보고	-7.29411
▁하	-7.29932
▁있다	-7.29932
▁이거	-7.29968
하면	-7.30154
질	-7.30924
▁선생님	-7.31128
구	-7.31613
▁다른	-7.31996
▁청소	-7.32139
▁무슨	-7.32594
던	-7.3271
▁오늘은	-7.33905
트	-7.3525
하	-7.35521
▁세	-7.35756
전	-7.3603
▁다시	-7.36299
인데	-7.36582
성	-7.36784
더라	-7.36908
▁같은	-7.37285
▁사람	-7.37392
▁합니다	-7.38364
▁학교	-7.38482
이라고	-7.38601
습니다	-7.3871
적인	-7.38724
실	-7.38831
이에요	-7.39483
▁많은	-7.39788
▁참	-7.40207
▁운동	-7.40381
▁불	-7.4104
하기	-7.41627
▁그리고	-7.41738
려	-7.41884
라는	-7.41991
▁집에	-7.42279
▁입	-7.42529
▁정	-7.42696
▁하면	-7.43051
▁근데	-7.43103
▁다음	-7.43159
▁않아	-7.43514
▁이번에	-7.44049
했어	-7.44221
▁고	-7.4441
▁건강	-7.44961
▁되는	-7.45283
▁와	-7.45901
▁날씨가	-7.45974
▁것이	-7.46055
▁얘기	-7.46063
소	-7.46076
▁친구	-7.46114
▁네가	-7.46814
▁대출	-7.47453
어요	-7.4763
▁물	-7.47704
세요	-7.48045
▁신	-7.48107
에게	-7.48246
▁소	-7.48492
▁기	-7.48572
▁될	-7.49374
▁날	-7.49959
▁시간	-7.50025
들은	-7.5047
▁유	-7.50661
▁언제	-7.50678
보	-7.50848
▁그래	-7.50886
드	-7.50903
▁나도	-7.50946
▁건강검진	-7.51529
보다	-7.53399
▁계속	-7.5419
래	-7.54679
▁위해	-7.5472
▁가고	-7.55345
▁그러면	-7.5538
▁가는	-7.55631
▁열	-7.56016
선	-7.56516
▁우리가	-7.569
▁구	-7.57328
우	-7.57609
▁밥	-7.57814
▁건강관리	-7.57945
▁부동산	-7.58126
합니다	-7.58556
▁여행	-7.58578
▁생각해	-7.58774
▁휴가	-7.5885
▁보면	-7.59609
식	-7.5975
오	-7.59784
▁분	-7.59905
▁가지고	-7.60053
▁알	-7.60219
▁조금	-7.60363
▁적	-7.60478
▁원	-7.60551
▁전에	-7.61144
▁적금	-7.61237
▁막	-7.61431
▁바로	-7.61857
▁예	-7.62567
▁빨리	-7.62678
▁혹시	-7.6296
▁시작	-7.63562
▁해서	-7.63882
제	-7.63945
▁돼요	-7.6406
적으로	-7.64366
▁대한	-7.64552
잖아	-7.64779
이나	-7.64916
단	-7.65663
히	-7.65812
비	-7.65855
▁무	-7.66162
▁얼마나	-7.6657
▁한번	-7.66751
▁말고	-7.67565
냐	-7.67579
마	-7.67645
▁있을	-7.67855
▁볼	-7.67953
동	-7.6829
▁장	-7.68632
▁삼	-7.68687
음	-7.68785
▁온난화	-7.68952
▁동	-7.69016
▁미	-7.69324
▁바	-7.69595
▁다이어트	-7.696
▁가지	-7.69634
▁방	-7.70048
▁차	-7.70469
▁문제	-7.70718
까	-7.71069
▁싶어요	-7.7151
지만	-7.71637
▁명	-7.71642
▁좋아하는	-7.71714
▁일이	-7.7177
▁본	-7.72426
▁함께	-7.7249
▁해외여행	-7.72666
▁하지	-7.72693
▁때는	-7.72785
▁상	-7.73197
▁거죠	-7.73397
엔	-7.73692
▁먹어	-7.73888
▁아주	-7.74425
들을	-7.74506
▁청약	-7.74579
▁모	-7.74647
▁중에	-7.74885
▁남	-7.7508
▁연	-7.7525
▁보험	-7.75407
▁아이돌	-7.7541
▁데	-7.75754
▁없는	-7.75765
▁엄마	-7.75993
▁이게	-7.76099
▁공	-7.76181
▁없어요	-7.76206
▁달	-7.76621
▁자산관리	-7.76689
했다	-7.76706
▁간	-7.76721
▁큰	-7.7685
▁아직	-7.76886
▁했어	-7.7754
조	-7.78284
▁년	-7.78552
문	-7.78589
▁반	-7.78929
▁있는데	-7.79254
▁타	-7.79489
▁나이가	-7.79632
▁것도	-7.80792
간	-7.8087
▁사람들이	-7.81223
▁알고	-7.81286
▁편	-7.81299
▁있나요	-7.81476
▁공부	-7.81855
구나	-7.82263
▁식사	-7.82275
▁먹는	-7.82277
세	-7.82348
▁맞	-7.8254
▁만	-7.82658
이다	-7.82764
▁엄청	-7.83314
▁하는데	-7.83347
▁금리가	-7.83498
긴	-7.8424
▁이야기	-7.84299
▁것은	-7.84729
나요	-7.84738
▁열심히	-7.8497
거	-7.85318
▁챙겨	-7.85886
▁모두	-7.86364
▁항상	-7.86444
▁경제	-7.86534
산	-7.8678
▁가면	-7.8706
▁음악	-7.87379
▁어때	-7.87672
▁태풍이	-7.87751
▁음식	-7.87932
▁태풍	-7.88008
▁먹을	-7.88206
▁준비	-7.88377
미	-7.88493
분	-7.88701
▁하루	-7.88825
었어	-7.88911
▁많아	-7.89225
했어요	-7.89234
▁있으면	-7.8928
당	-7.89288
▁알아	-7.89342
▁돈	-7.89345
▁좋아요	-7.89436
▁인	-7.89472
▁손	-7.89483
▁되	-7.89497
▁쓰	-7.89558
▁성적이	-7.89615
▁여	-7.9003
▁선생님이	-7.90568
이라는	-7.90581
▁싶은	-7.90732
르	-7.90948
▁아니야	-7.91207
▁그래도	-7.91564
▁방송	-7.91665
려고	-7.91715
연	-7.91874
▁서	-7.91874
▁생일	-7.91908
▁가자	-7.92084
차	-7.92137
▁만들어	-7.92327
▁것을	-7.92389
▁조	-7.92491
▁축제	-7.93106
▁산	-7.93213
고요	-7.93506
관	-7.93615
한테	-7.93671
▁시간이	-7.94418
▁먼저	-7.9443
▁진	-7.94603
학	-7.94728
물	-7.9503
행	-7.95182
방	-7.95258
▁운동을	-7.95728
▁별로	-7.95791
집	-7.95799
▁여러분	-7.96058
▁가족	-7.96119
생	-7.96291
▁야	-7.96507
운	-7.96807
▁주세요	-7.96941
어서	-7.97031
된	-7.97046
▁들	-7.97171
면서	-7.97208
▁저희	-7.97268
해요	-7.97269
▁온	-7.97472
▁있어서	-7.9761
▁화	-7.97717
▁사실	-7.97786
▁위해서	-7.9799
용	-7.98214
▁지진이	-7.98216
▁얼마	-7.9835
지는	-7.98509
▁점심	-7.98742
▁정도	-7.99156
▁재	-7.9926
여	-7.9927
하다	-7.99285
이랑	-7.99463
▁먹	-7.997
으	-7.9982
그	-7.99934
▁보내	-8.00115
▁그거	-8.00333
▁올	-8.00479
길	-8.00649
▁발	-8.00797
▁어느	-8.01373
다가	-8.01625
▁집에서	-8.0185
처럼	-8.01879
내	-8.01927
▁강아지	-8.0203
체	-8.02305
▁지역	-8.02359
▁전화	-8.02581
▁자주	-8.02786
중	-8.03118
져	-8.03404
▁그게	-8.0345
▁처음	-8.03676
▁많	-8.03829
▁인제	-8.04327
든	-8.04368
모	-8.04389
▁아니라	-8.04507
▁단	-8.04628
▁성	-8.04876
▁수가	-8.05007
란	-8.05047
잖아요	-8.05068
두	-8.05081
▁같은데	-8.05822
▁친구가	-8.05824
한다	-8.05867
▁관광지	-8.05872
▁배	-8.05899
▁힘들어	-8.05961
▁뭘	-8.05986
▁가야	-8.06115
유	-8.06218
▁저녁	-8.06468
▁있	-8.06494
되	-8.06539
▁싶다	-8.06648
예요	-8.06972
▁모든	-8.0701
개	-8.07062
▁싶은데	-8.07156
▁반려동물	-8.07534
금	-8.07678
▁우리나라	-8.07947
점	-8.08217
▁도시	-8.08399
겠다	-8.08504
던데	-8.08583
▁말을	-8.0861
▁노래	-8.08617
워	-8.08666
▁고향에	-8.08958
▁피	-8.09011
▁있지	-8.09072
회	-8.09117
▁우	-8.09431
▁지진	-8.09657
▁기분이	-8.10361
▁십	-8.10746
▁찾아	-8.10772
기가	-8.11106
▁비가	-8.11464
▁좋아해	-8.11511
▁실	-8.11587
▁연락	-8.12092
▁한국	-8.12169
었	-8.12291
▁치	-8.1232
▁말이	-8.12729
▁애	-8.12765
▁넌	-8.13028
▁양	-8.13096
▁날씨	-8.13184
더니	-8.13292
▁나오	-8.13348
▁그렇죠	-8.13696
▁강	-8.13826
국	-8.13942
▁놀	-8.13979
이라	-8.1434
▁힘들	-8.1466
▁심	-8.14753
▁생각이	-8.14773
▁이상	-8.14829
님	-8.15181
▁누가	-8.15287
주세요	-8.15315
업	-8.1567
울	-8.15883
▁특산물	-8.15901
▁누구	-8.15905
▁놀러	-8.16142
▁경	-8.16299
▁파	-8.16341
위	-8.16413
▁나와	-8.16826
거든요	-8.16908
심	-8.17303
▁아까	-8.17429
▁뭐가	-8.17558
프	-8.1766
▁백	-8.17909
▁일을	-8.18241
본	-8.18333
▁혼자	-8.18615
▁겁니다	-8.1869
▁했는데	-8.18908
▁보는	-8.19039
▁관리	-8.19371
▁됩니다	-8.1959
▁당	-8.1963
무	-8.19742
▁여러	-8.19755
▁사용	-8.19756
약	-8.19767
▁죽	-8.19784
▁고향	-8.19858
계	-8.19864
었어요	-8.19932
▁와서	-8.20057
▁시험	-8.2022
▁새로	-8.20378
▁선	-8.20425
▁위	-8.2045
명	-8.20555
▁폭염	-8.20556
▁굉장히	-8.20621
린	-8.20889
▁지구	-8.20889
▁응	-8.20996
▁매일	-8.21126
▁책	-8.21155
▁번째	-8.21172
레	-8.21241
▁세계	-8.21413
▁좋지	-8.21566
호	-8.21911
민	-8.22109
에서는	-8.22196
▁했어요	-8.22198
▁노	-8.22463
▁오래	-8.22971
▁않아요	-8.23242
▁새	-8.2349
양	-8.23577
▁밖에	-8.23651
▁맛있는	-8.23698
▁성적	-8.23711
▁여기서	-8.23745
▁갔다	-8.23826
▁눈	-8.23845
▁같	-8.23908
다는	-8.24353
▁통	-8.24362
▁되게	-8.24394
▁세계도시	-8.24542
▁서울	-8.24704
봐	-8.24771
었다	-8.24783
▁아침	-8.24862
▁보러	-8.2487
대요	-8.24878
▁건데	-8.2508
▁약	-8.25238
인지	-8.25304
▁중요한	-8.25377
▁있고	-8.26066
▁나이	-8.26082
▁거기	-8.26099
▁수도	-8.26104
▁들어가	-8.26274
하세요	-8.26342
하려고	-8.26379
▁된	-8.26579
▁갈래	-8.26603
▁있다고	-8.26812
▁일본	-8.26928
겠습니다	-8.26942
▁요	-8.2765
저	-8.27828
라도	-8.27845
▁해도	-8.28103
▁제주도	-8.28335
▁가입	-8.28401
▁벌써	-8.28748
▁환경	-8.28826
▁괜찮	-8.28866
으니까	-8.29179
▁나서	-8.29371
걸	-8.29411
▁후	-8.29578
▁자꾸	-8.29666
안	-8.29716
▁그러	-8.29761
▁음식을	-8.29976
▁길	-8.30017
▁뭐야	-8.30329
기를	-8.30346
▁싫어	-8.30866
역	-8.30927
셨어요	-8.30964
셨	-8.31086
▁수업	-8.31579
▁매	-8.31811
▁따라	-8.31915
▁자기	-8.32198
▁팔	-8.32582
출	-8.32684
▁금리	-8.32749
며	-8.33036
▁어디로	-8.33151
▁그때	-8.33188
▁올해	-8.3319
▁마음	-8.33673
▁잡	-8.3369
▁표현	-8.3396
크	-8.34041
▁스	-8.34125
▁사회	-8.34142
▁사람은	-8.34167
격	-8.34391
▁문	-8.34774
했습니다	-8.35042
▁보여	-8.35075
▁머릿속에	-8.35304
난	-8.35368
더라고요	-8.35606
▁천	-8.35753
▁있을까요	-8.35849
▁잠	-8.35886
▁작품	-8.35979
천	-8.36015
영	-8.36048
▁되고	-8.36205
▁거지	-8.36222
▁옷	-8.36278
는지	-8.36299
▁좋을	-8.36421
▁나라	-8.36847
▁외	-8.37026
▁경제가	-8.37055
▁교	-8.37067
경	-8.37142
▁감	-8.37202
▁건강을	-8.37358
▁먹으면	-8.37786
▁사랑	-8.37919
▁봤어	-8.38147
▁속	-8.38834
▁선물	-8.3889
받	-8.38909
▁회사	-8.38986
형	-8.38992
▁아는	-8.39064
▁뭔가	-8.39108
▁친구와	-8.3916
▁생각을	-8.39219
▁소리	-8.39397
법	-8.39469
▁보니까	-8.39515
▁학교에서	-8.39606
통	-8.39611
재	-8.39662
▁딱	-8.39743
▁맛	-8.39776
▁나한테	-8.39887
되는	-8.39969
디	-8.40052
리는	-8.4031
▁그건	-8.40638
▁앞으로	-8.40684
▁적금을	-8.40711
▁가기	-8.40814
▁동안	-8.40887
▁싶	-8.40912
지고	-8.40933
▁걱정	-8.40971
입	-8.41023
▁왔어	-8.41087
▁유명한	-8.41241
▁되면	-8.41241
급	-8.41477
▁적이	-8.41501
▁있을까	-8.4151
▁만나	-8.41659
속	-8.41763
▁나중에	-8.42032
줘	-8.42034
▁요즘은	-8.42126
▁우리는	-8.4227
▁초	-8.42337
▁오는	-8.42404
▁갑자기	-8.42561
마다	-8.42816
▁모르겠어	-8.429
▁써	-8.43142
▁곳	-8.43228
겨	-8.43254
▁받아	-8.43345
▁나가	-8.43444
▁첫	-8.4366
직	-8.43845
▁휴양지	-8.43856
▁아빠	-8.44027
▁김	-8.44241
▁하지만	-8.4437
▁텐데	-8.44428
가지고	-8.4458
권	-8.44688
▁좋겠어	-8.44748
▁영	-8.45082
▁둘	-8.45148
▁있었	-8.4527
▁좋	-8.45533
▁그다음에	-8.4557
▁크	-8.456
▁이건	-8.45665
려면	-8.458
▁어머니	-8.45881
공	-8.45893
파	-8.45959
야지	-8.46334
기로	-8.46406
▁없이	-8.46502
절	-8.4672
▁한다	-8.47048
▁점점	-8.47346
▁추	-8.47425
기도	-8.47493
▁나랑	-8.4776
발	-8.47873
▁울	-8.47885
었는데	-8.48034
▁생각보다	-8.48219
▁주에	-8.48253
▁아침에	-8.48278
했는데	-8.48335
▁왔	-8.48408
▁할머니	-8.48444
▁필요	-8.4847
▁맞아	-8.48476
▁이해	-8.48561
▁몸	-8.48693
▁없다	-8.48697
▁사람들	-8.48725
▁부분	-8.48779
▁그러니까	-8.48818
반	-8.49009
▁사진	-8.49087
▁나오는	-8.49152
졌어	-8.49257
증	-8.49261
▁않고	-8.49752
▁버	-8.49786
거든	-8.49797
릴	-8.49967
▁약속	-8.50156
력	-8.50175
▁역시	-8.50211
▁내용	-8.50229
▁어디서	-8.50484
▁설명	-8.50498
겠지	-8.50621
▁학교에	-8.50766
자가	-8.50894
▁끝	-8.5102
▁됐	-8.51077
▁직업	-8.51128
갈	-8.51331
▁되는데	-8.51332
▁청소를	-8.5134
▁여자	-8.51404
터	-8.51446
줄	-8.51535
▁돈을	-8.51552
▁있니	-8.51699
▁했	-8.5177
▁복	-8.51804
▁계획	-8.52091
▁만들	-8.52199
▁아버지	-8.52907
하자	-8.53206
▁씨	-8.53344
▁변	-8.53388
▁신경	-8.53412
▁말씀	-8.5351
겠어	-8.53532
건	-8.53863
겠죠	-8.53901
▁등	-8.53947
▁음악을	-8.5397
▁새로운	-8.53978
▁봐요	-8.54185
▁커피	-8.5432
료	-8.54388
▁일단	-8.54458
▁친구들	-8.54639
▁직접	-8.54712
▁일찍	-8.54825
▁깨	-8.54889
▁코	-8.54931
▁있죠	-8.55208
▁앞	-8.55222
날	-8.55357
설	-8.55415
▁따	-8.55439
복	-8.55616
▁원래	-8.55777
▁되지	-8.55877
강	-8.56072
루	-8.56167
▁그만	-8.56209
▁점	-8.56217
에요	-8.56329
였	-8.564
▁영화를	-8.56501
목	-8.56732
▁살아	-8.56835
▁노력	-8.56836
▁결혼	-8.57215
▁나온	-8.57273
타	-8.57324
▁호	-8.57446
편	-8.5745
▁너도	-8.57656
▁병	-8.578
감	-8.57833
도록	-8.57918
▁필요한	-8.57986
했던	-8.58078
▁민	-8.5812
▁주말에	-8.58464
론	-8.58582
▁고양이	-8.58605
준	-8.58673
▁타고	-8.58912
▁많아요	-8.5905
▁없어서	-8.59126
▁않았	-8.59271
▁별	-8.5928
▁않는	-8.59306
▁갖고	-8.59535
▁영어	-8.59583
▁아이	-8.59682
석	-8.59801
달	-8.59892
림	-8.59916
▁늦	-8.60029
▁쓸	-8.6009
▁먹어야	-8.60198
▁아니면	-8.60285
▁요새	-8.60295
백	-8.6032
▁앞에	-8.60645
▁청	-8.60784
▁마스크	-8.60857
들의	-8.60864
▁서로	-8.60968
▁고민	-8.61052
▁아마	-8.61052
▁않은	-8.61193
작	-8.61384
▁보기	-8.61415
▁이미	-8.61487
▁봤	-8.61668
▁중국	-8.6168
될	-8.61774
▁다들	-8.61796
▁있다는	-8.62041
하러	-8.62182
▁곳이	-8.6236
▁제대로	-8.6241
▁기억	-8.62456
▁곧	-8.625
티	-8.62516
▁좋겠다	-8.62566
▁사는	-8.62729
▁늘	-8.62898
쳐	-8.63103
▁확인	-8.63233
▁아니에요	-8.63339
▁폭염이	-8.63402
온	-8.63531
▁게임	-8.63559
▁마세요	-8.63613
▁꿈	-8.63629
하여	-8.63786
▁넣어	-8.63844
▁술	-8.63847
하면서	-8.63881
▁버스	-8.63909
▁정리	-8.63965
▁창	-8.63998
피	-8.64002
▁많아서	-8.64012
▁엄마가	-8.64042
▁에어컨	-8.64071
▁찍	-8.64194
▁괜찮아	-8.64369
▁좋다	-8.64395
년	-8.64423
색	-8.64433
품	-8.64477
▁남자	-8.64597
▁된다	-8.64769
▁법	-8.64817
▁생	-8.64821
▁하기	-8.64895
▁주는	-8.64998
▁망	-8.65115
병	-8.65284
▁꽃	-8.65367
하신	-8.65373
▁그걸	-8.65429
기는	-8.65436
▁오랜만에	-8.65579
인가요	-8.65589
▁용	-8.65658
▁돈이	-8.65804
▁거의	-8.65931
▁이야기를	-8.65971
른	-8.6603
▁잘못	-8.66127
▁어려운	-8.66245
▁맛있	-8.66271
▁달라	-8.66452
바	-8.6649
▁확	-8.6666
십	-8.66717
▁먹으러	-8.6676
▁먹었어	-8.66838
▁순	-8.66852
▁미국	-8.66916
▁글	-8.67002
▁은행	-8.67538
▁이걸	-8.6755
▁관심이	-8.67635
▁음식이	-8.67665
말	-8.67665
▁환경을	-8.67773
▁이것	-8.67825
▁발생	-8.67903
▁아무	-8.67927
군	-8.67976
보다는	-8.6799
▁관	-8.68002
▁건강에	-8.68034
▁드	-8.68116
박	-8.68222
까요	-8.68231
▁가게	-8.68385
▁될까요	-8.68684
▁다음에	-8.68715
▁얘기를	-8.68788
▁그랬	-8.68895
져서	-8.68898
▁식	-8.68927
▁잔	-8.69231
▁문화	-8.69264
종	-8.69285
▁기분	-8.69571
▁매우	-8.69644
포	-8.69727
살	-8.70015
▁코로나가	-8.70122
매	-8.70279
▁사고	-8.70394
▁쓰는	-8.70458
에도	-8.71058
▁풀	-8.71124
▁왔어요	-8.71128
았	-8.71291
▁아직도	-8.714
▁친구랑	-8.71669
▁축제에	-8.71756
▁말이야	-8.71841
락	-8.72031
▁안녕하세요	-8.72072
▁예약	-8.72114
▁몰라	-8.72115
▁언니	-8.72179
대로	-8.72227
되어	-8.72247
▁일상	-8.72548
▁맞는	-8.7278
성이	-8.72828
▁당신은	-8.72854
▁마음이	-8.72914
▁당신	-8.73011
▁부동산에	-8.73266
▁내려	-8.73469
▁뒤	-8.73656
야겠어	-8.7366
▁되어	-8.73748
보고	-8.73801
게요	-8.73863
▁회	-8.73869
판	-8.73877
▁땐	-8.73934
▁시간에	-8.7403
▁줘	-8.74037
▁밤	-8.74227
▁돌	-8.74274
▁최고	-8.74304
▁귀	-8.74342
▁마지막	-8.74348
하려면	-8.74637
▁지금은	-8.7471
▁고생	-8.7479
니다	-8.74816
카	-8.75016
하는데	-8.75058
배	-8.75113
▁특산물은	-8.75143
등	-8.75239
▁쓰고	-8.75351
▁사람들은	-8.75486
창	-8.75585
▁직업이	-8.75621
▁대화	-8.75632
▁중이야	-8.75647
버	-8.75898
별	-8.75933
▁했다	-8.75992
▁카페	-8.7609
▁절	-8.7641
▁성공	-8.76631
▁보세요	-8.76654
시면	-8.76696
▁말해	-8.76803
▁지내	-8.77031
▁듣고	-8.77036
▁허	-8.77067
▁직업을	-8.77095
▁쉬	-8.77114
▁가요	-8.77186
▁힘든	-8.77206
겠어요	-8.77215
▁육	-8.77363
▁비싸	-8.77489
▁않	-8.77661
류	-8.77665
▁벌	-8.77682
▁질병	-8.77697
▁몸이	-8.77738
시는	-8.77802
▁위한	-8.7781
▁머리	-8.77876
▁해결	-8.77929
▁부모님	-8.77974
▁싸	-8.77987
▁좋겠어요	-8.78051
▁것이다	-8.78088
래요	-8.78143
름	-8.78145
▁나왔	-8.78164
▁다니	-8.7823
▁관련	-8.7837
▁종일	-8.7837
▁국	-8.78451
▁알려	-8.78472
▁지나	-8.78752
먹	-8.78773
▁꾸준히	-8.78827
▁같습니다	-8.7888
청	-8.78893
▁좋아서	-8.78914
▁감사합니다	-8.79044
▁먹자	-8.79048
▁시켜	-8.79144
더라고	-8.79147
임	-8.7927
▁투자	-8.79287
▁했습니다	-8.79407
▁최	-8.79423
▁도움이	-8.79507
▁생활	-8.79525
▁보통	-8.7953
같이	-8.79556
▁요리	-8.79587
이죠	-8.79625
▁추천	-8.79687
렸	-8.79724
▁산책	-8.79749
▁저녁에	-8.80159
▁받고	-8.80392
하시	-8.80402
▁부산	-8.80468
▁대학	-8.80619
▁미리	-8.80625
플	-8.80819
▁끝나	-8.80973
▁인생	-8.8105
이라도	-8.81063
한다고	-8.8115
▁어려워	-8.8121
▁있었어	-8.8131
▁있어야	-8.81339
군요	-8.81506
▁아파트	-8.81519
▁건가요	-8.8195
▁돌아	-8.82124
▁신청	-8.82274
▁책을	-8.82392
교	-8.82434
▁병원	-8.82461
▁보이	-8.8251
▁코로나로	-8.82528
각	-8.8253
▁동네	-8.82567
▁지난	-8.82706
▁생각하면	-8.82725
▁끼	-8.82784
▁문제가	-8.82982
▁선택	-8.83305
▁얼굴	-8.8342
거리	-8.83519
근	-8.83723
▁아닌	-8.83788
▁인간	-8.83959
▁다양한	-8.84095
▁빼	-8.84132
거나	-8.8418
언	-8.84224
▁들고	-8.84292
투	-8.84295
▁어릴	-8.84486
▁특산물이	-8.84643
망	-8.8465
녀	-8.84678
▁나면	-8.84697
▁바다	-8.84699
▁드라마	-8.84767
▁웃	-8.84819
합	-8.8482
칠	-8.84866
▁공부를	-8.84906
▁인해	-8.84913
▁날이	-8.84954
▁담	-8.852
▁관광지에	-8.85442
▁휴가를	-8.85514
을까	-8.85523
▁음식은	-8.85709
▁채	-8.85734
▁친구들과	-8.85781
추	-8.85871
▁금	-8.85939
만큼	-8.86125
▁행동	-8.86154
▁학	-8.86211
▁방법	-8.8622
▁배가	-8.86277
인가	-8.86291
▁일어나	-8.86321
▁저도	-8.8642
▁낮	-8.86662
▁동물	-8.86742
▁의미	-8.86884
▁따로	-8.86894
▁형	-8.86914
▁포	-8.87059
▁친구는	-8.87108
▁높은	-8.87387
▁잠깐	-8.8741
▁그럴	-8.87537
▁고향이	-8.8759
▁주문	-8.87725
▁특	-8.87732
▁사람을	-8.87751
▁가보고	-8.87799
▁하자	-8.87839
▁무엇을	-8.88036
있	-8.88136
▁군	-8.88187
▁정신	-8.88198
▁표	-8.88378
▁없습니다	-8.88396
되고	-8.88419
▁다이어트를	-8.88422
▁여행을	-8.8858
▁질병에	-8.8861
즈	-8.88737
드릴게요	-8.88769
수록	-8.8894
지도	-8.89103
령	-8.89176
친	-8.89272
▁그것은	-8.89305
▁핸드폰	-8.89392
애	-8.89462
▁동생	-8.895
▁진행	-8.89513
▁뭐라고	-8.89526
▁하겠습니다	-8.89738
▁그림	-8.89856
▁뒤에	-8.89878
▁박	-8.89916
▁떠	-8.89967
▁어르신	-8.89988
▁보니	-8.90084
▁싶지	-8.90192
지를	-8.90214
▁훨씬	-8.90225
▁화장실	-8.90292
다면	-8.90366
▁해외여행을	-8.9044
더	-8.90465
▁계	-8.90497
염	-8.90558
하니까	-8.90565
▁결국	-8.90617
▁소설	-8.90627
▁얼른	-8.90676
▁질문	-8.90709
▁체	-8.90882
▁너희	-8.90999
▁오면	-8.91155
▁상품	-8.91224
▁지구온난화	-8.91263
했	-8.91379
▁여름	-8.91381
▁도대체	-8.91388
토	-8.9146
▁있는지	-8.91472
▁아프	-8.91528
▁하면서	-8.91607
▁어때요	-8.91616
스트	-8.91631
▁할까	-8.91823
▁살고	-8.91839
▁있으니까	-8.91856
▁할아버지	-8.91937
▁얘	-8.91962
▁때가	-8.91985
았어	-8.9208
▁높아	-8.92288
▁재밌	-8.92449
▁휴양지에	-8.92475
량	-8.92521
함	-8.92541
▁만든	-8.92577
▁시에	-8.92583
▁치킨	-8.9265
▁평	-8.92667
노	-8.9294
▁바람	-8.93037
니깐	-8.93118
께	-8.93206
▁넘	-8.93222
▁다이어트는	-8.9327
▁갈까	-8.93304
겠	-8.93509
▁중에서	-8.93582
▁결정	-8.93659
▁보자	-8.93684
▁종	-8.93794
▁살이	-8.94044
버리	-8.94067
▁대해서는	-8.94133
▁나를	-8.94328
▁충	-8.94336
▁꽤	-8.94344
▁가려고	-8.94383
▁베	-8.94437
▁않을	-8.94589
▁활동	-8.94601
데요	-8.94721
이면	-8.9473
▁대신	-8.94758
▁같다	-8.94758
혀	-8.94767
▁대비	-8.94788
▁출	-8.94987
▁아무것도	-8.9509
▁알았어	-8.95225
▁향	-8.95269
▁통해서	-8.9529
불	-8.95353
▁행복	-8.95534
▁안녕	-8.95585
▁주로	-8.95659
▁칠	-8.95712
▁그렇지	-8.95831
▁작은	-8.95909
현	-8.95922
▁뜻	-8.95965
▁나의	-8.96124
▁크게	-8.96157
결	-8.96176
▁좋아해요	-8.96313
▁받을	-8.96546
야겠다	-8.9663
▁피해가	-8.96645
코	-8.96832
▁발음	-8.96877
▁하나도	-8.96888
▁선생님은	-8.96913
▁기대	-8.9694
▁눈이	-8.96958
▁머리가	-8.96987
▁온다	-8.97033
곤	-8.97036
으니	-8.97157
▁겨울	-8.97162
▁읽어	-8.97166
라서	-8.97185
▁들었어	-8.97233
▁아이돌이	-8.97311
립	-8.97337
▁교육	-8.97419
▁하늘	-8.97605
▁아이들	-8.97621
▁휴가는	-8.97832
▁부르	-8.97894
▁누	-8.9796
▁대출받	-8.97991
▁자리	-8.98093
셨나요	-8.98096
드리	-8.98183
▁목	-8.98201
돼	-8.98244
낼	-8.98292
▁시장	-8.983
▁친	-8.9846
▁주제	-8.98464
▁추천해	-8.98651
태	-8.9867
적이	-8.98681
주는	-8.98737
졌어요	-8.98819
된다	-8.98839
▁절대	-8.98847
아서	-8.98902
▁있었다	-8.98986
▁환경이	-8.99094
▁월	-8.99096
▁걸로	-8.99256
째	-8.99316
▁마음에	-8.9936
▁녹	-8.99386
▁임	-8.9959
▁이십	-8.996
▁결과	-8.99654
▁근	-8.99835
▁키우	-8.99847
▁사실은	-8.99925
▁쪽	-8.99968
▁논	-9.00053
▁좋은데	-9.00104
덕	-9.00284
▁맨날	-9.00321
▁지원	-9.00332
럽	-9.00639
월	-9.00679
▁모르겠어요	-9.00894
▁가져	-9.00939
▁우산	-9.00959
셔야	-9.01149
▁그다음	-9.01171
▁방송에	-9.01213
▁생일에	-9.01227
▁필수	-9.01287
▁그것	-9.01423
다니	-9.01439
▁가족은	-9.01537
▁맛있어	-9.0159
▁저번에	-9.01665
후	-9.01774
▁출근	-9.01781
께서	-9.019
▁붙	-9.01934
▁여기에	-9.02022
▁모르	-9.02042
이지	-9.02081
▁생일이	-9.02089
▁접	-9.02184
▁돌아가	-9.0225
▁사과	-9.02279
독	-9.02395
▁숨	-9.02446
▁커	-9.02466
▁않을까	-9.02485
키	-9.02712
▁쉽게	-9.02841
▁그녀는	-9.02947
웠	-9.03016
▁프로그램	-9.03099
쯤	-9.03156
▁먹을까	-9.03173
었습니다	-9.03192
▁직업은	-9.03218
▁식사는	-9.03287
▁모르는	-9.03361
▁시간을	-9.03454
▁아무리	-9.03457
▁다녀	-9.03485
▁이사	-9.03574
▁기다려	-9.03606
외	-9.03636
남	-9.03646
▁고마워	-9.03656
▁악	-9.03686
▁하나요	-9.03744
▁상황	-9.03756
▁일은	-9.03779
▁아파	-9.0393
▁하세요	-9.03991
▁내려가	-9.0418
▁미래	-9.04235
▁달에	-9.04254
▁인터넷	-9.04305
▁밤에	-9.04352
됐	-9.04406
▁가끔	-9.04443
▁무서워	-9.04598
리고	-9.0463
▁나무	-9.04655
▁조금만	-9.047
▁폭염에	-9.04702
▁어디에	-9.04952
▁취소	-9.04963
▁끝나고	-9.05009
▁상태	-9.05013
▁급	-9.05177
습	-9.05259
▁주고	-9.0533
시죠	-9.05359
▁빵	-9.05415
▁먹을래	-9.05441
▁음악은	-9.05513
▁현재	-9.05786
▁확인해	-9.0581
▁먹지	-9.05855
▁부탁	-9.0588
▁라면	-9.06176
▁축제가	-9.06183
▁내일은	-9.0628
하니	-9.06281
▁학생	-9.06302
사가	-9.06397
▁되나요	-9.06411
▁철	-9.06482
▁가능	-9.0673
소리	-9.06811
▁뉴스	-9.06848
▁연습	-9.06879
표	-9.06889
▁너네	-9.06899
담	-9.06905
▁뭔지	-9.06921
▁그는	-9.06942
▁배우	-9.06977
▁감기	-9.07006
▁걸리	-9.07104
처	-9.07151
▁영화는	-9.07207
▁가족이	-9.07493
▁아이돌은	-9.07531
▁피해	-9.07607
▁좋을까	-9.0761
▁오르	-9.07731
▁예전에	-9.07939
순	-9.08048
▁이용	-9.08088
▁더워서	-9.08122
▁개인	-9.08287
▁때부터	-9.08562
리가	-9.08641
▁어렵	-9.08742
▁회의	-9.08757
▁방송에서	-9.08813
▁식당	-9.08862
▁승	-9.089
▁학원	-9.08955
▁하니	-9.09049
▁거라고	-9.09091
번	-9.09156
려서	-9.09204
▁하려고	-9.09317
▁사이	-9.09325
▁문장	-9.09374
▁밀	-9.09385
▁경기	-9.09411
▁생겼	-9.09419
▁안에	-9.09506
▁보려고	-9.09594
환	-9.09605
쪽	-9.0967
▁직업에	-9.09702
초	-9.09758
▁경우	-9.09769
▁운동은	-9.09871
▁한다고	-9.09899
▁다녀오	-9.10045
▁땅	-9.10245
▁쓰레기	-9.10247
▁이유	-9.10315
들도	-9.10333
볼까	-9.10377
▁오늘도	-9.10392
▁빌려	-9.10564
▁키	-9.10577
▁가을	-9.10693
▁늦게	-9.10819
해주세요	-9.10969
▁자산관리는	-9.10977
▁전혀	-9.11033
였어	-9.11064
할까	-9.11127
▁컴퓨터	-9.11137
▁탈	-9.11227
들에게	-9.11283
▁만드는	-9.11285
▁단어	-9.11395
▁자신	-9.11415
▁하니까	-9.11465
▁청약에	-9.11485
평	-9.11529
▁괜찮은	-9.11554
▁식사를	-9.11742
▁처	-9.11815
▁금방	-9.11855
이고	-9.11965
주의	-9.12042
것	-9.12085
볼	-9.12324
▁물론	-9.12457
▁위에	-9.125
▁미안해	-9.1256
록	-9.12587
▁답	-9.12666
▁방금	-9.12675
술	-9.12726
▁소식	-9.12773
▁받는	-9.12816
▁없고	-9.13128
▁도착	-9.13165
▁정부	-9.13218
▁작	-9.13261
▁질	-9.1329
▁안전	-9.1331
▁세상	-9.13314
인이	-9.13459
▁그것을	-9.13523
▁그렇	-9.1353
▁맛이	-9.13551
▁토	-9.13587
하시면	-9.1362
▁뭐예요	-9.13767
▁건강이	-9.13775
▁않았어	-9.13818
▁집이	-9.13835
▁어렸을	-9.13845
▁혼	-9.13863
이니까	-9.13884
▁다섯	-9.13908
범	-9.13968
▁빨래	-9.13969
▁삼십	-9.13978
곡	-9.14052
▁없는데	-9.14086
▁나올	-9.14123
탕	-9.14168
▁준	-9.14192
▁변화	-9.14218
하실	-9.14303
▁말아	-9.14338
▁케이크	-9.14405
▁봐야	-9.14765
극	-9.14778
▁휴양지에서	-9.14784
▁하죠	-9.14857
▁인물	-9.14926
▁설	-9.14979
▁가수	-9.15033
시다	-9.15044
▁있게	-9.15081
▁아무래도	-9.15097
▁투	-9.15116
▁우와	-9.1516
▁받	-9.15194
철	-9.15377
▁밥을	-9.15422
렸어	-9.15455
▁리	-9.15466
▁고등학교	-9.15602
▁없었	-9.15699
지가	-9.15751
▁될까	-9.15788
▁불러	-9.15816
맛	-9.15989
▁자연	-9.15999
▁시대	-9.16015
▁발표	-9.16053
움	-9.16066
▁축하해	-9.1612
올	-9.16162
든지	-9.16163
▁됐어	-9.16289
봤어	-9.16333
▁현	-9.16375
▁방법이	-9.16646
▁써야	-9.16647
▁자동차	-9.16687
▁싶습니다	-9.16721
▁우선	-9.1675
장이	-9.16805
▁잠을	-9.16883
는데요	-9.16914
▁약간	-9.16919
▁힘들어요	-9.16969
▁특히	-9.17039
승	-9.17405
▁물어보	-9.17505
▁쉽지	-9.17509
▁환경에	-9.17576
▁창문	-9.17661
▁암	-9.17695
▁의사	-9.1771
▁그대로	-9.17714
▁오빠	-9.17736
▁졸업	-9.17795
▁조사	-9.17803
▁만기	-9.17837
▁봤는데	-9.18021
▁토론	-9.18193
▁국어	-9.1826
▁아이스크림	-9.1827
▁기본	-9.18282
▁지키	-9.18292
성을	-9.18327
습니까	-9.18548
▁숙제	-9.1858
▁집을	-9.18612
▁영화가	-9.18649
▁병원에	-9.18658
▁취미	-9.18664
▁왔는데	-9.18742
▁않게	-9.18768
하셨	-9.18825
▁쪽으로	-9.1892
됩니다	-9.18973
▁근처에	-9.19008
었던	-9.19062
▁갔어	-9.19139
삼	-9.19247
▁할지	-9.19377
▁올해는	-9.19525
▁해주	-9.19532
▁폭	-9.19567
▁프로	-9.19581
줄래	-9.19616
▁같아서	-9.19623
▁휴양지로	-9.19648
▁주식	-9.19715
▁관련해서	-9.19861
▁언제쯤	-9.19877
▁대체	-9.19952
셔	-9.19962
▁조심	-9.19968
▁틀	-9.20004
▁챙기	-9.20016
▁권	-9.20052
▁이곳	-9.20055
▁과	-9.20099
씩	-9.20104
▁기회	-9.20108
▁들어요	-9.20134
수가	-9.20168
▁하셨	-9.20216
▁대로	-9.20233
▁걱정이	-9.20279
▁전부	-9.20463
▁가보	-9.20468
▁유명	-9.2064
▁과제	-9.2067
▁그리	-9.20686
▁않습니다	-9.20698
▁편이야	-9.20707
▁왕	-9.20771
▁느	-9.20778
▁먹었	-9.20789
▁운전	-9.20825
▁보험을	-9.20845
▁후에	-9.20863
▁집중	-9.2089
▁내용을	-9.20968
▁걔	-9.21063
줄게	-9.21064
▁추석	-9.21165
▁가치	-9.21227
▁안돼	-9.21255
▁온난화로	-9.21277
장을	-9.21281
▁경제에	-9.21294
력이	-9.21413
▁없을	-9.21437
▁봄	-9.21535
▁물건	-9.21572
▁대상	-9.21631
흐	-9.21748
▁올라	-9.21778
▁디	-9.21792
밥	-9.21841
책	-9.21846
▁각	-9.21936
▁조심해	-9.22039
▁기다리	-9.22046
▁보호	-9.22071
▁딸	-9.22086
▁올랐	-9.22214
▁피자	-9.22242
▁나갈	-9.22405
▁샀어	-9.22464
▁대화를	-9.22584
▁고기	-9.2259
버렸어	-9.22609
▁떠나	-9.22658
▁먹어요	-9.22691
▁비타민	-9.22732
존	-9.22779
▁아르바이트	-9.23005
원이	-9.23034
▁해외	-9.23049
▁듣는	-9.23085
았다	-9.23108
▁가방	-9.23208
리를	-9.23221
▁좋더라	-9.23282
▁농	-9.23377
▁이러	-9.23408
▁걸어	-9.23435
▁당신의	-9.23543
▁상담	-9.23573
▁풍	-9.23626
▁터	-9.23645
▁예방	-9.23695
케	-9.23824
열	-9.23828
▁특징	-9.23835
육	-9.23939
하시는	-9.24164
▁큰일	-9.24172
▁나에게	-9.24206
팔	-9.24212
▁메뉴	-9.24348
▁무엇이	-9.24444
▁쓴	-9.2455
하셔야	-9.2457
▁입고	-9.24578
▁여러분이	-9.24586
▁이제는	-9.24659
▁생기	-9.24756
필	-9.24803
▁떡볶이	-9.24831
▁비행기	-9.24871
만한	-9.2491
▁바라	-9.24927
▁사장님	-9.25059
▁전체	-9.25072
▁돼서	-9.25102
▁같지	-9.25111
▁뛰어	-9.25266
▁애들	-9.25294
▁태	-9.25434
▁바꾸	-9.25485
어야	-9.25529
라면	-9.25531
▁취	-9.25564
▁부분이	-9.25739
▁아니고	-9.25821
▁나이에	-9.25827
▁빈	-9.25848
▁바랍니다	-9.25856
▁기억이	-9.26035
▁티브이	-9.26232
▁때마다	-9.26354
▁사건	-9.26414
▁분위기	-9.26553
▁앉아	-9.26613
▁위험	-9.26672
드려	-9.26753
▁제발	-9.26968
보험	-9.27147
▁알려주세요	-9.27166
사를	-9.27264
▁이번에는	-9.27388
▁여기는	-9.27472
돼서	-9.27549
,	-9.27617
보는	-9.27648
▁존재	-9.27654
▁말하는	-9.27709
▁제시	-9.27773
겼	-9.27884
▁관계	-9.27885
▁적어	-9.28056
▁당신이	-9.28079
때	-9.28086
▁관련된	-9.28114
▁합	-9.28115
▁도와	-9.28183
▁너의	-9.28246
▁짓	-9.28286
▁옛날	-9.28296
▁주말	-9.2836
▁고향은	-9.28386
▁바꿔	-9.28595
▁문제를	-9.28604
▁좋습니다	-9.28618
▁키우는	-9.28656
▁때문이	-9.28678
▁안되	-9.28688
했을	-9.28691
▁앞에서	-9.28804
▁스트레스	-9.28829
▁자신의	-9.2893
▁그니까	-9.29082
해도	-9.29187
▁번도	-9.29307
▁건물	-9.29353
▁청약을	-9.29358
북	-9.29384
지면	-9.29437
▁만나서	-9.29539
활	-9.29554
물이	-9.29613
▁반대	-9.29712
▁있고요	-9.29903
▁생각하는	-9.30176
▁추워	-9.30261
하죠	-9.30262
▁옷을	-9.30386
▁국가	-9.304
탄	-9.30443
▁왔다	-9.3046
▁생각하고	-9.30516
▁것입니다	-9.30543
▁배달	-9.30548
▁나와서	-9.30554
테	-9.30676
▁그런지	-9.30743
▁올라가	-9.30752
돌	-9.30923
▁최근에	-9.30931
▁싶어서	-9.30966
▁있으세요	-9.31066
▁옆에	-9.31078
▁나왔어	-9.31092
▁맡	-9.31191
▁키우고	-9.3123
▁유튜브	-9.31333
▁까	-9.31345
▁봤어요	-9.31352
▁들어야	-9.31387
▁보험은	-9.31413
▁파티	-9.31427
▁상황이	-9.31481
▁지하철	-9.31481
느냐	-9.31546
▁들어서	-9.3155
롭	-9.3163
▁과정	-9.31702
▁내용이	-9.31722
▁남편	-9.31794
글	-9.31919
▁떨	-9.32002
▁어쩌	-9.32011
▁총	-9.32019
에서도	-9.32043
▁자전거	-9.32156
하려	-9.32254
족	-9.32315
촌	-9.32368
기에	-9.32416
▁지나가	-9.32441
▁더워	-9.32578
▁관광지에서	-9.32589
▁너한테	-9.32605
▁따라서	-9.32624
▁교과서	-9.32717
▁교수님	-9.32829
▁자산	-9.32833
▁마음을	-9.32857
▁삶	-9.32865
▁있기	-9.3288
▁느끼	-9.32911
하기로	-9.32929
▁보다	-9.32931
▁친구를	-9.32966
▁있었어요	-9.33021
하네	-9.33133
▁주변	-9.33163
▁않으면	-9.3328
▁의견	-9.33373
▁있나	-9.33405
야겠어요	-9.33477
▁사업	-9.33509
▁재미있	-9.33542
▁노래를	-9.33545
▁키워	-9.33549
치는	-9.33563
▁것보다	-9.336
▁된다고	-9.33723
▁맛있게	-9.33899
▁강의	-9.33906
▁유행	-9.33961
▁에이	-9.33985
왔	-9.3406
▁머	-9.34088
▁만큼	-9.34095
▁다르	-9.34096
▁정책	-9.3415
▁부담	-9.3415
▁소리가	-9.34256
▁기간	-9.34262
▁생신	-9.34302
봤	-9.34405
보세요	-9.34432
블	-9.34499
▁침	-9.34508
▁온다고	-9.34544
▁나가서	-9.34556
▁구성	-9.3457
▁스스로	-9.34577
▁수학	-9.34641
였다	-9.34697
▁멋있	-9.34697
▁이어	-9.34709
▁않으	-9.3476
▁재밌는	-9.34875
▁천천히	-9.34883
▁끝내	-9.34959
▁통장	-9.34964
▁관해서	-9.34991
협	-9.34991
▁있잖아	-9.35012
▁할까요	-9.35064
▁환	-9.35211
▁인사	-9.35234
▁짜	-9.35358
▁대학교	-9.35439
하다고	-9.35466
인데요	-9.35502
▁역	-9.35532
▁팀	-9.35542
▁당연히	-9.35578
런	-9.35586
▁덥	-9.35614
▁독	-9.35616
▁생긴	-9.35703
▁들었	-9.3589
▁건지	-9.35917
능	-9.35991
▁한데	-9.36026
지요	-9.36113
▁모양	-9.36142
▁드는	-9.36185
▁이유가	-9.36257
▁친구들이	-9.363
▁꾸	-9.36309
▁들어오	-9.36321
주시	-9.36329
▁떨어지	-9.36363
▁메	-9.36447
▁포기	-9.36498
▁하시	-9.3652
▁말도	-9.36555
▁중요해	-9.36591
했다고	-9.36642
▁경험	-9.36754
▁일어났	-9.36786
▁하더라	-9.36789
축	-9.36827
▁계시	-9.369
▁마시고	-9.36967
줘야	-9.37011
▁좋을까요	-9.3702
▁걸까	-9.37102
너	-9.37274
▁먹기	-9.37307
▁힘	-9.3734
▁필요가	-9.37364
▁과일	-9.37368
▁배워	-9.37413
▁집은	-9.37485
이라서	-9.37487
▁자고	-9.3764
되지	-9.37833
▁여름에	-9.37854
▁듣	-9.37879
션	-9.37922
▁고장	-9.37978
▁어린	-9.3798
주고	-9.38011
▁황	-9.38072
비가	-9.38099
▁피부	-9.38104
▁것처럼	-9.38115
▁방식	-9.3812
▁외국	-9.38155
▁성격	-9.38165
▁개념	-9.38371
▁레	-9.38396
춤	-9.38684
막	-9.3871
았어요	-9.38744
▁손님	-9.38746
▁보이는	-9.38776
▁읽	-9.38951
▁건강관리에	-9.38961
벌	-9.39025
▁알아보	-9.39079
예	-9.39093
▁예쁜	-9.39185
▁오히려	-9.39246
▁결	-9.39319
▁온난화에	-9.39368
▁조금씩	-9.39426
하더라	-9.39541
페	-9.39558
▁테니까	-9.39749
었지	-9.39768
▁오늘부터	-9.39836
▁분이	-9.39864
▁무섭	-9.39876
하도록	-9.39948
▁넘어	-9.39981
▁이름	-9.40016
진다	-9.40094
▁오세요	-9.40101
▁궁금해	-9.40135
낸	-9.40189
▁자료	-9.40308
▁가족끼리	-9.40404
▁나타나	-9.4042
▁않는다	-9.40468
층	-9.40603
▁바람이	-9.4076
▁드디어	-9.40784
▁송	-9.40794
드리겠습니다	-9.408
▁낮아	-9.40829
▁필	-9.40878
▁무리	-9.40879
▁솔직히	-9.40906
▁맥주	-9.40909
▁피곤해	-9.40951
▁말은	-9.41014
▁마셔	-9.41048
▁며칠	-9.41071
▁푸	-9.41071
▁이름이	-9.41124
▁힘이	-9.41173
▁마시	-9.41353
▁가본	-9.41363
하겠습니다	-9.41426
▁카드	-9.41661
▁닭	-9.41672
▁나아	-9.41759
▁연결	-9.41878
▁몸에	-9.4188
▁도와주	-9.41936
▁마스크를	-9.41993
▁금리에	-9.42047
▁현상	-9.42114
▁방문	-9.4221
▁직	-9.42231
▁좋았	-9.42325
▁전문가	-9.42339
냐면	-9.42402
주실	-9.42447
느라	-9.4248
▁다닐	-9.42543
▁해외여행은	-9.42682
▁편이	-9.42692
웠어	-9.42694
▁마리	-9.42727
▁여름휴가	-9.42803
▁완전히	-9.42806
▁지켜	-9.42826
▁카	-9.42906
향	-9.42955
▁감정	-9.42965
▁났어	-9.4297
▁아파서	-9.4306
▁역사	-9.43083
▁어떡해	-9.43097
▁없지	-9.4312
▁몰	-9.43244
▁광	-9.4331
브	-9.4341
▁그래요	-9.43523
▁빠져	-9.43545
렸다	-9.43557
▁물을	-9.4358
▁초대	-9.4363
겁	-9.43731
▁하게	-9.43751
▁대부분	-9.43765
▁강원도	-9.43774
▁작가	-9.4387
▁면	-9.43942
▁지문	-9.44105
십시오	-9.44132
채	-9.44173
▁목소리	-9.44206
▁벗	-9.44237
▁꺼	-9.44238
▁필요해	-9.44306
희	-9.44318
▁하루에	-9.44384
입니까	-9.4444
▁모습	-9.44488
▁선물로	-9.44538
갑	-9.4456
▁우유	-9.44653
▁아픈	-9.44686
▁짜증	-9.44755
▁견	-9.44829
▁후보	-9.44838
▁해줘	-9.4486
▁거짓말	-9.44948
▁개발	-9.45058
둥	-9.45161
주면	-9.45162
자는	-9.45274
풍	-9.45314
▁특별한	-9.45334
▁문자	-9.45428
▁걸려	-9.45439
▁끝나면	-9.45506
머	-9.45596
▁검사	-9.45641
▁해야지	-9.45653
▁잡아	-9.45687
변	-9.45714
▁분들	-9.45801
▁조심해야	-9.45851
▁관한	-9.45858
▁빌	-9.45858
▁축제는	-9.45971
▁공간	-9.46068
셔서	-9.46075
▁평소에	-9.46118
자를	-9.46119
▁관심	-9.46125
▁있습니까	-9.46188
▁감사	-9.46249
▁알려줘	-9.46253
하라고	-9.46297
▁방법을	-9.46463
감이	-9.46467
▁나쁜	-9.46602
▁소개	-9.46616
▁효과	-9.4673
▁널	-9.46785
▁멋진	-9.46838
했었	-9.46891
득	-9.46901
하느라	-9.46925
▁공연	-9.46952
되면	-9.46976
이란	-9.46989
▁그것이	-9.47017
▁정보	-9.47023
▁맞아요	-9.47031
▁담배	-9.47127
▁남자친구	-9.47151
▁쭉	-9.47155
▁퇴근	-9.47172
▁받아야	-9.47182
▁마을	-9.47281
▁먹은	-9.47341
▁않아서	-9.47356
▁갈등	-9.4742
▁방송을	-9.47435
▁곳은	-9.47447
겠네	-9.47495
▁대피	-9.47509
▁다이어트에	-9.47567
▁없네	-9.47693
▁축구	-9.47787
▁있었는데	-9.478
▁거기에	-9.4787
▁세상에	-9.47887
▁무서운	-9.47927
축제	-9.47928
▁좋겠	-9.47966
▁얘들아	-9.48015
렴	-9.48047
치고	-9.48086
▁저희가	-9.48102
▁가격	-9.4819
▁보험에	-9.48214
해야지	-9.48224
▁무조건	-9.48234
택	-9.48297
신가요	-9.48317
▁이거는	-9.48336
효	-9.48404
▁드시	-9.48424
▁아무도	-9.48445
▁완전	-9.48457
▁홍	-9.48458
광	-9.48481
견	-9.48481
▁영향을	-9.48482
악	-9.48572
값	-9.48597
▁요즘에	-9.48633
▁했던	-9.48654
하지만	-9.48668
▁푹	-9.48708
▁주택청약	-9.48807
▁음악이	-9.48867
▁구경	-9.48927
하던	-9.48929
▁장난	-9.48934
▁연구	-9.48977
▁직장	-9.49013
▁파리	-9.49051
▁내일부터	-9.49063
▁되겠	-9.49081
송	-9.49171
▁언제나	-9.49192
▁글을	-9.49235
▁생각나네	-9.4932
▁소개해	-9.49355
▁저번	-9.49375
▁통해	-9.49381
▁유지	-9.49396
듯	-9.49448
▁했더니	-9.49489
▁들었어요	-9.49512
▁몰랐	-9.49741
랐	-9.49802
▁적금은	-9.49906
▁제출	-9.49906
규	-9.4991
▁잊지	-9.50007
▁그죠	-9.50033
▁인기	-9.50052
▁거기서	-9.50077
▁싸우	-9.502
▁갔는데	-9.50276
▁나이를	-9.50306
되었다	-9.50307
▁거니	-9.50332
▁바뀌	-9.50395
치가	-9.50405
▁했지	-9.50429
할게요	-9.50499
▁수영	-9.50503
▁모아	-9.50518
▁없다고	-9.50546
▁좋으	-9.50571
▁효과가	-9.50572
▁올리	-9.50678
▁능력	-9.50692
▁틀어	-9.50784
받아	-9.50819
▁나빠	-9.50869
▁너랑	-9.50879
▁기준	-9.50933
▁거래	-9.51103
▁판	-9.51106
▁썼	-9.51133
▁광고	-9.51141
▁오고	-9.51155
▁들으면	-9.51215
줄까	-9.5123
▁계세요	-9.51333
▁들려	-9.51336
람	-9.51355
▁것들이	-9.51414
▁실제로	-9.51449
▁장소	-9.51462
▁예쁘	-9.51474
받으러	-9.51526
▁신문	-9.51534
▁어디가	-9.51547
▁귀찮	-9.5155
▁반드시	-9.51586
▁찍어	-9.51612
▁추가	-9.51624
드릴	-9.51732
▁더운	-9.51839
봉	-9.51861
▁즐기	-9.51865
▁알았	-9.52011
▁순간	-9.52046
▁날아	-9.5207
▁해주세요	-9.52114
스를	-9.52134
손	-9.52139
▁이야기했어	-9.52178
▁예전	-9.52197
▁거니까	-9.52221
▁부정적인	-9.5227
▁현실	-9.5227
시간	-9.52298
▁가르쳐	-9.52315
▁긴	-9.52364
▁생각나네요	-9.52454
▁덜	-9.52519
▁가족들과	-9.52636
겠습니까	-9.52655
하기가	-9.52665
▁간다	-9.52704
▁때도	-9.52769
▁식으로	-9.52849
▁시키	-9.5287
▁중심	-9.52959
메	-9.53028
잡	-9.53049
▁만한	-9.53096
▁비교	-9.53111
▁만날	-9.53165
▁그동안	-9.5319
▁아닙니다	-9.53374
▁주의	-9.53596
▁발전	-9.53624
보려고	-9.53638
▁드세요	-9.53658
귀	-9.53714
객	-9.5385
▁장르	-9.5385
침	-9.53851
려고요	-9.5397
▁선풍기	-9.53977
▁휴	-9.54051
▁선생님께서	-9.54061
▁자유	-9.5407
▁올게	-9.54098
십니다	-9.54111
▁건강검진은	-9.54286
이래	-9.54369
▁대출이	-9.54386
▁보면서	-9.54401
한데	-9.5447
▁도서관	-9.5449
▁마트	-9.54518
▁아저씨	-9.54537
▁받았어	-9.54569
익	-9.54625
하네요	-9.5466
▁이자	-9.5476
액	-9.54803
▁언제까지	-9.54827
▁골	-9.54833
십니까	-9.54897
보자	-9.54932
▁해봐	-9.54953
▁폐	-9.54958
▁일정	-9.54963
▁사람의	-9.55001
▁공원	-9.55047
▁뉴욕	-9.55053
봤는데	-9.55081
▁죄송합니다	-9.55147
▁사람도	-9.55185
▁넣고	-9.55194
▁비용	-9.55239
줘서	-9.55302
으세요	-9.55311
들과	-9.55322
▁슬	-9.55332
▁색	-9.55375
달라고	-9.55432
▁폭염으로	-9.55439
▁검진	-9.5549
▁걱정이야	-9.55492
▁것들을	-9.5554
▁여기까지	-9.5555
▁꼬	-9.5557
훈	-9.55619
▁사러	-9.55642
▁빠지	-9.55735
▁상대	-9.55759
▁예정	-9.55838
▁구조	-9.55887
겠네요	-9.55888
▁않다	-9.55951
▁있지만	-9.55982
▁건강한	-9.56038
▁신발	-9.56076
▁허리	-9.56081
▁내년에	-9.56288
한다는	-9.56391
▁분명히	-9.56415
▁과거	-9.56464
▁회사에서	-9.56511
율	-9.56553
▁잘하는	-9.56574
▁길이	-9.56606
▁느낌이	-9.56607
▁치료	-9.5666
▁쉬운	-9.56694
▁두고	-9.56705
▁있었던	-9.56705
▁온라인	-9.56715
합시다	-9.56757
▁친구들이랑	-9.5681
▁되었	-9.56821
져요	-9.56876
시키	-9.56946
▁잠이	-9.56954
싱	-9.57001
▁귀찮아	-9.57089
▁실수	-9.57143
▁재밌어	-9.57144
▁있다면	-9.57211
볼래	-9.57243
▁호텔	-9.57344
▁있대	-9.57365
하며	-9.57392
숙	-9.57395
▁계약	-9.57491
▁없으면	-9.57539
▁쓰지	-9.57546
▁되죠	-9.57564
▁쇼핑	-9.57578
▁목표	-9.576
하시고	-9.5769
▁대표	-9.57753
▁놓고	-9.5782
▁대출은	-9.57833
▁책상	-9.57839
▁고려	-9.57897
▁헤어	-9.5791
▁입장	-9.57926
▁좋다고	-9.57943
슬	-9.58014
장에	-9.58113
▁택배	-9.5816
▁시기	-9.58255
▁나누	-9.58277
하시나요	-9.58282
▁알지	-9.5832
▁이야기했어요	-9.58363
▁테	-9.5837
▁사이에	-9.58404
▁있으	-9.58443
있는	-9.58473
▁받았	-9.58508
▁되니까	-9.58582
▁현대	-9.5863
▁많다	-9.58637
주신	-9.58667
▁제목	-9.58705
▁계신	-9.58707
▁억	-9.58729
▁일반	-9.58768
▁아름다운	-9.58792
▁화가	-9.58803
▁생각해요	-9.58822
▁녹음	-9.58825
황	-9.58833
▁마치	-9.5889
▁태풍에	-9.58927
▁욕	-9.59044
▁집안	-9.59069
▁날씨는	-9.59083
▁평생	-9.59106
▁형태	-9.59161
길래	-9.59223
▁습관	-9.59269
▁받은	-9.59303
▁사야	-9.59669
▁김치	-9.59749
▁들으	-9.5975
▁월급	-9.59766
봅시다	-9.59774
▁참여	-9.5978
▁지방	-9.59809
▁일주일	-9.59825
▁바닥	-9.59846
▁기사	-9.59928
▁학기	-9.59938
▁나눠	-9.59972
▁들면	-9.59993
▁하네요	-9.59994
▁비싼	-9.60012
▁초등학교	-9.6007
▁아들	-9.60073
▁됐어요	-9.60106
▁태도	-9.60115
▁이상한	-9.60134
항	-9.60187
▁골라	-9.60257
▁후회	-9.60284
▁정도로	-9.60307
▁돌려	-9.60342
▁주택	-9.60357
▁가격이	-9.60423
▁인상	-9.60471
▁뜨	-9.60521
▁빨	-9.60586
▁이번엔	-9.60635
▁물어봐	-9.60691
▁멀리	-9.60741
▁쉬고	-9.60761
금리	-9.6079
여행	-9.60797
▁씩	-9.60818
▁볼게요	-9.60934
▁관광지는	-9.60955
끈	-9.61014
장님	-9.61017
였어요	-9.61018
▁배경	-9.61026
▁그날	-9.61039
▁맞지	-9.6104
▁생각나	-9.6106
▁충분히	-9.61064
▁여자친구	-9.61114
▁책임	-9.61194
▁쪽에	-9.61216
▁날씨에	-9.61265
▁얘기했어요	-9.61277
"	-9.61345
▁뿐	-9.61396
▁멀	-9.61425
▁인정	-9.61453
되었습니다	-9.61475
▁인한	-9.61475
▁괜찮아요	-9.61487
▁냉장고	-9.61666
몽	-9.61716
▁기술	-9.6172
▁습	-9.61749
▁내리	-9.61764
▁굴	-9.61767
▁가까운	-9.61817
▁올려	-9.61871
▁심해지	-9.62012
▁동생이	-9.62027
생활	-9.62115
▁계산	-9.62151
새	-9.62208
▁매운	-9.62247
있어	-9.62306
▁제품	-9.62315
▁확인할	-9.62357
왕	-9.62379
시고	-9.62411
▁손을	-9.62436
▁씨는	-9.62557
▁살펴보	-9.62578
일까	-9.62587
▁해보	-9.62591
▁단계	-9.62612
▁소비	-9.62624
▁기업	-9.62704
▁있잖아요	-9.62722
례	-9.62727
▁미안	-9.62808
랄	-9.62828
▁지금까지	-9.62885
▁하다	-9.62886
끼	-9.62952
▁먹어서	-9.6305
▁목적	-9.63055
이었어	-9.63075
▁월요일	-9.63084
끼리	-9.6319
으려고	-9.63276
▁종류가	-9.6328
▁작년에	-9.63333
▁풀어	-9.63392
▁아래	-9.63399
▁이따가	-9.63414
▁출발	-9.63433
▁주인공	-9.63555
▁깔	-9.63561
▁바쁘	-9.63596
▁눈물	-9.63649
▁원인	-9.63666
▁위해서는	-9.63763
▁화자	-9.63775
▁희	-9.63824
▁엄마는	-9.63838
▁조심하세요	-9.63839
▁어디야	-9.63885
▁관광	-9.639
▁선배	-9.63923
로운	-9.63958
▁얘기해	-9.63982
▁조건	-9.64066
▁구매	-9.64091
▁길을	-9.6419
▁저축	-9.64329
▁휴양지는	-9.64428
▁낫	-9.64519
▁설명해	-9.64529
▁누나	-9.64603
▁아이들이	-9.64651
▁예를	-9.64679
깊	-9.647
▁사다	-9.64711
▁놀아	-9.64722
▁짜장면	-9.64728
▁자세	-9.6474
▁듯	-9.64776
련	-9.64835
▁재미	-9.64862
▁작업	-9.64986
▁자산관리에	-9.64998
▁것으로	-9.65055
찰	-9.65096
린다	-9.65139
▁없으	-9.65145
▁외출	-9.6518
▁일이야	-9.65211
▁예뻐	-9.65219
▁이따	-9.65222
▁거리	-9.6525
▁갔어요	-9.65269
▁선물을	-9.6534
▁유럽	-9.65407
이었다	-9.65428
▁경찰	-9.65433
▁기다리고	-9.65437
▁주시면	-9.65461
▁축하	-9.65523
▁평가	-9.6553
제를	-9.65539
▁연기	-9.65723
▁니은	-9.65821
▁나쁘	-9.65885
▁찾고	-9.65965
▁생일인데	-9.65996
▁금요일	-9.66086
▁운	-9.66173
▁전기	-9.66177
▁여러분들	-9.66246
분들	-9.66303
▁찾	-9.66473
하다가	-9.66477
▁사회적	-9.66592
▁덕분에	-9.66611
▁마무리	-9.66612
▁과학	-9.66698
▁모자	-9.66751
▁낙	-9.67011
▁방학	-9.67028
▁확실히	-9.67035
▁그러고	-9.67204
▁선생님께	-9.67208
▁여섯	-9.67218
▁시작했어	-9.67357
▁선택지	-9.67399
▁없었어	-9.67407
▁간식	-9.6743
▁아내	-9.67486
▁축제를	-9.67503
▁상관없	-9.67513
둬	-9.67513
▁이젠	-9.67594
▁마련	-9.67597
▁따뜻한	-9.67642
▁연예인	-9.67727
써	-9.67819
▁나이는	-9.67842
▁파악	-9.67868
▁서비스	-9.67888
▁느껴	-9.67951
▁최고의	-9.6797
▁이쪽	-9.68002
▁"	-9.68015
▁갑니다	-9.68027
▁종류	-9.68165
▁씨가	-9.68212
착	-9.68218
▁친구야	-9.6829
▁다니는	-9.68356
▁먹어도	-9.68361
▁지금부터	-9.68371
▁오지	-9.68398
▁질병이	-9.68486
▁지진에	-9.6852
▁밑에	-9.68524
▁눈에	-9.68525
▁때까지	-9.68626
▁심각한	-9.68639
▁면접	-9.68644
▁곳에	-9.68727
▁어서	-9.68796
답니다	-9.68823
▁저랑	-9.68837
▁언어	-9.68874
솔	-9.68908
▁왔습니다	-9.69065
죽	-9.69098
님이	-9.69098
▁석	-9.69134
▁끌	-9.69135
기만	-9.69163
▁재미있는	-9.69221
▁어미	-9.69254
▁취업	-9.69278
▁규칙	-9.69287
▁못해	-9.69346
▁사무실	-9.69396
혜	-9.69409
▁아닌데	-9.69412
▁힘들다	-9.69462
▁당시	-9.69529
▁북	-9.69541
▁프랑스	-9.69559
하냐	-9.69652
닐	-9.69676
▁느낌	-9.69681
▁등산	-9.69684
▁추석에	-9.69698
▁계란	-9.69742
▁학생들	-9.69746
답	-9.69805
▁보시면	-9.6995
▁차가	-9.69956
▁엄	-9.70157
▁마실	-9.70168
▁익	-9.7018
버렸	-9.70254
▁차이가	-9.70285
▁할게요	-9.70303
▁칼	-9.70309
▁보여주	-9.70391
▁작년	-9.70417
▁저녁은	-9.70443
▁유리	-9.70456
▁젊은	-9.70501
▁패	-9.70628
힌	-9.70708
▁얘기했어	-9.70771
▁장면	-9.70775
▁싫다	-9.70818
▁얼굴이	-9.70889
쳐서	-9.70989
센	-9.71018
▁국민	-9.71082
▁것만	-9.71108
▁하던데	-9.71157
▁요즘에는	-9.71162
▁있는데요	-9.71228
▁만난	-9.71282
▁못하고	-9.71286
▁청약통장	-9.71315
▁태풍으로	-9.71331
▁시원한	-9.71487
▁되기	-9.71515
▁즐겨	-9.71537
▁알려주	-9.71579
시나요	-9.71584
상을	-9.71614
▁국내	-9.71679
▁축	-9.71688
▁잠시	-9.71703
랬	-9.71709
▁중이에요	-9.71711
▁되세요	-9.71716
해보자	-9.71882
▁건강하게	-9.71888
▁꿈이	-9.71937
옷	-9.71992
▁온대	-9.72001
▁문을	-9.72166
▁하나만	-9.72225
▁귀엽	-9.72269
▁버려	-9.72272
▁말할	-9.72277
▁생각합니다	-9.724
▁냄새	-9.72427
▁브	-9.7245
▁문학	-9.72576
쟁	-9.72586
▁당첨	-9.72613
▁술을	-9.72629
끔	-9.7265
▁해당	-9.72747
었나	-9.72762
▁많은데	-9.72782
▁아냐	-9.72871
냐고	-9.72909
▁마찬가지	-9.72933
▁성적을	-9.73013
▁놀고	-9.73018
▁피아노	-9.73046
▁알아보고	-9.73059
▁전쟁	-9.73138
▁짐	-9.73162
▁시절	-9.73218
▁벌어	-9.73275
▁완	-9.73308
▁휴대폰	-9.73328
▁관리를	-9.7334
▁즉	-9.73345
▁반복	-9.73351
▁냄새가	-9.73442
▁문제는	-9.7348
▁좋게	-9.73523
▁편의점	-9.73555
주시면	-9.7356
▁당장	-9.73618
▁매년	-9.73684
▁극	-9.73711
▁아세요	-9.73752
▁실패	-9.73801
▁냉	-9.73841
▁영상	-9.7401
▁봐도	-9.74051
▁나왔어요	-9.74134
▁언제부터	-9.74227
▁명절	-9.74228
스러워	-9.74236
▁알아야	-9.74247
하셨어요	-9.74247
▁심해	-9.74382
▁업무	-9.74411
▁긴장	-9.74416
▁클	-9.74422
▁전공	-9.74453
▁있던	-9.74477
▁얼	-9.74504
▁색깔	-9.7458
▁시작해	-9.74611
▁그렇다면	-9.74661
▁않았다	-9.74688
▁많았	-9.74743
▁갖다	-9.7475
▁길에	-9.74755
▁없을까	-9.74766
팅	-9.74799
▁마라	-9.74801
▁긍정적인	-9.74807
▁내년	-9.74814
▁원하는	-9.74838
▁둘이	-9.74876
해줘	-9.74938
▁일요일	-9.7505
▁모습을	-9.75074
▁항	-9.75131
▁사기	-9.75134
▁아이고	-9.75138
▁힘드	-9.75142
▁다리	-9.75158
딩	-9.75209
해봐	-9.7522
▁안내	-9.7531
▁서류	-9.75337
▁무엇	-9.75346
▁된다는	-9.75361
▁모르겠다	-9.75399
▁빠	-9.754
▁너를	-9.75402
▁어른	-9.75425
▁않았어요	-9.75432
▁가득	-9.75436
▁가만히	-9.75501
▁찾으	-9.75508
▁좋았어	-9.75554
둔	-9.75555
▁심각해	-9.75558
▁옛날에	-9.75733
▁커피를	-9.75867
▁자기가	-9.75868
▁유명해	-9.75874
▁여유	-9.75877
▁찌	-9.75881
▁공부할	-9.75906
▁대답	-9.75934
▁이래	-9.75954
▁과자	-9.75971
▁친한	-9.75981
▁모임	-9.76019
▁태풍은	-9.7605
▁똑같은	-9.76088
혼	-9.7609
충	-9.76151
▁아니다	-9.76182
▁낮은	-9.76184
▁가시	-9.76228
골	-9.76229
▁하는지	-9.76246
▁본다	-9.76263
▁운동이	-9.76302
▁조용히	-9.76309
▁정말로	-9.76339
▁위치	-9.76368
▁보지	-9.76412
▁깜짝	-9.76425
▁강아지는	-9.76481
놀이	-9.76598
▁여기가	-9.76645
짝	-9.76669
▁알바	-9.76691
▁글자	-9.76753
▁전세	-9.76769
하긴	-9.76797
▁집으로	-9.7685
▁읽고	-9.76872
▁등록	-9.76931
▁차를	-9.76983
▁궁금하	-9.77014
▁좋고	-9.77031
려나	-9.77051
껴	-9.77058
▁맨	-9.77071
▁처리	-9.77077
▁공기	-9.77133
하잖아	-9.77157
▁붙여	-9.77187
▁여성	-9.77293
▁과연	-9.77343
커	-9.77432
스럽	-9.77437
놈	-9.77479
▁활용	-9.7754
▁판단	-9.77545
한다면	-9.77569
▁못하는	-9.77584
늘	-9.77587
▁환경오염	-9.77597
▁속이	-9.77627
▁산업	-9.77668
뜨	-9.77709
겠지만	-9.77786
▁쳐	-9.77791
▁알아가	-9.77891
▁차이	-9.779
휘	-9.77966
으신	-9.77998
▁모으	-9.77999
▁가도	-9.78006
▁이유는	-9.78141
스러운	-9.78189
▁아빠가	-9.78197
▁어떡하지	-9.78204
해져	-9.78212
쓰	-9.78262
▁생일을	-9.78278
▁즐거운	-9.78426
▁계시나요	-9.78442
▁피해를	-9.78456
▁공부해	-9.78458
시네요	-9.78532
▁주변에	-9.78602
▁있더라	-9.78612
▁야구	-9.78627
▁않을래	-9.78645
었죠	-9.78676
▁남자가	-9.78728
▁찾아보	-9.78751
▁가정	-9.7876
▁준비해	-9.78773
▁그룹	-9.78788
시켜	-9.78804
▁관점	-9.78822
▁떨어졌	-9.78823
링	-9.78843
▁영화관	-9.78847
▁갑	-9.79106
▁털	-9.79179
▁뭘까	-9.79254
▁성장	-9.79302
▁만족	-9.7934
▁행사	-9.7935
▁설거지	-9.79383
▁몰라요	-9.7946
▁무엇인가요	-9.7952
▁맘	-9.7957
▁편하게	-9.79623
▁건강검진받으	-9.79653
▁전문	-9.79734
▁걸릴	-9.79824
확	-9.79875
▁겨울에	-9.79901
▁이러한	-9.79919
압	-9.79983
▁보인다	-9.80047
▁것들	-9.80177
▁닫	-9.80239
▁경쟁	-9.80256
킹	-9.80285
▁주장	-9.80319
▁아이가	-9.80405
▁비판	-9.80446
▁바이러스	-9.80467
▁택시	-9.80472
▁인구	-9.80473
▁있으신가요	-9.80477
빵	-9.8048
▁선수	-9.80623
▁학교를	-9.80658
▁방탄소년단	-9.80771
▁예상	-9.80817
▁많지	-9.80876
▁만들고	-9.80879
▁헬스장	-9.8089
▁티	-9.80898
▁하네	-9.80903
집니다	-9.80928
납	-9.80956
▁설명을	-9.80966
▁속에서	-9.80971
▁결과가	-9.80979
▁보도록	-9.81025
▁있냐	-9.81053
▁오십	-9.81091
꾸	-9.81254
▁피곤하	-9.81271
▁저렇게	-9.81321
▁추억	-9.81454
▁요소	-9.81535
▁본인	-9.8156
▁모음	-9.81627
▁세계도시에	-9.81733
▁중요해요	-9.81739
▁가진	-9.81752
▁필요하	-9.81793
▁주면	-9.81802
▁환자	-9.81809
▁주차	-9.81887
▁비밀	-9.81906
합니까	-9.81941
▁생산	-9.81943
▁입어	-9.81969
▁탄	-9.82061
▁뒷	-9.82125
▁소리를	-9.82166
춘	-9.82241
▁먼지	-9.82278
▁혜	-9.82289
▁영향	-9.82359
▁커서	-9.82386
▁정리해	-9.8239
▁놔	-9.82397
▁박스	-9.82549
혈	-9.82551
▁남아	-9.82567
▁생겨	-9.82598
▁한다는	-9.82601
▁좋겠습니다	-9.82675
▁환경보호	-9.82675
물을	-9.82693
▁핵심	-9.828
▁발견	-9.82909
▁쓰면	-9.83023
휴	-9.83027
▁찾는	-9.83039
▁쉬는	-9.83144
▁고양이가	-9.83222
▁어떠	-9.83236
혔	-9.83297
▁전화를	-9.83318
▁그쪽	-9.83368
▁했잖아	-9.83386
▁이루	-9.83394
▁먹었어요	-9.8343
센터	-9.83445
▁계절	-9.83479
▁상당히	-9.83485
었으면	-9.83491
▁좋아하세요	-9.83507
▁떨어져서	-9.83523
▁됐다	-9.83539
▁품	-9.83548
▁외식	-9.83577
▁그분	-9.83638
밀	-9.83657
▁있네요	-9.83723
▁식단	-9.83777
▁가세요	-9.83787
▁열어	-9.8382
▁어려워요	-9.83918
금을	-9.83984
▁말로	-9.84034
▁해석	-9.84094
▁행복해	-9.8411
▁생각할	-9.84118
▁일어나서	-9.8413
▁무시	-9.84144
▁우린	-9.84152
했지만	-9.84203
▁말하면	-9.84301
▁은행에	-9.84303
▁좋아하지	-9.84316
▁일어나면	-9.84331
▁나오면	-9.84336
▁생각하지	-9.84378
▁갔다가	-9.84421
▁회사에	-9.84444
▁숙	-9.84447
주시겠어요	-9.84469
▁사랑하는	-9.84626
▁될지	-9.84628
▁나만	-9.84712
스터	-9.84716
▁있도록	-9.84726
▁체크	-9.84746
▁옷이	-9.84803
▁콘서트	-9.84806
▁종이	-9.84807
▁사람들을	-9.84813
▁이불	-9.84834
받고	-9.84863
씨	-9.84865
▁다녀왔	-9.84883
▁사진을	-9.84924
▁있네	-9.84961
▁그치	-9.8505
▁부자	-9.85119
▁반말	-9.85133
▁오신	-9.85154
▁요즘엔	-9.85174
▁기억나	-9.85216
▁상처	-9.85288
펴	-9.853
▁있으니	-9.85324
▁시골	-9.85357
▁해라	-9.85397
▁만들었	-9.85399
▁강아지를	-9.85433
▁분명	-9.85471
▁중학교	-9.85475
▁척	-9.85521
▁편해	-9.85614
▁칭찬	-9.85633
했으면	-9.85652
▁변동	-9.85681
▁섬	-9.85711
▁옆	-9.85715
▁애들이	-9.85719
묵	-9.85889
▁학교는	-9.85932
▁걸리지	-9.85952
▁켜	-9.85977
▁수밖에	-9.86081
▁미역국	-9.86082
▁들어갈	-9.86084
▁그리워	-9.86088
▁가려면	-9.861
▁으	-9.86126
▁동아리	-9.86278
▁잤어	-9.86347
값이	-9.86436
▁수능	-9.86455
력을	-9.86503
▁하러	-9.86508
▁되겠죠	-9.86508
▁음악에	-9.86715
▁없잖아	-9.86725
▁적금에	-9.86813
놔	-9.86965
▁결혼식	-9.8697
▁경제를	-9.86981
▁부모님과	-9.87001
▁어떠세요	-9.87043
▁점이	-9.87118
▁경우에는	-9.87161
▁봉	-9.87176
▁이럴	-9.87176
▁일하는	-9.87238
▁고통	-9.87242
▁적은	-9.87311
념	-9.87334
▁근처	-9.87361
▁관광지로	-9.87414
▁감자	-9.87423
굴	-9.87496
▁않니	-9.87512
▁중요하	-9.87515
▁기차	-9.87567
을까요	-9.8763
▁그러게	-9.87673
▁상상	-9.87685
▁난리	-9.87688
▁모기	-9.8769
▁못한	-9.87728
▁의미가	-9.87812
▁근무	-9.87833
▁판매	-9.87986
▁줄래	-9.88059
▁기능	-9.88069
흔	-9.88078
비를	-9.88131
▁궁	-9.88143
▁위로	-9.88196
다며	-9.8824
▁정치	-9.88274
▁인기가	-9.8829
색이	-9.88335
▁정보를	-9.88383
▁하시는	-9.88395
▁너희들	-9.88404
▁장마	-9.88436
▁아메리카노	-9.88484
▁부모님이	-9.88515
▁부동산에서	-9.88541
쿠	-9.88549
▁글쎄	-9.88551
했지	-9.8857
▁나가는	-9.886
▁작성	-9.88695
▁하셨어요	-9.88742
홀	-9.88747
▁이때	-9.88767
▁검	-9.88773
하나요	-9.88789
▁분들이	-9.88837
시간에	-9.88874
▁년에	-9.88878
▁걱정하지	-9.88879
▁걸린	-9.88898
률	-9.88924
혁	-9.88945
꽃	-9.89012
▁뛰	-9.89039
▁가을이	-9.89087
▁가슴	-9.8911
▁모르겠네	-9.89126
▁밖에서	-9.89126
▁삶을	-9.89132
▁깜빡	-9.89144
▁가는데	-9.89176
▁줄게	-9.89297
▁들리	-9.8935
해주는	-9.89377
퇴	-9.8941
▁나와요	-9.89417
▁만나는	-9.89422
▁가족들이랑	-9.89441
▁말씀을	-9.89489
▁모습이	-9.89525
▁알아보려고	-9.89597
▁자신이	-9.89634
▁성격이	-9.89639
했는지	-9.89651
▁꿈을	-9.89671
▁듣기	-9.89684
▁날짜	-9.89728
▁아이스	-9.89773
▁생명	-9.89843
▁함부로	-9.89874
▁지역의	-9.89889
취	-9.8993
▁주셔서	-9.8997
▁도전	-9.89981
▁반려동물로	-9.90009
▁슬퍼	-9.90013
▁똑같	-9.90016
▁생일날	-9.9008
자리	-9.901
▁오니까	-9.90118
렁	-9.90141
▁지도	-9.90273
▁도와줄	-9.9028
▁이것도	-9.90336
▁그녀의	-9.90427
▁뜻이	-9.90438
▁잠깐만	-9.90486
▁좋아지	-9.90512
▁이해가	-9.90532
▁한강	-9.90551
▁수술	-9.90579
▁되나	-9.90582
▁남았	-9.90587
▁생겼어	-9.9059
▁퍼	-9.90617
▁받아서	-9.9065
밭	-9.90744
뻔	-9.90751
▁다행이	-9.90757
▁빛	-9.90772
▁다니고	-9.90815
▁이천	-9.90883
▁착	-9.90885
▁특산물에	-9.90889
▁포함	-9.91055
시킬	-9.91055
▁가져가	-9.9109
▁어려	-9.91138
▁혼자서	-9.91157
보면	-9.91163
겠다고	-9.9122
▁아쉽	-9.91249
▁몰랐어	-9.91274
시겠어요	-9.91298
▁공부하고	-9.91337
▁검색해	-9.91354
▁적용	-9.91373
왔어	-9.91411
▁살았	-9.91427
▁만들기	-9.916
▁경우가	-9.91613
에다가	-9.91681
▁머리를	-9.91708
▁결국은	-9.91748
▁바빠서	-9.91777
▁반찬	-9.91789
▁누군가	-9.91826
▁하다가	-9.91828
▁뿌	-9.9183
드리고	-9.91955
▁클래식	-9.91962
▁원리	-9.91973
▁쌀	-9.92127
▁전통	-9.9218
▁있겠죠	-9.92288
▁방향	-9.9231
▁속에	-9.92346
몬	-9.92439
봐야	-9.92509
▁누워	-9.9252
▁많습니다	-9.92563
▁깨끗이	-9.92576
▁아닐까	-9.92583
▁가봤어	-9.92741
▁그것도	-9.92761
▁헤	-9.92795
▁사귀	-9.92833
▁이동	-9.9297
짜	-9.92982
▁표시	-9.92993
▁행복한	-9.93038
쌍	-9.93056
▁가족과	-9.93076
▁순서	-9.93116
▁학습	-9.93162
▁군대	-9.93166
탈	-9.93228
▁지켜야	-9.93237
▁퍼센트	-9.93263
할까요	-9.93266
▁받으면	-9.93301
▁수업을	-9.93324
▁자리에	-9.93373
▁담당	-9.93375
▁얼음	-9.93388
▁대단하	-9.9344
▁데리고	-9.93447
▁고르	-9.93475
▁좋아하는데	-9.935
▁구입	-9.93508
▁정서	-9.93535
▁참고	-9.9355
▁무척	-9.93577
▁가능한	-9.93599
▁들었는데	-9.93656
▁휴가에	-9.93668
▁높임	-9.93678
▁비슷한	-9.93747
▁알게	-9.93881
▁찾았	-9.93936
▁꺼내	-9.9394
▁정도는	-9.9395
▁최고야	-9.93977
▁놀라	-9.94021
▁읽는	-9.94146
▁되겠다	-9.94156
▁시원하	-9.94243
▁마지막으로	-9.94259
▁서술	-9.94262
괴	-9.94273
▁직원	-9.94328
▁맡기	-9.94334
▁끓여	-9.94372
▁되는지	-9.94384
▁끄	-9.9441
빙	-9.94417
▁이모	-9.94432
버려	-9.9449
▁찾을	-9.94556
▁읽기	-9.94573
핑	-9.94581
▁싶었어	-9.9462
▁닦	-9.94627
▁저한테	-9.94642
준다	-9.94643
▁성적에	-9.94664
▁못했어	-9.94665
▁심각하	-9.94666
▁춥	-9.94668
▁좋대	-9.94696
▁보네요	-9.94706
▁그렇구나	-9.94742
▁좋네요	-9.94764
▁어디에서	-9.94823
▁어르신들	-9.94835
암	-9.9484
▁금리를	-9.94901
▁들어와	-9.94931
▁분리수거	-9.94932
▁차라리	-9.94934
▁섭취	-9.95002
듯이	-9.95044
▁흥	-9.95117
량이	-9.95195
▁힘을	-9.95198
잔	-9.95216
▁여보	-9.95222
▁위기	-9.95249
꾼	-9.95423
▁퇴	-9.95477
▁배고파	-9.95494
률이	-9.95516
▁불안	-9.9555
▁끝날	-9.95576
▁보이지	-9.95613
뚝	-9.95635
돈	-9.95653
주라	-9.95749
▁곡	-9.95809
▁남은	-9.95832
▁회사는	-9.95848
▁팬	-9.95863
▁질병을	-9.95984
▁어렵지	-9.95985
▁일곱	-9.96029
▁어쨌든	-9.96059
▁먹으	-9.96176
맥	-9.96195
▁심하게	-9.96231
▁무료	-9.96257
됐어	-9.96279
▁시청	-9.96299
▁노트북	-9.96343
▁힘들었어	-9.96376
▁스타일	-9.96419
징	-9.96425
▁말이에요	-9.96494
잤	-9.96548
▁도망	-9.9656
▁나가지	-9.9662
하겠다	-9.96722
▁의미를	-9.96735
▁넘어가	-9.96821
▁보험료	-9.96878
▁줘야	-9.96888
드립니다	-9.96889
▁지식	-9.96889
▁데이트	-9.96922
▁정답	-9.96924
▁이리	-9.97026
▁왔으면	-9.97034
▁지각	-9.97034
우스	-9.97069
▁가족들	-9.97121
▁오기	-9.97129
감을	-9.97141
▁관심을	-9.97142
▁알아서	-9.97156
증이	-9.97272
▁심한	-9.97278
▁어떡하	-9.9728
▁근거	-9.97285
일까요	-9.9729
던데요	-9.97318
▁없네요	-9.9744
▁알겠어	-9.97443
틀	-9.97448
▁정해	-9.97493
▁한글	-9.97498
▁찬	-9.9751
▁좋아합니다	-9.97513
▁일어나는	-9.97537
▁졸	-9.97622
▁여름에는	-9.97623
▁질병은	-9.97649
겠는데	-9.97652
▁볼까	-9.97697
▁이름을	-9.97718
▁고민이	-9.97732
▁맡겨	-9.97746
보단	-9.97761
▁최근	-9.97811
나무	-9.97812
▁되었다	-9.97971
▁봅니다	-9.97974
▁싶으면	-9.98055
롱	-9.98065
▁생각해서	-9.98133
▁재밌게	-9.98172
▁휴양지가	-9.98186
▁통화	-9.98241
얼	-9.98297
▁콩	-9.98299
납니다	-9.98301
▁v	-9.98316
김	-9.98408
▁지역에	-9.98421
▁근육	-9.98454
자마자	-9.98553
▁오후에	-9.98553
▁대청소	-9.98572
▁독서	-9.98586
았는데	-9.98596
▁왜냐하면	-9.98718
▁오염	-9.98724
▁안정	-9.98742
짓	-9.98744
▁특별히	-9.98827
▁끊어	-9.98863
하십니까	-9.9887
▁등장	-9.98888
▁어린이	-9.99038
▁배우고	-9.99066
겠니	-9.99094
▁이쁘	-9.99181
▁오후	-9.9921
칭	-9.99228
떡	-9.99245
▁벽	-9.99268
▁쉬어	-9.99286
하셨나요	-9.99328
먼	-9.99333
▁전달	-9.99377
▁요리를	-9.99398
▁표현을	-9.99414
여서	-9.99425
▁증가	-9.99447
▁진심으로	-9.99449
▁존경	-9.9945
▁일자리	-9.99469
▁하는데요	-9.99471
▁상자	-9.99486
칙	-9.99542
▁떨어져	-9.99551
▁거고요	-9.99582
▁하와이	-9.99652
▁무너	-9.99684
▁싫어요	-9.99783
▁배웠	-9.99797
▁답답해	-9.99817
▁슬슬	-9.99827
▁자체	-9.99897
겹	-9.99963
▁괜히	-9.99963
▁그곳	-9.99993
▁알려줄	-10.0001
▁귀여워	-10.0004
▁단순	-10.0005
섭	-10.0006
▁포장	-10.0009
▁누구나	-10.0012
▁들어간	-10.0012
▁뭐니	-10.0012
▁아이돌에	-10.0015
▁셋	-10.0018
▁보낼	-10.0018
▁여전히	-10.0026
참	-10.0028
▁봤던	-10.0036
▁부모	-10.0036
▁필요해요	-10.0041
▁노력을	-10.0043
▁체육	-10.0044
▁드셔	-10.0052
▁샀는데	-10.0055
▁어차피	-10.0055
▁걸렸	-10.0065
▁소화	-10.0067
▁했죠	-10.0071
▁참석	-10.0073
턴	-10.0078
허	-10.0078
▁갈게	-10.0079
▁치즈	-10.0088
▁어려울	-10.0088
▁건강해	-10.0102
▁아예	-10.0102
▁목이	-10.0104
▁들수록	-10.0104
▁시간은	-10.0107
싹	-10.0107
▁우주	-10.0112
▁읽을	-10.0113
▁않도록	-10.0114
▁전국	-10.0115
▁먹었는데	-10.0116
▁당첨되	-10.0117
▁배운	-10.0117
▁매력	-10.0118
▁길어	-10.0122
▁끝이	-10.0123
율이	-10.0132
▁주시겠어요	-10.0135
▁합격	-10.0135
▁외국인	-10.014
▁추천해주세요	-10.0142
▁생각하세요	-10.0148
▁그러다	-10.0152
맞	-10.0156
▁돌아오	-10.0161
▁죄	-10.0163
▁생일은	-10.0165
사항	-10.0168
옥	-10.0172
▁재료	-10.0175
▁떨어졌어	-10.0178
▁못할	-10.0181
▁깨끗하게	-10.0192
▁만약에	-10.0197
▁얘기하는	-10.0197
▁감동	-10.0199
▁했으니까	-10.0215
단다	-10.0222
▁최대한	-10.0228
▁멋지	-10.0229
▁끝까지	-10.0229
▁삶의	-10.0239
▁어딜	-10.0241
▁임금	-10.0245
▁했으면	-10.0248
▁함	-10.0249
▁준비를	-10.0252
▁캐	-10.0255
좌	-10.0256
▁제공	-10.0257
▁카메라	-10.0258
▁떡	-10.026
▁파스타	-10.026
▁이것은	-10.0261
▁중요합니다	-10.0266
찜	-10.0273
▁무엇인지	-10.0276
험	-10.028
누	-10.028
▁보여요	-10.0281
▁좋아하니	-10.0282
▁침대	-10.0289
▁의자	-10.0303
▁사십	-10.0307
▁지식이	-10.0307
빈	-10.031
▁많더라	-10.0313
▁더운데	-10.0317
▁여름이	-10.0321
▁지진으로	-10.0323
▁보고서	-10.0324
▁과목	-10.0325
▁지내고	-10.0327
들어	-10.0332
▁곰	-10.0337
▁그랬어	-10.0339
▁또한	-10.034
▁만났어	-10.0341
흰	-10.0341
▁움직이	-10.0357
▁빠르게	-10.0362
▁낮아서	-10.0371
▁자랑	-10.0371
▁테니	-10.0373
▁연주	-10.0374
▁드러나	-10.0387
▁번호	-10.0388
▁굳이	-10.0389
▁여러분들이	-10.0391
▁관련해서는	-10.0392
▁반려동물은	-10.0394
▁공부하는	-10.0402
▁표정	-10.0407
▁늘어	-10.0423
▁부탁드립니다	-10.0427
▁노력해	-10.0429
▁같네요	-10.0432
▁태어나	-10.0433
봤어요	-10.0437
▁알았는데	-10.044
▁상대방	-10.0447
우면	-10.0448
▁더욱	-10.045
▁속도	-10.045
▁방송은	-10.045
▁말라고	-10.0453
▁상황에	-10.0467
들한테	-10.0467
▁고양이를	-10.0472
▁중요하지	-10.0483
볼게요	-10.0484
▁많다고	-10.0485
방송	-10.0495
▁대구	-10.0495
했나	-10.05
▁주어	-10.0502
▁저녁식사	-10.0503
▁걱정이에요	-10.0509
▁상황을	-10.0513
▁않겠	-10.0515
껏	-10.0518
하셔	-10.0522
▁쓰레기를	-10.0522
▁맛있어요	-10.053
▁오징어	-10.0534
▁없더라	-10.0542
잇	-10.0542
▁실력	-10.0544
클	-10.0547
▁도움을	-10.0549
▁나름	-10.0549
▁실제	-10.055
▁인식	-10.0552
▁있거든요	-10.0552
▁건너	-10.0553
▁필요합니다	-10.0566
▁음운	-10.0591
▁전해	-10.0593
▁한잔	-10.0595
C	-10.0596
▁씻어	-10.0596
▁배울	-10.0602
▁가리	-10.0617
▁방법은	-10.0621
▁아이돌들	-10.0623
▁달려	-10.0626
▁토요일	-10.0628
▁교재	-10.0632
▁선생님한테	-10.0637
▁어플	-10.0638
였습니다	-10.064
▁매번	-10.0642
▁쉽	-10.0649
▁저쪽	-10.0653
▁가족들이	-10.0657
▁잘못된	-10.0658
했잖아	-10.0659
튼	-10.0665
▁노인	-10.0671
▁세상에서	-10.0675
였는데	-10.0677
▁구분	-10.0682
▁말씀해	-10.0683
▁바빠	-10.069
▁층	-10.0691
▁가실래요	-10.0696
드릴까요	-10.0705
▁일어날	-10.0707
▁맛있다	-10.071
▁보이는데	-10.0711
▁죄송하지만	-10.0714
▁추운	-10.0716
▁오랫동안	-10.0722
▁공무원	-10.0722
▁바르	-10.0723
▁까먹	-10.0726
▁예술	-10.0727
▁먹어야지	-10.0733
▁철수	-10.0736
▁노동	-10.0736
▁감독	-10.0737
▁지갑	-10.0739
닌	-10.0744
▁뭐냐	-10.0747
▁있대요	-10.0751
▁만들었어	-10.0753
맹	-10.0754
하거나	-10.0755
▁딱히	-10.0756
▁모르고	-10.0757
▁좋아해서	-10.0772
▁자식	-10.0778
▁흔들	-10.0778
궁	-10.0779
흘	-10.0783
▁쟤	-10.0785
▁요거	-10.0786
▁어머	-10.0794
▁그러나	-10.0796
▁드릴까요	-10.0799
▁바지	-10.08
▁챙겨야	-10.0809
▁요렇게	-10.081
▁어젯밤에	-10.0813
▁출연	-10.0814
▁하더라고요	-10.0816
스크	-10.0818
▁역할을	-10.0821
▁아파요	-10.0821
했죠	-10.0822
▁부장님	-10.0823
찌	-10.0837
▁만나고	-10.084
▁금지	-10.0841
▁그녀가	-10.0846
▁강조	-10.0848
욕	-10.0851
▁없다는	-10.0853
따라	-10.0856
▁표기	-10.0857
▁출제	-10.0859
▁운영	-10.0862
▁중입니다	-10.0864
▁햄버거	-10.0874
▁이제부터	-10.0876
▁각자	-10.0877
▁이름은	-10.0883
▁생각이야	-10.0885
▁간단하게	-10.089
▁없나	-10.0893
▁일어난	-10.0907
▁완성	-10.0922
▁방송국	-10.0924
▁심해서	-10.093
▁기억에	-10.093
▁당분간	-10.0931
짐	-10.0944
컵	-10.0947
드린	-10.0954
▁때에는	-10.0957
▁같은데요	-10.0959
▁걸리면	-10.096
▁확진자가	-10.0974
▁숫자	-10.098
▁만나기	-10.0983
뿐이	-10.0984
▁지진은	-10.0984
▁한다면	-10.0987
스타	-10.0995
▁속상해	-10.0997
▁올라서	-10.0998
▁된대	-10.1004
▁강남	-10.1004
▁세대	-10.1006
▁자체가	-10.101
▁학생들이	-10.1024
▁기계	-10.1031
▁문단	-10.1033
▁요구	-10.1033
▁나오고	-10.1034
▁할인	-10.1035
▁감상	-10.1041
▁볼까요	-10.1041
▁그러는데	-10.1042
▁편이에요	-10.1045
▁되겠습니다	-10.1047
콤	-10.1053
▁내내	-10.1056
▁어머님	-10.1061
▁꿀	-10.1073
▁야식	-10.1074
▁여름은	-10.1075
▁고쳐	-10.1076
▁아닌가	-10.1081
▁빠르	-10.1085
▁대단한	-10.1086
▁한참	-10.109
▁농구	-10.1092
대학교	-10.1094
▁재미없	-10.1102
▁사람들의	-10.1106
둘	-10.1107
선생님	-10.111
▁고객님	-10.1115
▁올여름	-10.1119
▁많고	-10.1119
▁옥	-10.1121
▁조선	-10.1125
했대	-10.1126
▁의지	-10.1129
▁프로젝트	-10.1135
▁혹은	-10.1137
▁충전	-10.1139
▁촬영	-10.1143
▁자격증	-10.1143
킨	-10.1143
▁채소	-10.1156
았습니다	-10.1157
▁키가	-10.1173
▁돌아다니	-10.1173
▁곳으로	-10.1173
▁기억해	-10.1174
▁배우는	-10.1176
▁개나	-10.118
▁이해할	-10.1182
▁독감	-10.1183
▁공항	-10.1184
▁감기에	-10.1186
▁시작하는	-10.1188
했었어	-10.119
롯	-10.1193
▁어땠어	-10.1193
▁용돈	-10.1195
섯	-10.1197
▁바라보	-10.1202
▁사이즈	-10.1206
▁신고	-10.1212
▁올까	-10.1226
▁매달	-10.1238
▁인형	-10.1242
▁흥미	-10.1248
했고	-10.1249
머리	-10.1249
▁성적표	-10.1251
▁벌레	-10.1254
▁인해서	-10.1258
▁아버님	-10.126
▁부분을	-10.126
▁받았어요	-10.1261
▁측	-10.1262
▁맞추	-10.1265
▁힘들지	-10.1268
▁기록	-10.1277
▁짝	-10.1279
▁화장	-10.1284
▁예금	-10.129
눈	-10.1291
▁살기	-10.1295
▁살아가	-10.13
▁소중한	-10.131
▁낫지	-10.1311
▁형식	-10.1312
▁말해줘	-10.1317
▁언젠가	-10.1322
▁초콜릿	-10.1327
▁리을	-10.133
▁그러지	-10.1334
▁어울리는	-10.1335
▁좋으면	-10.1335
▁자세히	-10.1335
▁수준	-10.1338
▁않나요	-10.134
▁우리에게	-10.1343
▁늦었	-10.1345
▁그렇지만	-10.135
▁치과	-10.1355
▁경주	-10.1356
▁보시	-10.1366
▁김밥	-10.1366
▁백화점	-10.1369
▁늙	-10.1376
▁뻔했	-10.1377
▁떼	-10.1377
▁회복	-10.1377
냥	-10.1382
뿐만	-10.1396
▁밤새	-10.1397
▁엄마랑	-10.141
▁덥다	-10.1411
▁어깨	-10.1418
봤습니다	-10.1419
젊	-10.1425
▁쉴	-10.1429
버릴	-10.1431
주셔서	-10.1436
▁딸기	-10.144
▁장난감	-10.1441
▁걸려서	-10.1444
▁예쁘다	-10.1451
촉	-10.1463
▁어찌	-10.1463
▁마시는	-10.1463
▁착용	-10.1467
셨어	-10.1468
▁극복	-10.1474
▁힘내	-10.1478
딱	-10.1478
▁탔	-10.1479
▁넣었	-10.148
▁웬	-10.149
▁빼고	-10.1491
▁없죠	-10.1505
▁줄여	-10.1516
▁먹으려고	-10.1518
▁병원에서	-10.1519
▁갔던	-10.1522
▁고객	-10.1523
▁준다	-10.1523
▁하잖아	-10.1524
▁사려고	-10.1525
▁이백	-10.1527
▁믿어	-10.1531
▁바닷가	-10.1531
▁말자	-10.1536
▁드시고	-10.154
뇌	-10.154
삐	-10.1548
▁먹어봐	-10.155
▁달리	-10.1554
▁내용은	-10.1555
튀	-10.1557
▁나눴어	-10.1557
▁장사	-10.1558
▁오래된	-10.1564
섞	-10.1565
▁일부	-10.1567
▁희망	-10.1568
▁실망	-10.1569
해야겠어요	-10.1569
▁나가고	-10.1571
▁간다고	-10.1574
▁다녀왔어	-10.1575
▁생겨서	-10.1578
▁바뀌었	-10.1578
▁없으니까	-10.1581
헌	-10.1591
▁쓰기	-10.1605
▁친구들은	-10.1605
▁죽어	-10.1605
▁플라스틱	-10.1609
▁젖	-10.1613
▁되잖아	-10.1613
▁김치찌개	-10.1617
▁체험	-10.1619
듬	-10.1635
패	-10.1643
쇼	-10.1643
멜	-10.1643
▁오는데	-10.1652
▁곳에서	-10.1653
▁실천	-10.1654
웨	-10.1661
▁도시락	-10.1665
▁모여	-10.1666
▁예쁘게	-10.1668
▁가려	-10.1675
역에서	-10.1689
▁매일매일	-10.1696
▁멍	-10.1696
이라면	-10.1698
▁딴	-10.17
▁무대	-10.1705
▁완벽	-10.1705
▁기역	-10.1716
▁소원	-10.1719
▁걔가	-10.1729
▁토끼	-10.1741
▁윤	-10.1743
콘	-10.1757
▁그릇	-10.1764
댁	-10.1766
▁나온다	-10.1775
▁부분은	-10.1776
▁모여서	-10.1779
▁지난번에	-10.1782
▁위험해	-10.1782
럭	-10.1783
척	-10.1784
했니	-10.1787
풀	-10.1787
▁구름	-10.1788
▁써서	-10.1795
식품	-10.1805
▁나왔다	-10.1819
▁샐러드	-10.1819
쇠	-10.1819
▁현장	-10.1822
▁싶다고	-10.1824
▁종합	-10.1824
▁누구야	-10.1824
▁돌리	-10.1827
▁집고양이	-10.1828
▁싶었는데	-10.183
▁퇴근하고	-10.1832
▁적절한	-10.1837
▁기숙사	-10.1845
시장	-10.1866
▁응원	-10.1867
혹	-10.187
▁분석	-10.1871
▁시작할	-10.1876
▁시민	-10.1878
▁마시면	-10.1878
▁어렵다	-10.1881
▁좋았어요	-10.1883
▁삼겹살	-10.1899
▁요런	-10.1909
▁오시	-10.191
▁덮	-10.1912
▁되고요	-10.1913
▁런던	-10.1917
▁분야	-10.1926
▁영국	-10.1934
▁라디오	-10.1934
▁베트남	-10.1934
똥	-10.1934
▁되니	-10.1936
▁u	-10.1939
▁기뻐	-10.194
▁책은	-10.1951
▁됐는데	-10.1956
맨	-10.1958
탑	-10.1961
▁나머지	-10.1962
▁걔는	-10.1962
▁토요일에	-10.197
▁어떻	-10.1976
▁들어가서	-10.1996
였지	-10.2
▁제안	-10.2005
했더니	-10.2009
▁있었습니다	-10.2016
함을	-10.2017
▁못해서	-10.2018
▁있겠어	-10.2018
▁나보다	-10.2029
▁물건을	-10.203
▁나가기	-10.2043
▁봐봐	-10.2045
▁백신	-10.205
▁오랜만이	-10.2053
퍼	-10.2059
됐다	-10.206
▁내려갈	-10.206
▁훌륭한	-10.2069
▁단원	-10.207
▁청년	-10.2078
▁그랬어요	-10.2079
으셨	-10.2086
▁이상하게	-10.209
▁뭐든지	-10.2097
▁밖으로	-10.2097
▁갈까요	-10.2097
▁붙어	-10.2098
폰	-10.2105
칸	-10.2106
▁동생은	-10.2108
▁대회	-10.2112
▁고구마	-10.2115
▁깊게	-10.2116
▁많았어	-10.212
▁궁금한	-10.2124
줍니다	-10.2125
▁키울	-10.2133
하라	-10.2141
▁대통령	-10.2142
▁고마워요	-10.2144
▁콜라	-10.2145
▁말하지	-10.2146
찬	-10.2146
▁웃음	-10.2151
삭	-10.216
▁있겠지	-10.2165
▁저런	-10.2166
▁역할	-10.2167
▁귀여운	-10.217
▁샤워	-10.217
▁단체	-10.2172
▁휴지	-10.2173
보도록	-10.2177
▁고맙습니다	-10.2179
▁미치	-10.2185
▁만화	-10.2187
픈	-10.2187
낭	-10.2188
운동	-10.2205
▁소문	-10.2207
▁최소	-10.2212
▁국제	-10.2228
▁귀천이	-10.2234
▁다행이야	-10.2257
▁교통	-10.2258
밤	-10.2265
렇	-10.2266
▁너무너무	-10.228
그래	-10.2281
▁사례	-10.2285
▁우울해	-10.229
▁쥐	-10.2304
▁탈락	-10.2304
▁너에게	-10.2307
▁사람에게	-10.2308
▁정상	-10.2318
쑥	-10.2318
다면서요	-10.2324
▁흘러	-10.2327
▁어우	-10.2333
▁탓	-10.2338
었고	-10.2346
▁쏟아	-10.2355
▁계단	-10.2355
릅니다	-10.2355
▁필요하다	-10.2355
▁자산관리사	-10.2369
빛	-10.237
▁눈치	-10.2373
▁먹었더니	-10.2375
▁취향	-10.2376
▁각각	-10.2378
윤	-10.2379
▁수요일	-10.238
▁없었다	-10.2383
▁의심	-10.2388
▁알았지	-10.2389
▁알겠습니다	-10.239
▁부족	-10.2398
셔도	-10.2398
▁떨어진	-10.2402
▁다녀와	-10.2402
갑니다	-10.2404
▁개봉	-10.241
▁기름	-10.2411
덩	-10.2411
빗	-10.2411
▁더러워	-10.2411
▁경험이	-10.2413
▁받지	-10.2413
▁걱정돼	-10.2417
▁입장에서	-10.2418
▁멀어	-10.2418
▁없었어요	-10.242
▁차려	-10.2426
챙	-10.2447
▁할래	-10.2449
▁주인	-10.2464
▁양반	-10.2466
셨죠	-10.2467
▁보조	-10.2469
▁인터넷으로	-10.2469
▁시끄러워	-10.2477
▁노래방	-10.2479
▁삼촌	-10.2479
▁되었어요	-10.2483
▁가르치	-10.2487
▁갈수록	-10.2494
했네	-10.2498
▁시까지	-10.2504
관리	-10.2507
▁닦아	-10.2508
▁탁	-10.2512
문화	-10.2513
했나요	-10.2514
▁검색	-10.2517
▁춘천	-10.2524
▁디자인	-10.2524
▁예능	-10.2527
▁배려	-10.2528
▁있구나	-10.2531
▁않습니까	-10.2538
▁다루	-10.2541
▁읽었	-10.2549
▁특산물로	-10.2551
▁놓으	-10.2553
▁경우는	-10.2556
엄	-10.256
해수욕장	-10.2562
▁가볼	-10.2569
▁부부	-10.2571
▁실례	-10.2573
▁어떨까	-10.2575
▁살짝	-10.2577
스럽게	-10.2577
▁출장	-10.2577
▁현금	-10.258
▁생일파티	-10.2581
▁취직	-10.2597
▁알레르기	-10.26
깃	-10.26
닝	-10.26
▁특별	-10.2601
그것은	-10.2614
▁어떨까요	-10.2626
했거든	-10.2626
▁보셨어요	-10.2627
버린	-10.263
▁생일이라	-10.2632
▁훈련	-10.2639
▁반응	-10.2642
▁고향에서	-10.2647
겐	-10.2648
랜드	-10.2651
▁측면	-10.2653
톡	-10.2657
▁짬뽕	-10.2658
룩	-10.2658
턱	-10.2658
▁정확히	-10.2658
▁알아볼	-10.2661
▁적응	-10.2663
팀	-10.2665
▁운동하는	-10.2671
▁긍정적으로	-10.2677
t	-10.2687
놔야	-10.2694
릿	-10.2706
▁싫어하는	-10.2712
▁똑같이	-10.2713
▁들어왔	-10.2715
▁사용하는	-10.2715
▁사라지	-10.2722
▁체력	-10.2723
▁실내	-10.2727
▁빠른	-10.2728
A	-10.2735
▁화장품	-10.2737
뿐	-10.2742
▁작아	-10.275
▁오셨	-10.2764
▁오른쪽	-10.2765
▁캠핑	-10.2774
벨	-10.2774
▁액션	-10.2784
▁목요일	-10.2784
▁다녀올	-10.2787
▁적절하	-10.2789
▁폭염이라	-10.2796
▁점수	-10.2797
▁같고	-10.2801
▁재산	-10.2803
▁새벽에	-10.2803
▁시계	-10.2812
▁강원	-10.2817
▁떠나고	-10.2829
푸	-10.2832
해보세요	-10.2838
하거든	-10.2841
텐	-10.2841
▁예정이야	-10.2842
닥	-10.2856
셨습니다	-10.2857
▁되어서	-10.2858
▁추천해줘	-10.2864
▁대박	-10.2865
▁미술	-10.2867
▁접근	-10.2877
▁불편하	-10.2878
▁소재	-10.288
▁부러워	-10.2882
▁엄마한테	-10.2887
립니다	-10.2898
▁되었어	-10.2904
▁정도면	-10.2905
▁날이야	-10.2907
▁살아야	-10.2915
▁뭐냐면	-10.2923
▁소녀	-10.2926
▁재미있게	-10.2927
▁늘어나	-10.2932
▁조정	-10.2936
▁운동하고	-10.2937
▁태국	-10.294
▁다리가	-10.2942
▁연세가	-10.2961
▁엉망	-10.2971
▁걸까요	-10.2973
▁평화	-10.2978
했었는데	-10.2979
▁주체	-10.2979
▁어울리	-10.2982
▁아이들은	-10.2985
▁보장	-10.2985
▁내일까지	-10.2989
▁샀어요	-10.2999
베	-10.3004
▁특성	-10.3005
▁만나자	-10.3007
콜	-10.3008
▁숲	-10.3009
▁폭염주의보	-10.301
었잖아	-10.3011
▁자음	-10.3012
웃	-10.3014
검	-10.3014
▁하나씩	-10.3032
랍	-10.3039
▁가져다	-10.3042
▁끝난	-10.3044
▁가봤	-10.3047
▁신기하	-10.3051
▁독자	-10.3053
느	-10.3067
▁이익	-10.3075
▁알아봐	-10.3076
▁공장	-10.3077
▁연애	-10.3078
▁초코	-10.3089
▁번씩	-10.3091
▁불편해	-10.3103
▁은행에서	-10.3103
▁충격	-10.311
▁만약	-10.3111
▁기르	-10.3111
▁있었으면	-10.3113
▁똑똑	-10.3121
▁보냈어	-10.3121
▁심리	-10.3121
▁농사	-10.3141
쁜	-10.3146
▁죽겠어	-10.3147
▁강한	-10.315
끄러	-10.3158
뚱	-10.3161
▁새벽	-10.3163
▁모르겠	-10.3164
▁다이어트할	-10.317
벼	-10.3171
▁드러내	-10.3174
▁드러	-10.318
웅	-10.3189
멸	-10.3191
▁설치	-10.3193
▁조절	-10.3195
있다	-10.3198
▁뿌리	-10.3204
▁슬프	-10.3208
받았어	-10.3208
▁않을까요	-10.3215
▁느껴지	-10.3222
싸	-10.3233
뼈	-10.3242
▁반납	-10.3249
▁아직까지	-10.3252
▁공유	-10.3253
하나	-10.3256
▁죄송해요	-10.3263
▁평소	-10.3263
▁수박	-10.3265
슈	-10.3273
▁아프다	-10.3276
▁옆집	-10.3279
▁야채	-10.3284
▁가봐야	-10.3287
좁	-10.3304
쓸	-10.3308
▁예정입니다	-10.3311
▁선배님	-10.3314
▁다행히	-10.3314
▁확진자	-10.3321
렌	-10.3324
붕	-10.3324
▁정확하게	-10.3324
▁말해봐	-10.3326
▁들어보	-10.3327
▁주제로	-10.3328
▁마셨	-10.3337
▁더위	-10.3344
▁에너지	-10.3355
▁받기	-10.3356
▁맞게	-10.3357
▁쉬워	-10.338
▁서른	-10.3381
▁가난	-10.3385
틈	-10.3386
▁고민이야	-10.3389
▁주위	-10.339
▁휴가철	-10.3392
▁미루	-10.3393
▁좋아져	-10.3394
▁않네	-10.34
▁해줄	-10.3413
주셨어	-10.3414
▁놀자	-10.3414
▁공사	-10.3423
▁피우	-10.3424
▁거절	-10.3425
▁설마	-10.3427
▁존댓말	-10.3428
쩍	-10.3428
▁경제학	-10.3428
▁피동	-10.3431
▁아시나요	-10.3432
▁막혀	-10.3448
▁청소기	-10.3448
▁바꿀	-10.345
▁부모님께	-10.3453
▁식물	-10.3456
▁이상해	-10.3457
▁치워	-10.3459
▁축하드려요	-10.3459
▁즐겁게	-10.3463
▁재미있어	-10.347
앙	-10.3472
▁찾아봐	-10.3473
▁스물	-10.3473
▁지나간	-10.3478
▁TV	-10.348
▁물고기	-10.3484
▁드렸	-10.3494
▁착한	-10.3495
▁그렇다고	-10.3495
▁아침부터	-10.3497
▁남겨	-10.3509
▁처음으로	-10.3511
▁꼬박꼬박	-10.3511
▁따뜻	-10.352
▁사투리	-10.3522
▁못했어요	-10.3523
▁상승	-10.3526
▁아프면	-10.353
▁윤리	-10.3532
▁부족해	-10.3532
▁독립	-10.3536
▁직원들	-10.355
▁의식	-10.3551
▁세워	-10.3553
▁녀석	-10.3553
▁들어있	-10.3556
▁다가오	-10.3559
▁야근	-10.3563
▁잃어버렸	-10.3564
널	-10.3564
▁의료	-10.3565
펜	-10.3574
폐	-10.3574
▁비슷하	-10.3575
▁행위	-10.3575
▁깊은	-10.3578
▁친구한테	-10.3586
▁다르게	-10.3593
▁몰라서	-10.3593
럼	-10.3605
하였다	-10.3606
▁맛있었어	-10.3606
▁가실	-10.3607
▁전개	-10.3612
▁흐름	-10.3617
▁설득	-10.3619
엽	-10.3625
묘	-10.3626
▁낚시	-10.3627
▁그만두	-10.3628
▁강릉	-10.3628
▁세탁기	-10.3629
떨	-10.3634
▁일부러	-10.3637
▁나타내	-10.3638
보니까	-10.3638
▁가봐	-10.3639
▁건강해지	-10.3641
었더니	-10.3647
▁요금	-10.3653
▁해보고	-10.3655
▁영양	-10.3662
▁다양하	-10.3666
하셔서	-10.3668
▁왼쪽	-10.3669
▁말씀드렸	-10.3674
▁없나요	-10.3677
으려	-10.3679
▁시끄럽	-10.368
▁절대로	-10.3683
질까	-10.3683
멈	-10.3691
▁화면	-10.3698
으며	-10.371
▁된소리	-10.3712
▁도로	-10.3712
▁사람한테	-10.372
▁대한민국	-10.3723
▁파괴	-10.3727
▁대충	-10.3728
옛	-10.3744
▁크리스마스	-10.3744
▁떠오르	-10.3744
▁닫아	-10.3747
뻐	-10.3754
▁아이디어	-10.3755
▁나가야	-10.3764
▁유치원	-10.3766
▁대장	-10.3771
적이고	-10.3773
▁문법	-10.3773
▁싶네요	-10.3786
옹	-10.3787
흑	-10.3787
깜	-10.3798
완	-10.3808
▁가족들은	-10.3813
쉬	-10.3821
▁빙하	-10.3822
▁부탁해	-10.3823
▁시스템	-10.383
▁아름답	-10.383
됐어요	-10.3832
▁실례지만	-10.3836
▁뭔데	-10.3841
▁청약저축	-10.3841
▁이후에	-10.3842
▁회식	-10.3847
▁개월	-10.3849
▁맞춰서	-10.3852
봐야겠어	-10.3858
들끼리	-10.386
▁존중	-10.3863
시고요	-10.3864
▁만나면	-10.3866
응	-10.389
▁맞습니다	-10.3899
▁인용	-10.39
▁못해요	-10.39
▁스마트폰	-10.3906
▁그랬더니	-10.3923
▁육십	-10.3926
▁누군지	-10.3928
▁음료수	-10.3929
▁주부터	-10.3932
▁파일	-10.3951
▁주사	-10.3961
▁무엇일까	-10.3962
▁여권	-10.3966
곱	-10.3977
▁아쉬워	-10.3983
▁있으시	-10.3989
▁고파	-10.399
폴	-10.3994
▁맛있더라	-10.3996
▁놀랐어	-10.3996
▁편한	-10.4009
▁재능	-10.4015
▁햇빛	-10.4016
▁기후	-10.4019
▁않나	-10.402
▁금액	-10.4042
▁연극	-10.4042
▁이웃	-10.4043
▁신나는	-10.4049
▁사람들에게	-10.4056
▁텔레비전	-10.406
켜	-10.4065
▁삼백	-10.4066
▁염색	-10.4072
▁여긴	-10.4077
벤	-10.4082
▁하더라고	-10.4085
▁받침	-10.4085
▁사랑해	-10.4087
주시고	-10.409
▁상관	-10.4093
▁한숨	-10.4095
▁뉴스에서	-10.41
실래요	-10.4101
▁몰랐어요	-10.4108
▁경제적으로	-10.411
콩	-10.4112
▁종류의	-10.4122
▁배고픈데	-10.4127
▁줄어들	-10.4128
잠	-10.4132
▁슬픈	-10.4139
D	-10.416
▁최선을	-10.4161
▁바나나	-10.4161
▁기타	-10.4167
▁가져왔	-10.4173
▁대표적인	-10.4175
▁소고기	-10.4183
▁않은데	-10.4188
▁대출금	-10.4189
▁대리님	-10.4194
▁새끼	-10.42
▁남았어	-10.4202
▁카페에서	-10.4209
▁스트레스받	-10.4209
▁유학	-10.4215
▁않네요	-10.4217
▁않았으면	-10.4218
▁해볼까	-10.4226
농	-10.4226
알	-10.4226
▁갔더니	-10.4228
▁즐거워	-10.4228
▁있었죠	-10.4231
▁들여	-10.4236
▁친구끼리	-10.424
▁한국어	-10.4243
▁말하기	-10.4247
▁요청	-10.425
▁트로트	-10.425
▁도쿄	-10.425
▁엄청난	-10.4259
▁급식	-10.426
▁겨우	-10.4263
셨습니까	-10.4268
▁봉구	-10.4273
▁들으면서	-10.4275
하겠어	-10.4278
▁북한	-10.4278
▁생길	-10.4283
▁토마토	-10.4284
▁기념	-10.4294
뉴	-10.4294
힐	-10.4295
빚	-10.4295
▁독일	-10.4298
따	-10.4301
▁사용할	-10.4305
▁갈게요	-10.4308
▁코스	-10.4309
▁운동하러	-10.431
▁이틀	-10.431
▁시점	-10.4315
▁고전	-10.4318
▁있거든	-10.4319
▁가까이	-10.4322
▁따르	-10.4331
▁예산	-10.4336
▁자취	-10.4337
▁빠진	-10.4337
▁배송	-10.4338
▁노후	-10.434
P	-10.4341
▁시설	-10.4347
앗	-10.4352
▁호랑이	-10.4354
킬	-10.4355
▁바쁜	-10.4357
▁해먹	-10.4366
▁세계적으로	-10.4374
▁답답하	-10.4375
▁치우	-10.4381
▁시원해	-10.4389
▁선호	-10.439
▁신혼여행	-10.4398
굽	-10.4398
▁미용실	-10.4409
▁위험한	-10.441
▁영웅	-10.4412
▁나왔는데	-10.4421
▁복숭아	-10.4421
롤	-10.4421
▁모르게	-10.443
▁로봇	-10.4432
▁당황	-10.4439
▁초밥	-10.444
겸	-10.4444
쇄	-10.4444
▁팀장님	-10.4446
받으려면	-10.4447
▁민정	-10.4455
▁생방송	-10.4458
▁그러니	-10.4467
▁사이좋게	-10.4467
▁비법	-10.4473
▁발달	-10.4488
▁중요하다고	-10.4489
▁결제	-10.449
▁세탁	-10.4492
▁빨간	-10.4492
▁들러	-10.4493
▁친절	-10.4493
▁않냐	-10.4496
▁죽음	-10.451
▁되어있	-10.451
몰	-10.4511
▁영업	-10.4512
▁불가능	-10.4525
▁약국	-10.4529
▁팔아	-10.4532
▁다녀왔어요	-10.4538
▁시각	-10.4538
▁찾기	-10.4539
▁받았다	-10.454
콕	-10.4548
▁영화관에서	-10.4549
▁공감	-10.4556
▁무엇입니까	-10.4561
▁모른다	-10.4561
▁생겼어요	-10.4571
▁골고루	-10.4571
▁겁니까	-10.4572
▁페이지	-10.4583
▁입학	-10.4586
▁적당히	-10.4594
▁행복하	-10.4597
▁무서워서	-10.4604
▁식사시간	-10.4605
▁설레	-10.4617
▁왜냐면	-10.4629
▁미세먼지	-10.4629
▁업체	-10.463
▁아닌가요	-10.4639
▁운동장	-10.464
▁메시지	-10.4642
▁큰일이야	-10.465
▁나갔다	-10.4653
▁배웠어	-10.4656
▁죄송한데	-10.4665
꼴	-10.4665
▁부족한	-10.4667
▁담아	-10.4667
▁가보자	-10.4669
▁양식	-10.4682
▁졸려	-10.4686
숭	-10.4688
▁필라테스	-10.4688
싼	-10.469
▁마감	-10.4698
▁꼬마	-10.47
▁쿠키	-10.47
▁모시고	-10.47
▁구두	-10.4701
▁뜨거운	-10.4712
▁공공	-10.472
▁여기저기	-10.4724
▁날에는	-10.4733
▁돈가스	-10.4739
▁든든	-10.4748
사회	-10.4755
▁홍보	-10.4763
▁만날까	-10.4763
했고요	-10.4764
▁무엇보다	-10.477
▁어려움	-10.4773
▁살까	-10.4777
억	-10.4778
▁걸렸어	-10.4784
셀	-10.4795
젤	-10.4795
▁조직	-10.48
엘	-10.4807
▁땜에	-10.4807
▁조언	-10.4814
▁기다렸	-10.4816
▁조카	-10.4816
▁천구백	-10.4819
▁반영	-10.483
▁벚꽃	-10.4831
▁힐링	-10.4831
▁중요하게	-10.4835
▁비대면	-10.4844
▁그렇고	-10.4851
하셨습니다	-10.4863
같	-10.4863
▁영희	-10.4873
▁칠십	-10.4875
▁없지만	-10.4883
뽀	-10.4891
였죠	-10.4891
▁교실	-10.4895
▁되시나요	-10.4899
끌	-10.49
▁처음부터	-10.4902
짠	-10.4903
▁불구하고	-10.4903
▁남자친구랑	-10.4924
▁하하	-10.4925
▁박물관	-10.4927
▁기침	-10.4931
붓	-10.4939
▁구별	-10.4945
▁고용	-10.4945
▁들었다	-10.4949
잎	-10.4951
▁맞죠	-10.4957
▁답변	-10.4966
▁되려면	-10.4967
꺼	-10.4975
▁친구에게	-10.4976
▁차례	-10.4986
▁스포츠	-10.4987
▁올라오	-10.4993
▁되겠어	-10.4997
▁엄청나게	-10.5
꼬	-10.5
▁말씀드리	-10.5001
▁좋았던	-10.5008
샤	-10.5012
▁가운데	-10.5012
▁썼어	-10.5013
▁잠시만	-10.5022
▁사번	-10.5022
▁축하드립니다	-10.5025
▁고추	-10.5025
▁모델	-10.5026
했으니까	-10.5044
▁모르겠는데	-10.5051
▁음식점	-10.5054
▁글쓴이	-10.506
▁못하겠어	-10.5068
▁면역력	-10.5073
▁재밌었어	-10.5078
▁과장님	-10.5082
▁종식	-10.5085
▁빨라	-10.5093
▁도움	-10.5094
▁생선	-10.5096
s	-10.5097
▁도저히	-10.5097
S	-10.5109
꽂	-10.5109
▁예절	-10.5111
▁오랜	-10.5116
▁어제저녁	-10.5122
▁발리	-10.513
▁공포영화	-10.5134
▁지속	-10.5136
▁머리카락	-10.5146
뜯	-10.5146
▁환불	-10.5151
▁구워	-10.5158
▁살면서	-10.5162
▁변경	-10.5163
▁풍경	-10.5167
▁순위	-10.5177
▁사태	-10.5177
T	-10.5184
▁대책	-10.519
▁교환	-10.5193
▁열린	-10.5198
▁도와줘	-10.5202
▁통일	-10.5203
▁무언가	-10.5209
▁스무	-10.5211
▁몰래	-10.5212
긋	-10.5221
▁공포	-10.5223
▁새우	-10.5236
▁짐작	-10.5237
▁팝콘	-10.5258
▁싸웠	-10.5269
▁설계	-10.527
▁지난주에	-10.5271
▁샌드위치	-10.5283
▁장점	-10.5288
▁어떠한	-10.529
▁이후로	-10.5296
▁포항	-10.5299
▁설정	-10.5306
흥	-10.5306
주실래요	-10.5306
▁이쪽으로	-10.5307
띠	-10.5308
▁배터리	-10.5308
▁교회	-10.531
▁예매	-10.5314
▁마침	-10.5318
룡	-10.5321
▁어디인가요	-10.5329
▁보이네	-10.5335
▁마음대로	-10.5361
경제	-10.5367
▁읽으면	-10.5369
▁유일한	-10.5371
▁화요일	-10.5372
▁방안	-10.5376
▁됐습니다	-10.5381
흉	-10.5384
▁제작	-10.5384
▁목욕	-10.5386
사람	-10.5388
▁채워	-10.5388
▁거리두기	-10.5396
▁바보	-10.54
▁학년	-10.5406
▁주범	-10.5408
▁발라드	-10.5409
▁조각	-10.5417
▁어른들	-10.5418
▁호주	-10.5419
▁아침식사	-10.5422
▁선거	-10.5432
▁모래	-10.5434
▁스페인	-10.5434
▁소풍	-10.5439
▁기획	-10.5451
▁인하	-10.5458
▁검은색	-10.546
▁팔십	-10.5463
빨	-10.5471
▁먹으니까	-10.5483
▁먹었다	-10.5485
▁잔뜩	-10.5486
▁협상	-10.5487
▁점심시간	-10.5493
▁구십	-10.5495
▁태양	-10.5495
▁엘리베이터	-10.5498
뚜	-10.5511
▁재택근무	-10.5511
첩	-10.5511
▁원피스	-10.5511
▁예측	-10.5515
▁소금	-10.5516
▁질병관리본부	-10.5524
▁티켓	-10.5524
▁계곡	-10.5529
▁서술자	-10.5538
▁어려우	-10.5548
눌	-10.5549
▁슈퍼	-10.5549
닭	-10.5553
해주셔서	-10.5553
▁들었습니다	-10.5561
▁재밌더라	-10.5561
▁일회용품	-10.5562
넷	-10.5562
룸	-10.5562
▁과장	-10.5562
▁남아있	-10.557
▁형성	-10.5573
▁괴롭	-10.5575
조차	-10.5579
▁가볼까	-10.5579
▁있던데	-10.5582
되어야	-10.5587
드리려고	-10.5588
▁드라이브	-10.5588
▁의해서	-10.5588
▁온몸	-10.559
룰	-10.5601
▁수영장	-10.5604
▁강화	-10.5614
▁극장	-10.5619
쌀	-10.5621
▁나옵니다	-10.5623
▁매장	-10.5634
▁찬성	-10.5638
▁음식물	-10.5639
구먼	-10.5639
컨	-10.564
▁완료	-10.5644
▁대접	-10.5647
▁나왔습니다	-10.565
짜리	-10.5652
▁어울려	-10.5653
▁디저트	-10.5679
▁보낸	-10.5687
▁공주	-10.5687
▁중요하다	-10.5688
e	-10.5692
▁재활용	-10.5692
▁세계적인	-10.5692
▁외우	-10.5694
시킨	-10.5699
▁사망	-10.5711
폭	-10.5714
썩	-10.5718
▁곤란	-10.5718
▁환영	-10.5726
▁생기면	-10.5729
▁홍콩	-10.5732
▁먹었으면	-10.5741
구역	-10.5741
▁흔히	-10.5744
a	-10.5757
▁중이라	-10.5758
B	-10.5783
▁월세	-10.579
▁워낙	-10.5796
▁깨끗해	-10.5796
잉	-10.581
▁흔들리	-10.5811
▁군데	-10.5811
▁싸움	-10.5816
▁향수	-10.582
▁어려웠	-10.582
▁느껴져	-10.5822
▁실비보험	-10.5823
▁사이트	-10.5831
▁스승	-10.5834
▁갔었어	-10.5836
▁탕수육	-10.5836
▁테이블	-10.5836
▁느낄	-10.5836
뭉	-10.5849
▁스트레칭	-10.5849
▁운전면허	-10.5849
▁조용한	-10.5863
▁준비해야	-10.5863
▁카톡	-10.5864
▁실험	-10.5895
▁만나러	-10.5902
샘	-10.5902
▁무거워	-10.5902
▁효율	-10.5903
▁불안해	-10.5912
▁지냈어	-10.5916
▁자유롭게	-10.5916
▁이벤트	-10.5929
▁항공	-10.5934
었대	-10.5935
▁들어온	-10.5937
▁원칙	-10.5952
▁전환	-10.5956
▁금융	-10.597
▁뮤지컬	-10.5982
큐	-10.5982
▁돌아왔	-10.5989
▁단추	-10.6001
쩜	-10.6009
▁태어난	-10.6009
벽	-10.6012
▁줄여야	-10.6023
▁데이터	-10.6023
▁이천십	-10.6026
▁욕심	-10.6031
▁휴식	-10.6037
▁읽어보	-10.6041
▁싶으세요	-10.6042
켓	-10.6049
하십시오	-10.6054
첨	-10.6057
▁알아봐야	-10.6063
▁생일선물로	-10.6067
▁권리	-10.6071
▁허락	-10.6074
▁알겠지	-10.6076
▁프라이	-10.6077
▁오른	-10.6096
▁성분	-10.6102
▁개봉한	-10.6113
▁불꽃축제	-10.6117
▁마녀	-10.6124
▁규제	-10.6132
야말로	-10.6135
▁신용	-10.6144
▁끝났어	-10.6145
밍	-10.6145
틴	-10.6145
▁증상	-10.6148
▁배고프다	-10.6148
▁힘드네요	-10.6153
▁이탈리아	-10.6158
렬	-10.6158
컷	-10.6158
▁미안한데	-10.616
▁언제든지	-10.6169
▁동물들	-10.6173
▁출신	-10.6183
▁그렇습니다	-10.6185
▁판소리	-10.6189
▁없도록	-10.6199
▁두려워	-10.6199
츠	-10.6227
껍	-10.6227
헐	-10.6227
▁즐길	-10.6227
▁늦잠	-10.6229
▁매물	-10.6235
및	-10.6241
▁넣으면	-10.6244
덤	-10.6254
▁바탕으로	-10.6254
▁점검	-10.6257
관계	-10.6266
▁않지만	-10.6268
▁인천	-10.6268
쪼	-10.6268
해줄게	-10.6276
▁세금	-10.6281
▁민주	-10.6308
학교	-10.632
▁최대	-10.6323
낯	-10.6323
M	-10.6323
▁규정	-10.6324
▁관광객	-10.6325
▁포인트	-10.6337
▁경영	-10.6338
▁더우니까	-10.6338
▁심장	-10.6343
▁유형	-10.6349
▁북극곰	-10.6351
바람	-10.6355
▁따른	-10.6365
▁않기	-10.6371
▁과외	-10.6373
▁보충	-10.6377
▁같더라	-10.6383
균	-10.6392
▁이메일	-10.6393
▁피곤한	-10.6394
▁달리기	-10.6398
▁밝혀	-10.6407
핀	-10.6407
▁구멍	-10.6411
▁떠날	-10.6418
▁이러면	-10.6419
▁꼼꼼히	-10.6421
또	-10.6439
엠	-10.6449
▁낮잠	-10.6451
▁양념	-10.6456
▁울릉도	-10.6463
▁하얀	-10.6464
▁차별	-10.6465
▁놀랐	-10.647
▁양말	-10.6471
▁좋더라고요	-10.6471
▁계층	-10.6482
▁당근	-10.6495
▁넣으	-10.6502
▁감염	-10.6505
퉁	-10.6506
▁보험금	-10.6513
▁어휴	-10.6514
교육	-10.6519
▁반가워	-10.652
거려	-10.6522
▁흘리	-10.6525
멋	-10.6527
땅	-10.6528
즐	-10.6532
쏠	-10.6534
▁중독	-10.6542
▁세월	-10.6553
▁빨간색	-10.6557
▁손톱	-10.6565
될까	-10.6566
▁대응	-10.6573
▁소통	-10.6575
▁골프	-10.6585
▁평균	-10.6592
▁심지어	-10.6593
▁감사하겠습니다	-10.6593
삽	-10.6605
▁이어폰	-10.6621
읍	-10.6624
▁많으니까	-10.6624
▁받았는데	-10.6629
▁소득	-10.6638
▁연휴	-10.6644
붙	-10.6644
▁신나게	-10.6649
▁복용	-10.6649
▁설탕	-10.6653
▁청소년	-10.6654
팩	-10.6662
▁물어볼	-10.667
쁠	-10.6677
▁박수	-10.6682
▁민족	-10.6684
▁출산	-10.6685
▁홍대	-10.6685
▁아프리카	-10.6691
하시죠	-10.6705
주려고	-10.671
바닥	-10.6722
▁끔찍	-10.6734
▁변호사	-10.6734
▁진정한	-10.6735
▁귀신	-10.6753
시험	-10.6754
랍니다	-10.6761
▁넷플릭스	-10.6763
▁바깥	-10.6763
▁그녀에게	-10.6764
벅	-10.6778
▁우체국	-10.6778
▁파이팅	-10.6778
▁패션	-10.678
▁가능해	-10.6783
▁계셔	-10.6795
므로	-10.6801
▁다녀온	-10.6802
▁봉사	-10.6811
▁다람쥐	-10.6821
▁옮겨	-10.6821
▁졸리	-10.6832
▁나타난	-10.6836
▁손가락	-10.6836
▁미뤄	-10.684
▁교체	-10.684
쿵	-10.6851
▁알아두	-10.6858
▁매미	-10.6862
▁키운	-10.6868
▁형님	-10.6871
▁일기예보	-10.688
▁꾸준	-10.6882
주시겠습니까	-10.6885
귤	-10.6892
▁동남아	-10.6895
▁생각해봐	-10.6899
▁그녀를	-10.69
텔	-10.6907
▁목돈	-10.6912
▁빠질	-10.6923
▁가족이랑	-10.6928
▁중앙	-10.6934
▁구체적으로	-10.6939
▁집값이	-10.6942
슨	-10.6949
▁쌀쌀해	-10.6968
▁가끔씩	-10.6974
▁오래됐어	-10.6982
▁카카오	-10.6983
▁이것저것	-10.6983
갓	-10.6983
▁먹었던	-10.6985
▁작동	-10.6992
톤	-10.6998
▁오류가	-10.6999
▁닮았	-10.7013
옵니다	-10.7018
▁싶었	-10.703
▁대학생	-10.7039
▁심심해	-10.7045
덧	-10.7058
찐	-10.7058
▁식탁	-10.7059
▁메일	-10.706
윗	-10.7073
▁멤버	-10.7073
▁시즌	-10.7073
▁젊어	-10.7075
▁나타났	-10.7088
하느냐	-10.7092
▁반갑	-10.7093
댔	-10.7103
▁무서웠어	-10.7103
▁어딘지	-10.7103
▁오래됐	-10.7104
▁급하게	-10.7104
▁않겠어	-10.7105
▁사라졌	-10.7108
▁배고프	-10.7114
컬	-10.7118
▁튼튼	-10.7118
특	-10.7122
▁멈추	-10.7133
▁환절기	-10.7133
▁다이어트한다고	-10.7134
!	-10.733
뱀	-10.733
측	-10.7345
I	-10.7346
랫	-10.7346
최	-10.7354
릇	-10.7361
렵	-10.7391
맺	-10.7423
륙	-10.7438
쏘	-10.7469
접	-10.7475
엎	-10.7532
밑	-10.7564
c	-10.7658
깐	-10.7816
엉	-10.7834
뵈	-10.7882
털	-10.7921
짱	-10.7931
꼼	-10.7947
홍	-10.8074
흙	-10.8095
큼	-10.8173
땡	-10.8195
팽	-10.8229
핫	-10.8229
빅	-10.8263
욱	-10.8361
깝	-10.8364
긍	-10.845
톱	-10.848
앱	-10.8553
샌	-10.8605
찼	-10.8623
푼	-10.864
홈	-10.864
듭	-10.8675
뇨	-10.869
칩	-10.8746
씬	-10.8906
팁	-10.8924
솟	-10.8924
랜	-10.896
횡	-10.8978
냉	-10.8995
덜	-10.9098
몸	-10.9112
뿜	-10.9143
잘	-10.9171
총	-10.919
좋	-10.9214
폼	-10.9217
쫓	-10.9253
짖	-10.931
멘	-10.9385
앤	-10.9385
쿨	-10.9385
꾹	-10.946
칫	-10.946
쪄	-10.9536
않	-10.955
닷	-10.9575
O	-10.9594
탁	-10.9622
굳	-10.9667
숍	-10.9672
곳	-10.9735
획	-10.9761
뤄	-10.9764
몇	-10.984
괌	-10.9947
렉	-11.0067
멍	-11.0082
쑤	-11.0108
뱅	-11.0148
빡	-11.023
닉	-11.0251
딜	-11.0317
헛	-11.0333
귄	-11.0354
쥐	-11.0427
즙	-11.0458
L	-11.05
젓	-11.05
끝	-11.0512
잖	-11.053
p	-11.0543
컴	-11.0543
탱	-11.0543
틱	-11.0585
꿔	-11.0602
릭	-11.0606
뭇	-11.0628
셈	-11.0628
꽁	-11.0649
믹	-11.0649
맵	-11.0692
팍	-11.0756
닫	-11.0785
킷	-11.08
빠	-11.0836
툰	-11.0887
슷	-11.0928
융	-11.0929
랴	-11.0931
뺄	-11.0931
콧	-11.0975
짚	-11.1016
뱃	-11.1042
엿	-11.1176
놀	-11.1236
깨	-11.1241
m	-11.1244
둑	-11.1264
덴	-11.1267
낮	-11.1278
뒤	-11.1278
햇	-11.1312
#	-11.1312
흠	-11.1335
F	-11.1358
슴	-11.1364
딘	-11.1404
끄	-11.1444
i	-11.145
땄	-11.145
붐	-11.1497
헬	-11.1708
쌈	-11.1708
훌	-11.1708
뜬	-11.1828
찮	-11.1899
팡	-11.1901
줌	-11.2022
굉	-11.2072
룬	-11.2121
윈	-11.2196
논	-11.2238
헤	-11.2269
셋	-11.2374
뜰	-11.2423
넘	-11.2424
못	-11.2499
엇	-11.2599
칼	-11.2688
옵	-11.2759
K	-11.2761
죄	-11.2775
솜	-11.284
쭉	-11.2912
섬	-11.2995
뿌	-11.3075
캡	-11.3083
낡	-11.3083
줍	-11.3136
E	-11.3165
템	-11.3193
븐	-11.3193
쫙	-11.3193
뷰	-11.322
팝	-11.3248
냄	-11.3248
깡	-11.3276
썹	-11.3276
늑	-11.3332
렛	-11.3388
졸	-11.3393
쫄	-11.3416
셰	-11.3472
넛	-11.3501
봄	-11.354
뉘	-11.3587
꿈	-11.3622
델	-11.3669
핵	-11.3702
텅	-11.376
맘	-11.3815
갯	-11.3878
젠	-11.3921
팬	-11.393
깔	-11.3955
핏	-11.3967
퀴	-11.4022
밴	-11.4026
똑	-11.4056
픽	-11.4087
끗	-11.4116
쭤	-11.4117
왜	-11.4119
즘	-11.4143
찍	-11.4157
잦	-11.4178
댕	-11.4208
r	-11.4239
뾰	-11.4269
쩝	-11.43
땐	-11.4305
옴	-11.4331
쭈	-11.4362
썽	-11.4393
푹	-11.4401
큰	-11.4465
v	-11.4472
랩	-11.4518
잼	-11.4518
륨	-11.455
굿	-11.455
껌	-11.4613
릉	-11.4642
뢰	-11.4671
꽝	-11.4677
랗	-11.4677
깍	-11.4709
꿀	-11.4755
찝	-11.4773
낱	-11.4773
찾	-11.5001
갤	-11.5002
쩡	-11.5068
캄	-11.5102
좀	-11.5133
d	-11.5135
뿔	-11.5169
V	-11.5202
룹	-11.5233
슘	-11.5236
낀	-11.5337
갇	-11.5338
랭	-11.5338
삿	-11.5338
괜	-11.5476
떠	-11.5501
뮤	-11.5511
쉰	-11.5546
텍	-11.5581
곽	-11.5616
짤	-11.5616
됨	-11.5722
댄	-11.5757
앞	-11.5773
샷	-11.5901
읒	-11.5937
딸	-11.5961
륜	-11.601
N	-11.6047
밸	-11.6083
킵	-11.612
갱	-11.6157
뎌	-11.6194
툴	-11.6232
꼭	-11.626
뜻	-11.6261
빌	-11.6302
돗	-11.6307
쓱	-11.6307
룻	-11.6345
R	-11.6382
훼	-11.642
맣	-11.6459
뻥	-11.6459
뛰	-11.65
k	-11.6535
둠	-11.6613
캠	-11.6769
틸	-11.6769
릅	-11.6847
G	-11.6848
캐	-11.6905
녕	-11.6924
뻑	-11.6928
왼	-11.6968
빤	-11.6968
핸	-11.6968
딴	-11.7029
렐	-11.7049
튜	-11.709
펐	-11.7131
뿡	-11.7172
웁	-11.7254
눕	-11.7337
솥	-11.7337
듣	-11.7408
댐	-11.7421
텨	-11.7421
g	-11.7506
앵	-11.7591
윙	-11.7634
톨	-11.7677
곶	-11.772
눔	-11.772
빼	-11.7764
헨	-11.7808
풋	-11.7808
햄	-11.7851
벙	-11.7851
륵	-11.7984
숫	-11.8117
첼	-11.8119
펄	-11.8119
혐	-11.8119
괄	-11.8164
댓	-11.8209
깰	-11.8209
얄	-11.8255
씁	-11.8347
팟	-11.8347
낙	-11.8367
얽	-11.8393
헷	-11.8393
럴	-11.8429
멀	-11.8462
녁	-11.8472
퐁	-11.8534
찹	-11.8581
춧	-11.8676
뜸	-11.8966
똘	-11.9065
럿	-11.9115
귈	-11.9165
뀌	-11.921
펫	-11.9215
닙	-11.9265
킥	-11.947
궈	-11.9522
깬	-11.9679
훅	-11.9679
늦	-12.0001
u	-12.0138
덮	-12.0195
쩐	-12.0561
볕	-12.0913
펑	-12.0973
떼	-12.122
짬	-12.134
얘	-12.1346
덥	-12.1407
퓨	-12.1529
낄	-12.1591
싶	-12.1599
므	-12.1878
걱	-12.1917
펀	-12.205
뜩	-12.2388
즉	-12.2578
맡	-12.287
뽕	-12.2887
썼	-12.31
쩌	-12.3316
힘	-12.3412
낌	-12.3485
뷔	-12.4285
샐	-12.4374
곰	-12.4764
눴	-12.4892
곧	-12.4947
랙	-12.5164
벳	-12.5348
많	-12.5502
칵	-12.5536
벗	-12.5804
얀	-12.6525
봇	-12.6636
껑	-12.6637
쓴	-12.6648
넌	-12.6651
숲	-12.6761
킁	-12.6851
젝	-12.696
캉	-12.718
쎄	-12.849
넥	-12.862
쁘	-12.8662
깅	-12.9011
셉	-12.9426
떤	-12.955
뭐	-12.9993
렷	-13.0002
쉽	-13.0227
땜	-13.0453
탔	-13.0624
닦	-13.0788
샴	-13.178
촬	-13.1959
숨	-13.2763
즌	-13.2893
녹	-13.3204
젖	-13.3207
봅	-13.3513
젯	-13.4866
춥	-13.5051
떻	-13.5863
멕	-13.6713
텀	-13.7007
읽	-13.7307
옆	-13.7637
쟤	-13.9042
늙	-13.9427
엊	-14.0552
첫	-14.2635
걀	-14.3495
쿄	-14.471
걔	-14.5785
멩	-14.6094
멤	-14.6863
뿍	-14.7696
읗	-14.8605
삶	-15.0408
웬	-15.3087
눠	-15.3369
륭	-15.3395
탓	-15.4754
뒷	-15.9251
낫	-16.2588
깥	-16.2891
쉴	-16.7591
뭘	-16.7592
궐	-17.7444
쌩	-17.7445
촛	-17.7446
폈	-17.7447
쾃	-17.7448
캘	-17.7449
픕	-17.745
탠	-17.7451
씌	-17.7452
꿰	-17.7453
둡	-17.7454
뱉	-17.7455
뤘	-17.7456
굵	-17.7457
툼	-17.7458
얗	-17.7459
툭	-17.746
큽	-17.7461
얹	-17.7462
뺐	-17.7463
팸	-17.7464
뒹	-17.7465
뺀	-17.7466
쁩	-17.7467
봬	-17.7468
몫	-17.7469
얌	-17.747
엮	-17.7471
뻗	-17.7472
쌌	-17.7473
숟	-17.7474
흩	-17.7475
뵐	-17.7476
꿍	-17.7477
몹	-17.7478
휩	-17.7479
펠	-17.748
엌	-17.7481
뀔	-17.7482
눅	-17.7483
꾀	-17.7484
쐬	-17.7485
붉	-17.7486
꿉	-17.7487
뺏	-17.7488
긁	-17.7489
잣	-17.749
깁	-17.7491
얇	-17.7492
훔	-17.7493
쁨	-17.7494
늬	-17.7495
쏙	-17.7496
깼	-17.7497
캔	-17.7498
찢	-17.7499
곁	-17.75
꼽	-17.7501
힙	-17.7502
딪	-17.7503
뻤	-17.7504
꺾	-17.7505
췄	-17.7506
찔	-17.7507
빴	-17.7508
뭡	-17.7509
쪘	-17.751
돋	-17.7511
앓	-17.7512
닿	-17.7513
냅	-17.7514
뚫	-17.7515
쨍	-17.7516
떴	-17.7517
썰	-17.7518
넉	-17.7519
섰	-17.752
밟	-17.7521
볍	-17.7522
웹	-17.7523
팥	-17.7524
컸	-17.7525
앨	-17.7526
뀐	-17.7527
씹	-17.7528
팠	-17.7529
돕	-17.753
깎	-17.7531
벚	-17.7532
빔	-17.7533
펼	-17.7534
픔	-17.7535
릎	-17.7536
딨	-17.7537
겉	-17.7538
꽉	-17.7539
엑	-17.754
귿	-17.7541
왠	-17.7542
낚	-17.7543
홉	-17.7544
덟	-17.7545
굶	-17.7546
쏟	-17.7547
탐	-17.7548
꼈	-17.7549
띄	-17.755
닮	-17.7551
묶	-17.7552
옳	-17.7553
뒀	-17.7554
꿨	-17.7555
흡	-17.7556
쨌	-17.7557
녔	-17.7558
낳	-17.7559
뵙	-17.756
땠	-17.7561
옮	-17.7562
쾌	-17.7563
략	-17.7564
겪	-17.7565
켰	-17.7566
쌓	-17.7567
쩔	-17.7568
맑	-17.7569
넓	-17.757
짧	-17.7571
땀	-17.7572
묻	-17.7573
걷	-17.7574
끓	-17.7575
밝	-17.7576
갚	-17.7577
렀	-17.7578
뽑	-17.7579
맙	-17.758
얻	-17.7581
씻	-17.7582
춰	-17.7583
훨	-17.7584
끊	-17.7585
잃	-17.7586
램	-17.7587
놨	-17.7588
쳤	-17.7589
볶	-17.759
잊	-17.7591
앉	-17.7592
믿	-17.7593
냈	-17.7594
줬	-17.7595
샀	-17.7596
갖	-17.7597
밌	-17.7598
씀	-17.7599
뭔	-17.76
됩	-17.7601
넣	-17.7602
싫	-17.7603
높	-17.7604
밖	-17.7605
놓	-17.7606
났	-17.7607
졌	-17.7608
갔	-17.7609
꽤	-17.761
없	-17.761
