<pad>	0
<unk>	0
<s>	0
</s>	0
<sep>	0
<cls>	0
<mask>	0
▁	-3.19537
이	-4.17291
는	-4.21713
가	-4.32692
을	-4.5186
▁그	-4.52227
에	-4.55271
도	-4.66867
지	-4.67442
▁음	-4.77042
를	-4.84291
▁아	-4.87427
은	-5.01435
고	-5.01522
의	-5.03451
▁저	-5.10283
요	-5.14059
▁그런데	-5.20507
▁저기	-5.24632
▁아니	-5.32367
▁거	-5.36234
▁수	-5.37676
다	-5.41251
▁안	-5.42142
기	-5.45326
▁이	-5.50802
로	-5.51525
서	-5.5305
▁너무	-5.60184
야	-5.62919
▁것	-5.65873
▁나	-5.67882
만	-5.702
▁잘	-5.73822
에서	-5.74318
▁우리	-5.82846
▁좀	-5.8296
한	-5.83175
해	-5.87651
▁오늘	-5.88019
어	-5.88293
▁게	-5.92434
리	-5.95224
으로	-5.97022
▁자	-5.97695
▁해	-5.97856
면	-5.98658
▁한	-5.99726
▁다	-6.00417
하고	-6.01801
▁많이	-6.03605
▁나는	-6.07038
▁있는	-6.08049
인	-6.09442
▁때	-6.11383
▁사	-6.11886
▁있어	-6.12264
하는	-6.14734
자	-6.18258
게	-6.18945
▁거야	-6.19624
할	-6.20214
▁내	-6.21095
▁더	-6.2346
▁정말	-6.26281
▁뭐	-6.26607
▁같아	-6.28044
라	-6.28363
▁일	-6.30331
나	-6.30351
▁못	-6.31269
▁내가	-6.35788
▁지금	-6.41215
과	-6.41837
니	-6.46737
▁이제	-6.48989
▁이렇게	-6.4922
▁할	-6.4982
▁어떻게	-6.50336
▁하는	-6.50941
▁요즘	-6.50992
▁때문에	-6.51171
▁너	-6.53833
아	-6.54013
▁있어요	-6.54195
▁오	-6.5424
▁어	-6.54894
▁건	-6.56452
▁말	-6.58234
▁이번	-6.58325
죠	-6.59742
▁어떤	-6.59768
사	-6.61294
대	-6.6186
네	-6.62831
▁주	-6.65048
입니다	-6.66517
▁하고	-6.68553
▁그래서	-6.68776
▁좋아	-6.70515
는데	-6.70918
▁그런	-6.73525
▁왜	-6.74077
와	-6.75353
▁또	-6.78875
▁좋은	-6.80741
라고	-6.80999
시	-6.81807
▁번	-6.82134
▁같이	-6.84182
▁거예요	-6.84798
▁코로나	-6.8605
▁진짜	-6.87006
▁난	-6.89648
▁이런	-6.91015
들이	-6.91669
▁돼	-6.92971
▁대해서	-6.93177
▁보	-6.93597
수	-6.96197
▁같아요	-6.9692
▁네	-6.97595
치	-6.97691
▁여기	-6.98292
▁제가	-6.98839
▁비	-6.99835
▁꼭	-7.00273
하게	-7.00589
▁살	-7.01068
▁시	-7.01278
▁제	-7.01404
▁대해	-7.02526
스	-7.02753
▁전	-7.03101
▁저는	-7.03138
▁갈	-7.03164
니까	-7.03425
해서	-7.05538
네요	-7.05833
▁걸	-7.06828
▁없어	-7.06942
까지	-7.07613
▁두	-7.07803
▁그렇게	-7.08266
▁생각	-7.0974
적	-7.09752
이야	-7.10609
▁어제	-7.10658
들	-7.11182
상	-7.1122
하지	-7.1132
랑	-7.11722
▁줄	-7.11781
▁마	-7.11809
▁먹고	-7.12436
▁해야	-7.12967
주	-7.13862
▁봐	-7.14071
▁있습니다	-7.16483
일	-7.16793
진	-7.17288
▁어디	-7.17648
▁그냥	-7.17907
습니다	-7.1818
▁영화	-7.18374
정	-7.1847
▁제일	-7.19252
▁그럼	-7.19441
해야	-7.20613
▁대	-7.20929
▁이거	-7.21021
▁사람이	-7.21941
▁너는	-7.22014
▁싶어	-7.22146
▁해요	-7.22224
으면	-7.22779
▁하나	-7.23046
▁몇	-7.23188
▁부	-7.23543
▁학교	-7.24362
▁개	-7.2467
부터	-7.25029
▁보고	-7.25174
▁집	-7.25223
러	-7.25358
▁가서	-7.25358
▁가장	-7.27355
데	-7.2978
장	-7.30113
▁내일	-7.30459
▁들어	-7.30577
▁있다	-7.31044
다고	-7.31603
부	-7.32293
하면	-7.33056
▁다른	-7.33693
구	-7.34062
▁무슨	-7.34298
▁참	-7.34332
신	-7.34571
▁오늘은	-7.35576
질	-7.36184
하기	-7.36751
▁운동	-7.36804
트	-7.36968
▁선생님	-7.37877
▁세	-7.3797
▁다시	-7.38011
이에요	-7.38494
더라	-7.386
▁같은	-7.38714
▁사람	-7.38919
던	-7.39338
▁되는	-7.39539
성	-7.39711
실	-7.39933
보다	-7.40617
▁합니다	-7.40911
적인	-7.41261
이라고	-7.41354
▁많은	-7.41467
했어	-7.41764
▁중	-7.4211
인데	-7.42435
화	-7.42594
원	-7.42616
▁불	-7.4293
▁그리고	-7.43165
려	-7.43683
▁근데	-7.44806
▁정	-7.44943
▁않아	-7.45079
▁이번에	-7.45461
▁다음	-7.45468
▁하면	-7.45681
▁하	-7.46573
▁친구	-7.47161
라는	-7.47177
소	-7.4721
▁날씨가	-7.47706
▁것이	-7.47769
하	-7.479
▁네가	-7.4898
세요	-7.50825
▁휴가	-7.51021
▁될	-7.51448
보	-7.51754
▁유	-7.51939
▁날	-7.52303
▁언제	-7.52374
▁그래	-7.52443
▁시간	-7.52671
▁소	-7.52925
▁얘기	-7.54093
▁가는	-7.54774
▁나도	-7.55012
래	-7.55215
▁청소	-7.5539
▁집에	-7.55611
어요	-7.55728
▁계속	-7.55893
▁가고	-7.56071
▁물	-7.56267
▁분	-7.563
▁위해	-7.56354
▁와	-7.56363
합니다	-7.56842
▁그러면	-7.57013
들은	-7.57917
▁열	-7.57928
전	-7.58187
▁예	-7.58957
▁무	-7.59482
▁건강	-7.59631
잖아	-7.59645
▁구	-7.59725
▁밥	-7.5983
▁부동산	-7.59893
▁생각해	-7.60307
▁여행	-7.60532
▁우리가	-7.60547
▁차	-7.60692
에게	-7.60971
▁바	-7.61157
▁보면	-7.61392
▁적	-7.61477
▁입	-7.61985
▁조금	-7.61999
▁신	-7.6213
제	-7.62226
▁가지고	-7.62244
▁적금	-7.63089
▁전에	-7.63106
우	-7.63398
▁원	-7.63549
▁바로	-7.63616
오	-7.6393
▁빨리	-7.64397
▁혹시	-7.64663
선	-7.64858
▁돼요	-7.65869
▁대한	-7.66277
드	-7.66289
▁알	-7.66343
지만	-7.67141
▁해서	-7.67488
▁막	-7.68189
▁얼마나	-7.68281
▁한번	-7.68442
▁가지	-7.68475
까	-7.68704
이나	-7.68809
▁있을	-7.69234
▁삼	-7.6958
적으로	-7.69584
▁말고	-7.69877
마	-7.69891
▁건강검진	-7.70088
냐	-7.70206
비	-7.71089
▁다이어트	-7.71407
▁미	-7.72023
단	-7.72333
▁방	-7.72342
음	-7.72373
▁장	-7.7275
▁싶어요	-7.73268
동	-7.73371
▁좋아하는	-7.73474
▁일이	-7.73543
▁함께	-7.74194
▁해외여행	-7.74524
▁먹어	-7.75298
엔	-7.75393
▁거죠	-7.7556
나요	-7.75614
▁중에	-7.75805
▁동	-7.75946
▁아주	-7.76158
▁하지	-7.76228
▁본	-7.76308
히	-7.76339
▁때는	-7.76405
▁상	-7.76679
▁대출	-7.76993
▁엄마	-7.77175
▁보험	-7.77523
▁볼	-7.77629
▁이게	-7.77843
▁없어요	-7.78053
들을	-7.78281
▁아직	-7.78478
▁연	-7.78563
▁큰	-7.78583
▁없는	-7.78727
구나	-7.7873
▁데	-7.78761
▁남	-7.78764
식	-7.78841
▁간	-7.79142
문	-7.79268
▁공	-7.79998
거	-7.80432
▁했어	-7.80534
했다	-7.80554
▁나이가	-7.80741
▁년	-7.80751
▁있는데	-7.80878
▁반	-7.81121
▁들	-7.82383
어서	-7.82751
▁사람들이	-7.82846
▁달	-7.82918
▁알고	-7.83158
▁있나요	-7.83182
▁식사	-7.83666
▁것도	-7.84006
려고	-7.84096
▁영양제	-7.84112
▁먹는	-7.8414
▁엄청	-7.85021
▁금리가	-7.85171
▁화	-7.85219
▁하는데	-7.85356
▁아이돌	-7.85415
▁명	-7.8627
▁것은	-7.8642
▁열심히	-7.86674
▁문제	-7.8714
▁가면	-7.87392
산	-7.8754
▁챙겨	-7.87971
▁경제	-7.88088
▁항상	-7.88152
▁공부	-7.88562
▁되	-7.88916
미	-7.89215
▁어때	-7.89325
▁음악	-7.89469
세	-7.8954
▁태풍이	-7.8955
▁먹을	-7.89809
▁태풍	-7.89812
▁모	-7.89881
▁편	-7.89893
▁준비	-7.90445
▁하루	-7.90525
했어요	-7.90754
▁많아	-7.90822
▁있으면	-7.90995
▁성적이	-7.91104
▁청약	-7.91182
▁좋아요	-7.91342
▁쓰	-7.91459
▁돈	-7.91653
▁싶은	-7.92055
▁선생님이	-7.92098
이라는	-7.92256
긴	-7.9258
차	-7.92627
연	-7.92648
▁타	-7.92876
내	-7.93229
▁것을	-7.93269
▁가자	-7.9333
▁그래도	-7.93486
▁아니야	-7.9383
▁만들어	-7.94193
▁없	-7.94381
▁조	-7.94807
한테	-7.95123
▁발	-7.95181
▁축제	-7.95405
▁산	-7.95922
▁시간이	-7.96065
▁생일	-7.96081
▁먼저	-7.96133
조	-7.96137
▁이야기	-7.96173
방	-7.9622
집	-7.96576
행	-7.96906
면서	-7.96923
▁온	-7.97054
▁운동을	-7.97328
▁별로	-7.97503
▁여러분	-7.97664
르	-7.97897
▁가족	-7.98076
▁저희	-7.98713
었어	-7.988
해요	-7.98866
용	-7.98969
여	-7.99002
▁모두	-7.99215
당	-7.99225
개	-7.9934
된	-7.99391
▁주세요	-7.99462
▁위해서	-7.99513
▁사실	-7.99583
물	-7.99588
▁있어서	-7.99672
▁올	-7.99708
▁지진이	-7.99993
▁얼마	-8.00042
▁손	-8.00102
분	-8.00355
그	-8.00682
▁먹	-8.00722
든	-8.00755
관	-8.00796
▁정도	-8.00803
▁알아	-8.00988
학	-8.01191
길	-8.01531
▁음식	-8.0155
▁그거	-8.02151
▁시작	-8.02882
▁여	-8.02998
▁어느	-8.03076
이랑	-8.03146
더니	-8.03193
금	-8.03291
▁집에서	-8.03399
워	-8.03457
▁맞	-8.03568
처럼	-8.03575
잖아요	-8.04202
▁가야	-8.0437
▁지역	-8.04501
▁자주	-8.04515
▁그게	-8.0512
모	-8.05149
▁진	-8.05382
▁처음	-8.05384
▁아니라	-8.05842
▁인제	-8.05979
운	-8.06534
중	-8.06714
유	-8.06958
▁힘들어	-8.07401
▁같은데	-8.07468
▁단	-8.07488
하다	-8.07662
▁싶다	-8.07781
▁뭘	-8.07787
▁배	-8.07818
▁방송	-8.07994
▁친구가	-8.08008
▁재	-8.08122
한다	-8.08159
▁성	-8.08358
예요	-8.08637
▁모든	-8.08709
▁강	-8.08804
▁싶은데	-8.08827
▁치	-8.08844
▁우리나라	-8.0965
체	-8.0967
간	-8.10145
▁도시	-8.10188
▁고향에	-8.10353
던데	-8.10475
국	-8.10506
▁있지	-8.10598
▁말을	-8.10781
▁지진	-8.11153
▁피	-8.11752
▁심	-8.12237
▁기분이	-8.12269
▁보내	-8.1285
▁말이	-8.12854
생	-8.12998
두	-8.13085
▁좋아해	-8.13165
▁오래	-8.13229
▁우	-8.13319
▁찾아	-8.13483
무	-8.13581
▁한국	-8.13873
▁비가	-8.14084
▁애	-8.14671
▁넌	-8.14742
▁십	-8.14769
거든요	-8.15176
▁그렇죠	-8.1541
주세요	-8.1575
▁이상	-8.15978
▁많	-8.16115
▁누가	-8.17102
▁생각이	-8.17121
▁전화	-8.17423
▁누구	-8.1754
▁놀러	-8.17823
심	-8.18068
었	-8.18599
▁파	-8.18679
▁아까	-8.19216
▁저녁	-8.19248
본	-8.19288
회	-8.19403
위	-8.19675
이라	-8.19763
▁경	-8.19842
▁일을	-8.19844
▁혼자	-8.2027
져	-8.20379
▁겁니다	-8.20397
점	-8.20435
타	-8.20669
약	-8.2069
봐	-8.20703
울	-8.20717
계	-8.20718
란	-8.21142
▁관리	-8.21155
▁뭐가	-8.212
▁했는데	-8.21205
명	-8.21291
▁사용	-8.214
▁보는	-8.21428
▁여러	-8.21439
▁좋지	-8.21506
▁실	-8.21524
▁됩니다	-8.21645
▁자산관리	-8.21702
▁와서	-8.21841
레	-8.21992
▁시험	-8.22008
▁새로	-8.221
▁양	-8.22134
▁굉장히	-8.22325
▁지구	-8.22358
▁고향	-8.22359
업	-8.22572
역	-8.22623
▁응	-8.22818
▁매일	-8.2282
겠다	-8.2282
▁번째	-8.22879
대요	-8.23043
▁세계	-8.23119
▁괜찮	-8.23279
▁책	-8.2339
▁노래	-8.23566
린	-8.23595
▁폭염	-8.2381
프	-8.24262
▁당	-8.24354
으니까	-8.24614
▁노	-8.24667
▁거기	-8.24711
▁건강관리	-8.24826
▁않아요	-8.25057
▁했어요	-8.25207
▁갔다	-8.25276
▁밖에	-8.25297
▁맛있는	-8.2533
▁새	-8.25407
▁여기서	-8.25851
영	-8.26054
▁되게	-8.26093
었다	-8.26286
▁보러	-8.26532
▁건데	-8.26688
▁통	-8.2676
▁중요한	-8.27081
▁있고	-8.27658
▁백	-8.28133
▁나와	-8.282
▁갈래	-8.28251
▁나오	-8.28283
▁있다고	-8.28463
▁연락	-8.2866
▁들어가	-8.28768
인지	-8.29072
▁가입	-8.29991
걸	-8.30119
호	-8.30136
▁된	-8.30189
하세요	-8.30255
▁해도	-8.3037
겨	-8.30441
▁벌써	-8.30451
라도	-8.30924
▁강아지	-8.30975
▁날씨	-8.31004
▁환경	-8.31293
▁자꾸	-8.31373
▁음식을	-8.31504
▁교	-8.318
님	-8.32027
▁위	-8.32274
▁뭐야	-8.32551
▁후	-8.32579
▁싫어	-8.33018
▁따라	-8.33049
▁나서	-8.33191
력	-8.33426
▁수업	-8.33452
양	-8.33488
▁자기	-8.33542
출	-8.33558
더라고요	-8.34004
▁팔	-8.34504
▁올해	-8.34583
절	-8.34793
▁그때	-8.34907
▁어디로	-8.35018
▁표현	-8.35788
▁사람은	-8.35803
며	-8.35865
▁선	-8.36265
▁사회	-8.36521
▁천	-8.366
천	-8.36815
▁보여	-8.36962
▁머릿속에	-8.36985
▁좋을	-8.37055
▁죽	-8.37268
했습니다	-8.37409
▁있을까요	-8.37599
▁만나	-8.38065
하려고	-8.38294
▁옷	-8.38367
▁건강을	-8.38412
▁문	-8.3857
▁되고	-8.3873
공	-8.38782
▁외	-8.38838
▁김	-8.38861
▁경제가	-8.39176
▁먹으면	-8.39456
형	-8.39748
▁나라	-8.39928
거든	-8.4014
법	-8.40295
▁사랑	-8.40301
통	-8.40384
재	-8.40471
▁생각을	-8.40489
크	-8.4053
▁회사	-8.4055
▁아침	-8.40595
안	-8.4061
▁선물	-8.40714
▁스	-8.40802
▁뭔가	-8.40811
▁학교에서	-8.40848
▁친구와	-8.40872
▁봤어	-8.40927
▁점심	-8.41148
▁소리	-8.41256
▁보니까	-8.41285
되	-8.41415
▁일본	-8.41442
직	-8.41503
▁힘들	-8.41541
▁딱	-8.41613
▁나한테	-8.41738
▁속	-8.41764
▁적이	-8.41867
▁맛	-8.41997
되는	-8.42117
▁적금을	-8.42132
급	-8.42316
▁매	-8.42345
▁앞으로	-8.42364
▁그건	-8.42387
▁눈	-8.42409
▁동안	-8.42583
속	-8.42613
다니	-8.42952
▁유명한	-8.42952
▁왔어	-8.43054
▁있을까	-8.43159
▁되면	-8.43255
▁마음	-8.43327
▁놀	-8.43469
▁나중에	-8.43736
가지고	-8.43869
▁요즘은	-8.43885
▁받아	-8.44103
▁갑자기	-8.44264
▁세계도시	-8.44269
▁초	-8.44513
▁모르겠어	-8.44556
▁관광지	-8.44905
발	-8.45123
▁써	-8.45282
▁첫	-8.45366
▁아빠	-8.45489
▁휴양지	-8.45652
▁약	-8.45692
▁텐데	-8.46132
겠습니다	-8.46132
▁좋겠어	-8.46401
▁오는	-8.46472
▁하지만	-8.46515
▁길	-8.46585
경	-8.47075
▁제주도	-8.47096
▁그다음에	-8.47202
▁이건	-8.474
했는데	-8.4749
▁어머니	-8.47587
▁있었	-8.47747
디	-8.48072
▁그러	-8.48384
▁영	-8.48397
▁주에	-8.48623
▁점점	-8.49045
▁아침에	-8.49185
셨어요	-8.49429
▁추	-8.49523
▁맞아	-8.49586
▁감	-8.49622
었는데	-8.49637
반	-8.49755
았	-8.49853
▁나랑	-8.49887
▁생각보다	-8.49936
겠어	-8.50125
될	-8.503
날	-8.50498
▁그러니까	-8.50498
▁반려동물	-8.50562
▁나오는	-8.50588
▁울	-8.50721
▁성적	-8.50788
▁없이	-8.50848
▁않고	-8.50944
▁사진	-8.51083
▁왔	-8.51116
▁따	-8.51136
▁한다	-8.51222
릴	-8.51817
민	-8.51834
▁역시	-8.51916
갈	-8.52013
난	-8.52025
▁있	-8.52026
▁잡	-8.52044
▁싸	-8.52258
▁청소를	-8.52509
▁어디서	-8.52526
▁여자	-8.52576
▁학교에	-8.52616
▁특산물	-8.52629
입	-8.52644
려면	-8.52833
▁돈을	-8.53008
▁되는데	-8.53021
▁걱정	-8.53211
▁설명	-8.53295
▁있니	-8.53339
▁없다	-8.53885
▁직업	-8.54072
▁작품	-8.54077
▁만들	-8.54262
▁복	-8.54457
건	-8.54465
▁씨	-8.54775
▁않는	-8.55085
▁신경	-8.55102
▁말씀	-8.55138
▁변	-8.5533
줘	-8.55332
▁음악을	-8.55416
▁새로운	-8.55677
저	-8.55841
터	-8.56015
▁커피	-8.56033
료	-8.56067
설	-8.56147
▁일단	-8.56174
▁등	-8.56279
▁봐요	-8.56308
▁서울	-8.56325
복	-8.56345
▁직접	-8.56415
▁일찍	-8.56529
▁친구들	-8.56623
▁깨	-8.56665
강	-8.56845
▁있죠	-8.56887
파	-8.56894
▁코	-8.57387
▁곳	-8.57418
겠죠	-8.57419
▁원래	-8.57479
목	-8.5752
▁영양제를	-8.57605
루	-8.57872
도록	-8.57904
▁대출을	-8.57956
했던	-8.5805
▁살아	-8.58123
▁영화를	-8.58197
하자	-8.582
▁되지	-8.58342
▁드	-8.58377
준	-8.58382
줄	-8.58708
▁결혼	-8.58822
감	-8.5895
▁점	-8.5909
었어요	-8.59369
▁필요한	-8.59589
▁주말에	-8.59694
▁잠	-8.59977
▁고양이	-8.60065
▁호	-8.60087
▁크	-8.60137
▁나온	-8.6018
론	-8.60289
졌어	-8.60333
▁병	-8.60398
달	-8.60639
▁금리	-8.60656
▁노력	-8.60757
▁않았	-8.60793
마다	-8.60832
▁많아요	-8.60853
▁타고	-8.60855
으니	-8.61019
▁없어서	-8.6117
▁너도	-8.61183
▁갖고	-8.61238
망	-8.61243
▁보기	-8.61502
▁먹어야	-8.61713
▁별	-8.61763
▁쓸	-8.61963
▁요새	-8.61991
▁서로	-8.62005
작	-8.62195
▁앞에	-8.62227
▁않은	-8.62393
▁고민	-8.62508
▁마스크	-8.6257
편	-8.62784
▁아마	-8.62818
하러	-8.62975
겠지	-8.63123
니다	-8.63155
▁이미	-8.63254
▁청	-8.63271
▁내용	-8.6332
▁버	-8.63332
티	-8.63359
▁중국	-8.63372
▁아니면	-8.63418
백	-8.63431
▁다들	-8.63561
▁곳이	-8.6382
▁제대로	-8.64113
▁기억	-8.64132
▁좋겠다	-8.64166
온	-8.64197
▁곧	-8.64223
▁좋다	-8.64244
▁아니에요	-8.64535
▁꿈	-8.6455
▁있다는	-8.64736
▁늘	-8.64949
년	-8.65199
▁폭염이	-8.65302
▁마세요	-8.65318
바	-8.65335
▁버스	-8.65419
▁된다	-8.65462
▁부분	-8.65521
품	-8.65616
색	-8.65673
들의	-8.65722
하면서	-8.6574
▁남자	-8.65771
▁많아서	-8.65815
▁찍	-8.65915
▁확인	-8.66002
▁괜찮아	-8.66028
병	-8.66042
▁창	-8.6611
▁둘	-8.66188
▁술	-8.66232
▁엄마가	-8.66368
▁앞	-8.66469
거리	-8.66508
락	-8.66625
피	-8.66698
겠어요	-8.66721
림	-8.66853
인가요	-8.66918
하여	-8.67121
▁그걸	-8.67186
▁오랜만에	-8.67283
▁돈이	-8.67314
▁이야기를	-8.67471
▁지난	-8.67489
▁법	-8.67669
▁생	-8.67673
하신	-8.67686
▁잘못	-8.6783
▁어려운	-8.67949
▁꽃	-8.67963
▁온난화	-8.68049
까요	-8.68067
▁다음에	-8.68332
으	-8.6837
▁민	-8.68385
말	-8.68416
▁됐	-8.68432
▁망	-8.68455
▁먹으러	-8.6847
▁먹었어	-8.68511
▁가게	-8.68516
석	-8.68583
▁미국	-8.68621
▁확	-8.68633
군	-8.68644
▁필요	-8.68813
▁건강에	-8.68855
박	-8.69011
▁밤	-8.69061
▁순	-8.69141
▁사람들	-8.69239
▁음식이	-8.69241
▁환경을	-8.69263
▁용	-8.69267
▁이걸	-8.69296
▁은행	-8.69315
▁관심이	-8.69396
▁할머니	-8.69442
▁아무	-8.69537
▁발생	-8.69601
▁글	-8.69663
포	-8.69807
종	-8.69991
쳐	-8.70107
▁주는	-8.70206
▁얘기를	-8.70283
▁하기	-8.70285
▁될까요	-8.70418
▁그랬	-8.70601
살	-8.70794
▁기분	-8.70797
매	-8.71088
▁잔	-8.71198
보다는	-8.71209
▁문화	-8.71293
▁체	-8.71298
▁관	-8.7134
▁매우	-8.71341
▁축제에	-8.71532
였	-8.71629
격	-8.72018
져서	-8.72059
▁봤	-8.72097
▁몸	-8.72263
▁약속	-8.72461
▁쓰는	-8.72585
▁달라	-8.72596
▁풀	-8.72646
되어	-8.72736
래요	-8.72862
▁왔어요	-8.72892
▁친구랑	-8.73388
대로	-8.73422
▁아직도	-8.73475
▁코로나가	-8.73481
성이	-8.73643
▁몰라	-8.73676
권	-8.73705
▁말이야	-8.73761
▁안녕하세요	-8.73775
▁아버지	-8.73799
▁예약	-8.7382
▁시간에	-8.73851
▁언니	-8.73885
▁가기	-8.7393
▁목	-8.73966
▁맞는	-8.73971
▁일상	-8.74168
▁내려	-8.74177
▁당신은	-8.74392
근	-8.74461
▁마음이	-8.74519
판	-8.74663
▁부동산에	-8.74963
▁가요	-8.75081
름	-8.75118
하는데	-8.75204
임	-8.75653
▁땐	-8.75701
있	-8.75717
보고	-8.75786
카	-8.75848
배	-8.75883
▁사고	-8.7599
▁최고	-8.76006
▁마지막	-8.76055
▁지금은	-8.76133
▁고생	-8.76381
▁특산물은	-8.76445
▁귀	-8.7648
▁뒤	-8.76498
▁식	-8.76499
별	-8.76699
▁되어	-8.76967
▁건강관리를	-8.76998
▁사람들은	-8.7701
▁중이야	-8.77271
▁쓰고	-8.77279
▁종	-8.77294
▁대화	-8.77297
버	-8.77318
▁돌	-8.77433
▁직업이	-8.7745
언	-8.77651
게요	-8.77901
▁카페	-8.77903
▁친	-8.77949
▁쉬	-8.77954
▁성공	-8.78337
▁지내	-8.78378
▁했다	-8.78498
▁직업을	-8.78621
▁육	-8.78622
▁보세요	-8.78641
▁듣고	-8.78818
▁힘든	-8.78901
▁다녀	-8.78968
▁지나	-8.78975
▁보이	-8.79028
▁벌	-8.7905
▁몸이	-8.79144
▁비싸	-8.79192
▁것이다	-8.79263
먹	-8.79304
류	-8.79398
▁허	-8.7948
▁머리	-8.79558
▁해결	-8.79634
청	-8.79694
▁위한	-8.79742
▁좋겠어요	-8.79804
▁질병	-8.79843
등	-8.7989
▁부모님	-8.79891
▁알려	-8.79906
▁관련	-8.80078
▁말해	-8.80078
▁종일	-8.80083
▁저녁에	-8.80113
▁절	-8.80153
▁있어야	-8.80303
▁같습니다	-8.8048
▁꾸준히	-8.80524
▁요리	-8.80559
▁받고	-8.80655
▁투자	-8.80739
▁감사합니다	-8.80748
▁나왔	-8.80748
▁먹자	-8.80823
버리	-8.8089
▁좋아서	-8.81123
▁시켜	-8.81198
▁보통	-8.81221
▁도움이	-8.8123
▁맛있	-8.81388
▁산책	-8.81452
른	-8.81547
▁추천	-8.81567
▁생활	-8.81634
▁국	-8.81921
▁영어	-8.81962
한다고	-8.82034
▁부산	-8.82153
▁대학	-8.82187
▁끝나	-8.8232
▁했습니다	-8.82352
교	-8.82361
증	-8.8245
▁미리	-8.82658
▁인생	-8.82671
▁어려워	-8.82868
▁넣어	-8.83027
▁있었어	-8.83055
이라도	-8.83172
▁아파트	-8.83222
더라고	-8.83259
군요	-8.83265
▁특산물이	-8.83376
▁건가요	-8.83675
▁줘	-8.83679
▁책을	-8.83858
▁신청	-8.83971
▁생각하면	-8.84224
▁병원	-8.84256
▁끼	-8.84271
▁코로나로	-8.84347
▁문제가	-8.84894
▁바다	-8.84986
▁선택	-8.85086
투	-8.85089
▁얼굴	-8.85119
▁관광지에	-8.85255
▁아닌	-8.85275
▁인간	-8.8557
칠	-8.85617
합	-8.85688
▁평	-8.85704
시는	-8.85787
▁빼	-8.85789
▁다양한	-8.85798
을까	-8.85884
▁자산관리를	-8.85918
▁인해	-8.85947
거나	-8.85951
▁날이	-8.8605
봤어	-8.86142
▁어릴	-8.86181
각	-8.86284
녀	-8.86362
▁들고	-8.86454
▁드라마	-8.8647
▁공부를	-8.86472
즈	-8.86595
▁게임	-8.86625
추	-8.86684
▁웃	-8.86744
만큼	-8.86905
▁정리	-8.86966
▁싶지	-8.87054
▁음식은	-8.87152
시면	-8.87408
▁휴가를	-8.87474
▁친구들과	-8.87486
▁일어나	-8.87813
▁채	-8.8796
▁담	-8.88307
습니까	-8.88336
▁의미	-8.8836
▁방법	-8.8842
▁낮	-8.88498
야겠어	-8.8855
▁배가	-8.88558
▁따로	-8.88653
▁학	-8.88719
▁사람을	-8.88887
▁나면	-8.88989
▁잠깐	-8.89045
▁높은	-8.8909
▁고향이	-8.89241
▁그럴	-8.89242
견	-8.8941
▁주문	-8.89458
▁특	-8.8954
▁가보고	-8.89546
▁무엇을	-8.89679
되고	-8.8968
▁여행을	-8.89812
▁포	-8.89882
▁정신	-8.89883
▁친구는	-8.8992
창	-8.90024
친	-8.90025
됐	-8.90066
▁다이어트를	-8.9009
▁형	-8.90125
▁질병에	-8.90195
▁금	-8.90195
▁없습니다	-8.90296
▁뒤에	-8.9036
▁하자	-8.90582
겠	-8.90807
령	-8.90885
▁핸드폰	-8.91095
▁군	-8.91115
주는	-8.91126
십	-8.91172
▁진행	-8.91209
▁뭐라고	-8.91217
▁그것은	-8.91228
더	-8.91282
▁동생	-8.91354
▁그림	-8.91543
▁회	-8.91673
▁해외여행을	-8.91728
▁떠	-8.9173
▁에어컨	-8.91753
▁보니	-8.91773
▁어르신	-8.91802
▁시에	-8.91854
▁하겠습니다	-8.91892
▁훨씬	-8.91928
▁화장실	-8.91995
토	-8.92239
▁소설	-8.92329
▁결국	-8.92346
▁얼른	-8.92378
▁질문	-8.92412
▁끝	-8.92706
하니까	-8.92758
▁박	-8.92807
▁같다	-8.92842
▁너희	-8.92845
▁상품	-8.92927
▁도대체	-8.93091
스트	-8.93306
▁어때요	-8.93458
함	-8.93519
하시	-8.93548
▁있으니까	-8.93551
▁여름	-8.93559
▁논	-8.93598
▁할아버지	-8.9364
범	-8.93663
노	-8.93674
▁휴양지에	-8.93694
▁가려고	-8.93729
▁오면	-8.93759
▁최	-8.93826
▁중에서	-8.93912
▁얘	-8.93949
▁아프	-8.93989
▁높아	-8.93991
▁만든	-8.94161
량	-8.94227
▁할까	-8.94253
▁치킨	-8.94361
웠	-8.94395
▁재밌	-8.94501
▁계	-8.94501
▁행복	-8.94505
▁하면서	-8.94736
▁바람	-8.94756
▁살고	-8.94772
께	-8.94855
▁돌아	-8.94869
▁갈까	-8.94953
▁않을	-8.94981
▁넘	-8.95029
드리	-8.95088
▁아이들	-8.95161
니깐	-8.95317
▁결정	-8.95356
▁살이	-8.95521
▁다이어트는	-8.95854
▁취소	-8.95986
▁보자	-8.96032
▁꽤	-8.96047
불	-8.96086
▁받을	-8.96252
▁대비	-8.96374
▁베	-8.96389
▁대신	-8.96416
혀	-8.96475
▁아무것도	-8.96793
▁근	-8.96824
결	-8.96941
▁통해서	-8.97023
▁안녕	-8.97289
코	-8.97565
▁작은	-8.97588
▁그렇지	-8.97641
▁크게	-8.97801
▁대해서는	-8.97817
▁주로	-8.97867
▁향	-8.9806
▁기대	-8.98129
▁좋아해요	-8.98134
▁칠	-8.98163
▁출	-8.98236
▁눈이	-8.98281
▁선생님은	-8.98325
▁발음	-8.98585
▁피해가	-8.98588
▁아이돌이	-8.986
▁읽어	-8.98718
곤	-8.98742
▁표	-8.98761
환	-8.98974
▁머리가	-8.98996
▁도착	-8.99005
돼	-8.99009
립	-8.99038
▁들었어	-8.99051
주의	-8.99216
▁교육	-8.99296
▁하늘	-8.99304
태	-8.99417
데요	-8.99428
▁하나도	-8.99454
▁온난화가	-8.99589
▁당신	-8.99732
▁누	-8.99738
라서	-8.99793
▁있었다	-8.998
▁추천해	-9.00138
야겠다	-9.00321
▁주제	-9.0035
▁절대	-9.00541
▁시장	-9.00584
▁마음에	-9.00799
▁환경이	-9.00848
▁겨울	-9.00922
렸	-9.00922
셔야	-9.00968
째	-9.01012
▁걸로	-9.01052
▁키우	-9.01067
▁녹	-9.01105
▁결과	-9.01128
▁휴가는	-9.01186
졌다	-9.01188
▁지원	-9.01196
수가	-9.01453
월	-9.01453
▁사실은	-9.01558
▁좋은데	-9.01672
▁월	-9.01727
▁계획	-9.01824
으시	-9.0198
▁맨날	-9.02025
▁방송에	-9.02132
▁가져	-9.02455
▁이사	-9.02583
▁스트레스	-9.02589
후	-9.02603
줄게	-9.02609
▁임	-9.0266
▁우산	-9.02661
▁모르겠어요	-9.02686
▁필수	-9.02992
▁그다음	-9.03002
▁맛있어	-9.03022
▁가족은	-9.03149
▁싫	-9.03156
▁그것	-9.03215
▁쪽	-9.0323
독	-9.0323
▁이십	-9.03239
▁저번에	-9.033
▁폭염에	-9.03356
▁출근	-9.03486
▁모르	-9.03621
▁생일이	-9.03721
께서	-9.03853
▁붙	-9.04013
▁접	-9.04058
▁않을까	-9.04123
▁돌아가	-9.04143
▁해주	-9.0417
▁여기에	-9.04382
남	-9.04428
▁시간을	-9.0453
▁쉽게	-9.04539
▁커	-9.04546
▁그녀는	-9.04654
▁숨	-9.04681
▁달에	-9.04752
▁사과	-9.04794
▁프로그램	-9.04803
▁먹을까	-9.04845
쯤	-9.0486
▁직업은	-9.04868
▁밤에	-9.04968
력이	-9.05181
너	-9.05229
▁기다려	-9.05308
▁고마워	-9.0531
▁아무리	-9.05318
졌어요	-9.05336
하니	-9.05343
성을	-9.05366
▁모르는	-9.05426
하려면	-9.05431
▁아파	-9.05462
애	-9.05519
▁걸리	-9.0552
▁동물	-9.05561
▁식사는	-9.05848
▁악	-9.05982
▁확인해	-9.05992
▁인터넷	-9.06013
소리	-9.06015
습	-9.06047
▁가끔	-9.06072
▁하나요	-9.06108
▁무서워	-9.06245
▁내려가	-9.06445
▁어디에	-9.06687
▁조금만	-9.06692
▁상태	-9.06716
▁끝나고	-9.06908
▁나무	-9.07038
▁음악은	-9.07123
▁먹을래	-9.07125
▁하세요	-9.07389
▁현재	-9.07489
담	-9.07699
▁빵	-9.07783
▁경기	-9.07794
▁내일은	-9.07829
▁감기	-9.07835
처	-9.07953
▁먹지	-9.07978
▁틀	-9.08116
▁되나요	-9.08154
▁배우	-9.08314
▁급	-9.08392
수록	-9.08412
었습니다	-9.08414
▁부탁	-9.08458
▁가족이	-9.08502
▁피해	-9.0851
▁연습	-9.08581
▁뭔지	-9.08624
▁예전에	-9.08632
▁축제가	-9.08661
▁뉴스	-9.08679
▁충	-9.08759
▁너네	-9.0878
셨나요	-9.08782
순	-9.08804
▁아이돌은	-9.08942
▁주고	-9.09052
▁철	-9.09074
▁라면	-9.0911
항	-9.09117
▁방송에서	-9.09186
▁좋을까	-9.09239
▁학생	-9.09264
▁직업에	-9.09339
▁오르	-9.09477
▁건강검진을	-9.09496
▁더워서	-9.09871
▁이용	-9.0989
▁개인	-9.10079
▁받는	-9.10266
쪽	-9.10357
▁때부터	-9.10378
▁회의	-9.10393
▁식당	-9.10556
초	-9.10581
▁학원	-9.10645
▁영화는	-9.10717
▁봐야	-9.1095
▁경우	-9.11051
물이	-9.11069
▁생겼	-9.11113
▁문장	-9.1113
▁거라고	-9.11199
승	-9.11502
▁보려고	-9.11511
▁밀	-9.11545
▁가보	-9.11584
▁이유	-9.11584
▁운동은	-9.11657
움	-9.11661
▁자산관리는	-9.11676
▁하니	-9.11679
▁승	-9.11751
▁다녀오	-9.11761
▁키	-9.11825
▁쓰레기	-9.1196
▁어렵	-9.1196
하셨	-9.12133
▁땅	-9.12165
▁늦게	-9.12176
플	-9.12218
평	-9.1231
▁한다고	-9.12363
▁청약에	-9.12393
해주세요	-9.12513
야겠어요	-9.12602
였어	-9.1267
▁전혀	-9.12735
것	-9.12807
▁환	-9.12835
▁컴퓨터	-9.12841
▁자신	-9.13036
▁단어	-9.13037
▁위에	-9.13107
▁괜찮은	-9.13304
현	-9.13305
▁가수	-9.13328
▁탈	-9.13355
▁식사를	-9.13392
▁금방	-9.13559
술	-9.13564
라면	-9.137
할까	-9.13717
▁하니까	-9.14149
▁물론	-9.14153
▁미안해	-9.14166
▁방금	-9.14383
▁하셨	-9.14399
▁동네	-9.1443
▁집이	-9.14481
▁처	-9.14511
▁건강이	-9.14804
들도	-9.14808
곡	-9.14877
▁답	-9.14891
▁정부	-9.14903
하시면	-9.15042
▁만드는	-9.15069
▁그것을	-9.15085
▁맛이	-9.15116
▁만기	-9.15342
▁안전	-9.15407
▁그렇	-9.15422
▁않았어	-9.15455
▁소식	-9.15455
▁뭐예요	-9.15476
▁어렸을	-9.15548
▁세상	-9.15563
봤	-9.15565
▁다섯	-9.15616
극	-9.15638
으세요	-9.1564
▁빨래	-9.15672
▁행동	-9.1581
▁나올	-9.15864
탕	-9.15872
▁고기	-9.15881
▁휴양지에서	-9.15941
하실	-9.15961
▁인물	-9.16051
▁혼	-9.1609
들에게	-9.16122
철	-9.16123
▁디	-9.16149
▁변화	-9.16167
▁없는데	-9.1644
▁토	-9.16458
▁밥을	-9.16508
▁있게	-9.16543
▁케이크	-9.1661
맛	-9.16738
▁될까	-9.16768
▁아무래도	-9.168
▁우와	-9.1687
는데요	-9.16954
▁없고	-9.17023
었던	-9.17169
▁고등학교	-9.17306
▁삼십	-9.17316
▁하죠	-9.17325
▁불러	-9.17492
▁작	-9.17621
▁시대	-9.17723
▁환경에	-9.17737
▁축하해	-9.17753
▁자연	-9.17764
▁잠을	-9.1781
▁써야	-9.17858
▁방법이	-9.17898
▁발표	-9.17934
시죠	-9.18262
▁싶습니다	-9.18294
시다	-9.18374
▁투	-9.18386
▁자동차	-9.1839
▁우선	-9.1844
▁설	-9.18521
▁걱정이	-9.18555
▁현	-9.18561
▁약간	-9.18585
▁온다	-9.18701
▁반려동물을	-9.18707
▁특히	-9.18736
▁힘들어요	-9.1878
▁조사	-9.18847
장이	-9.18956
▁가치	-9.19029
든지	-9.19063
▁집을	-9.19084
▁의사	-9.19088
이니까	-9.19102
▁됐어	-9.19126
▁쉽지	-9.19207
▁창문	-9.19364
▁오빠	-9.19443
▁그대로	-9.19474
▁졸업	-9.19504
▁질	-9.19557
장을	-9.19573
됩니다	-9.19732
외	-9.19777
▁암	-9.19837
▁지키	-9.19874
▁근처에	-9.19885
▁토론	-9.19896
▁아이스크림	-9.19973
▁국어	-9.19982
삼	-9.20027
버렸어	-9.20064
▁물어보	-9.20076
록	-9.20106
▁봤는데	-9.2014
▁않게	-9.20169
줬	-9.20202
▁숙제	-9.20286
▁병원에	-9.20315
▁취미	-9.20367
▁왔는데	-9.204
▁알았어	-9.20599
▁쪽으로	-9.20618
▁하려고	-9.20722
▁후에	-9.20746
▁갔어	-9.20793
씩	-9.20892
▁같지	-9.21218
▁프로	-9.21294
▁관련해서	-9.213
된다	-9.21358
▁휴양지로	-9.21376
줄래	-9.21438
▁폭	-9.215
▁조심해	-9.21528
▁언제쯤	-9.2158
▁대체	-9.21627
▁지구온난화	-9.21671
▁챙기	-9.21717
▁올해는	-9.21854
▁온난화로	-9.21904
▁유명	-9.21944
▁이곳	-9.21961
▁보험을	-9.22029
▁안돼	-9.22036
▁전부	-9.22159
▁내용을	-9.22182
▁들어요	-9.22216
▁과제	-9.22224
▁준	-9.22229
▁걔	-9.2225
▁않습니다	-9.22313
▁영화가	-9.22328
▁편이야	-9.22421
▁운전	-9.22527
▁집중	-9.22574
책	-9.22593
▁영양제는	-9.22595
밥	-9.22596
▁빌	-9.2268
▁주식	-9.22827
▁대상	-9.22828
▁피자	-9.22847
▁경제에	-9.2292
▁올라	-9.22988
드릴게요	-9.23056
▁왕	-9.23099
았어	-9.23233
셔	-9.23254
▁대로	-9.23288
▁봄	-9.2335
▁물건	-9.23399
려서	-9.23524
▁기다리	-9.23573
▁보호	-9.23732
원이	-9.2374
▁권	-9.23905
▁올랐	-9.23918
▁걸어	-9.23924
▁먹었	-9.23966
▁샀어	-9.24118
▁떠나	-9.2421
▁좋더라	-9.24227
▁나갈	-9.24296
▁대화를	-9.24317
▁딸	-9.24334
▁비타민	-9.24435
▁나이에	-9.24437
볼	-9.24465
▁이것	-9.24467
▁가방	-9.24488
염	-9.24504
열	-9.24556
▁먹어요	-9.24589
▁아르바이트	-9.24708
▁해외	-9.24711
전에	-9.24775
▁각	-9.24837
▁있으	-9.24907
▁상황	-9.24959
하시는	-9.25038
▁듣는	-9.25046
▁당신의	-9.25067
▁추석	-9.25094
▁상담	-9.25277
▁이러	-9.25312
▁예방	-9.25406
▁특징	-9.25538
필	-9.25682
▁농	-9.25806
▁생기	-9.25808
▁않으	-9.25845
▁큰일	-9.25857
▁메뉴	-9.26051
▁풍	-9.26059
▁무엇이	-9.26126
해주	-9.26151
▁되겠	-9.26163
향	-9.26175
▁나에게	-9.2625
▁쓴	-9.26285
▁떡볶이	-9.26534
▁비행기	-9.26571
▁입고	-9.26634
▁여러분이	-9.26713
▁전체	-9.26755
▁사장님	-9.26801
▁바뀌	-9.26867
▁바라	-9.2691
▁터	-9.26931
▁애들	-9.26979
▁뛰어	-9.27037
▁바꾸	-9.27191
▁없을	-9.27204
▁안되	-9.27212
▁꾸	-9.27227
▁바랍니다	-9.2756
드려	-9.27782
▁취	-9.27784
보험	-9.27918
▁티브이	-9.27935
▁기억이	-9.2796
▁빈	-9.27994
▁때마다	-9.28023
▁태	-9.28164
▁사건	-9.28228
▁분위기	-9.28254
▁돼서	-9.28255
▁부분이	-9.28273
▁위험	-9.2831
▁제발	-9.28678
▁도와	-9.28737
▁활동	-9.28767
때	-9.28796
▁빌려	-9.28842
▁알려주세요	-9.28869
▁당신이	-9.2922
▁적어	-9.29267
,	-9.2932
▁존재	-9.29357
▁제시	-9.29562
돼서	-9.29665
▁이번에는	-9.29714
▁문제를	-9.29739
▁청약을	-9.29768
▁관련된	-9.29812
▁관계	-9.29836
▁고향은	-9.29976
번	-9.29979
북	-9.30149
▁좋습니다	-9.30182
▁바꿔	-9.30299
▁앞에서	-9.30316
냈	-9.30359
▁말하는	-9.30363
▁짓	-9.30458
▁왔다	-9.30561
▁자신의	-9.30671
▁그니까	-9.30795
▁키우는	-9.30816
▁주말	-9.31042
표	-9.31086
▁때문이	-9.3117
탄	-9.31222
▁반대	-9.31326
▁들어야	-9.31341
▁만나서	-9.31432
▁건물	-9.31498
▁부르	-9.31614
▁있고요	-9.31627
돌	-9.31686
▁봤어요	-9.31741
▁옷을	-9.31758
▁옛날	-9.31869
하셔야	-9.31941
하네	-9.31954
▁추워	-9.31968
▁생각하는	-9.32202
▁배달	-9.3225
▁생각하고	-9.32261
하기로	-9.32278
▁최근에	-9.32299
▁나와서	-9.3233
▁관광지에서	-9.32346
▁것입니다	-9.32348
▁옆에	-9.32401
▁국가	-9.3257
글	-9.32688
진다	-9.32699
▁있으세요	-9.32785
▁나왔어	-9.32865
았다	-9.3296
▁올라가	-9.32968
▁보험은	-9.33007
▁상황이	-9.33017
▁유튜브	-9.33036
▁싶어서	-9.33054
▁파티	-9.3313
▁맡	-9.33151
▁키우고	-9.33156
▁지하철	-9.33184
▁과정	-9.33314
▁있기	-9.33342
느냐	-9.33432
▁남편	-9.33491
▁어쩌	-9.33714
보는	-9.33733
▁들어서	-9.33752
웠어	-9.33792
올	-9.33845
▁자전거	-9.33859
▁총	-9.33914
▁마음을	-9.33981
▁떨	-9.34038
촌	-9.34072
족	-9.34183
▁더워	-9.34259
▁너한테	-9.34365
▁교과서	-9.3442
하려	-9.34467
▁따라서	-9.34485
였다	-9.34524
▁교수님	-9.34532
▁지나가	-9.346
▁내용이	-9.34603
▁느끼	-9.3461
▁자산	-9.34616
▁가기로	-9.34647
▁친구를	-9.34648
▁삶	-9.34688
▁있었어요	-9.34744
하죠	-9.34775
▁노래를	-9.34885
▁있나	-9.34886
▁않으면	-9.34909
줘야	-9.34943
▁것보다	-9.34978
▁먹기	-9.35143
▁된다고	-9.35224
▁키워	-9.35254
액	-9.35272
▁인사	-9.35312
왔	-9.35329
▁사업	-9.35341
▁재미있	-9.35402
▁맛있게	-9.3553
▁나가서	-9.35536
하다고	-9.356
▁좋겠	-9.35632
▁유행	-9.35663
▁레	-9.35717
▁기간	-9.35727
▁다르	-9.35804
▁부담	-9.35844
▁정책	-9.35853
▁강의	-9.35885
볼까	-9.35897
▁주변	-9.35955
▁생신	-9.35995
했다고	-9.36065
블	-9.36202
▁온다고	-9.36244
▁스스로	-9.36281
▁구성	-9.3634
▁건강관리에	-9.36444
▁수학	-9.36449
▁천천히	-9.36587
▁소리가	-9.36592
▁있잖아	-9.36616
▁끝내	-9.36642
협	-9.36695
▁통장	-9.36728
▁재밌는	-9.36808
▁침	-9.37023
▁만큼	-9.37198
▁생일에	-9.37235
런	-9.37243
▁당연히	-9.37281
팔	-9.3732
▁할까요	-9.37332
▁생긴	-9.37398
▁짜	-9.37465
▁대학교	-9.37591
▁온난화에	-9.37603
축	-9.37618
▁팀	-9.3762
키	-9.37648
▁덥	-9.37753
능	-9.37808
▁친구들이	-9.37946
▁계시	-9.37988
▁들어오	-9.3801
▁까	-9.38056
▁떨어지	-9.38061
▁경험	-9.38079
▁한데	-9.38149
▁중요해	-9.38253
▁이유가	-9.38295
▁포기	-9.38347
▁마시고	-9.38368
▁일어났	-9.38489
▁집은	-9.38737
▁고장	-9.38757
▁걸까	-9.3876
▁좋을까요	-9.38776
▁독	-9.38848
▁메	-9.38919
▁과일	-9.3898
▁청소는	-9.39006
▁알아보	-9.39046
▁하더라	-9.39115
▁배워	-9.39123
▁필요가	-9.39138
▁드는	-9.39171
▁여름에	-9.39185
▁힘	-9.39241
막	-9.39449
인데요	-9.39467
션	-9.39625
▁어린	-9.39641
케	-9.39703
예	-9.39741
벌	-9.39783
▁피부	-9.39795
▁것처럼	-9.39846
▁않는다	-9.39853
▁성격	-9.39855
▁외국	-9.39888
▁듣	-9.39999
되지	-9.40061
▁개념	-9.40074
▁느	-9.40148
▁손님	-9.40274
▁황	-9.40544
▁걷	-9.40614
▁방식	-9.40674
▁예쁜	-9.40869
▁오히려	-9.40949
▁편이	-9.40955
▁좋았	-9.40958
▁기본	-9.41
▁보이는	-9.41072
▁조금씩	-9.41129
▁가능	-9.41187
페	-9.41262
▁넘어	-9.41363
▁건강관리는	-9.41367
층	-9.41385
▁테니까	-9.41445
▁역	-9.41485
이라서	-9.41548
▁오늘부터	-9.41563
▁무섭	-9.41572
▁이름	-9.41583
▁궁금해	-9.41838
비가	-9.41874
낸	-9.41901
▁오세요	-9.41937
보세요	-9.42014
▁자료	-9.42052
▁가족끼리	-9.42107
▁나타나	-9.42125
하더라	-9.42213
▁마리	-9.42243
드리겠습니다	-9.42257
▁마셔	-9.42262
▁무리	-9.42264
▁몸에	-9.42314
▁결	-9.42472
▁드디어	-9.42487
▁낮아	-9.42498
▁솔직히	-9.4261
▁맥주	-9.42613
럽	-9.42635
▁가본	-9.42665
▁바람이	-9.42716
▁며칠	-9.42775
▁힘이	-9.42891
▁금리에	-9.43037
▁푸	-9.43173
▁이름이	-9.43211
▁송	-9.43333
▁들었	-9.43338
▁카드	-9.43356
▁마시	-9.43392
흐	-9.43422
▁필	-9.43492
▁연결	-9.43581
▁있겠	-9.43623
▁마스크를	-9.43674
▁닭	-9.43694
▁현상	-9.43744
하도록	-9.43775
느라	-9.43836
▁없었	-9.43882
▁방문	-9.4391
▁분이	-9.44165
브	-9.44184
슬	-9.44189
▁해외여행은	-9.4424
▁다닐	-9.44254
▁역사	-9.44501
▁완전히	-9.44505
▁여름휴가	-9.44506
십시오	-9.446
▁물을	-9.44612
▁감정	-9.44624
▁났어	-9.44673
▁말아	-9.4472
꽃	-9.44742
▁필요해	-9.44745
▁나아	-9.44767
▁지켜	-9.44777
▁어떡해	-9.448
▁아파서	-9.44849
채	-9.44974
희	-9.45038
▁증	-9.45062
▁빠져	-9.4513
▁도와주	-9.45274
▁지문	-9.45325
▁초대	-9.45343
▁몰	-9.45361
갑	-9.45398
▁대부분	-9.45469
▁강원도	-9.45539
존	-9.4559
▁문자	-9.45655
▁광	-9.45728
▁그래요	-9.45812
▁작가	-9.45933
▁모습	-9.45941
▁벗	-9.45984
▁가시	-9.46009
하겠습니다	-9.46047
▁하루에	-9.46076
▁잡아	-9.46089
입니까	-9.46101
풍	-9.46122
주시	-9.46126
▁후보	-9.46225
▁꺼	-9.46269
▁선물로	-9.46279
▁우유	-9.46354
▁카	-9.46358
렸다	-9.46395
▁아픈	-9.46411
▁짜증	-9.46449
변	-9.46487
▁모아	-9.46639
▁거짓말	-9.46652
▁직	-9.46704
감이	-9.4674
▁개발	-9.46768
머	-9.46853
둥	-9.46865
▁걸려	-9.47027
▁특별한	-9.47041
▁조심해야	-9.47121
▁검사	-9.4718
▁다이어트에	-9.47183
▁끝나면	-9.47293
▁관한	-9.47578
▁평소에	-9.47646
▁공간	-9.47713
▁감사	-9.47785
▁관심	-9.47827
▁있습니까	-9.47886
▁방송을	-9.47907
▁방법을	-9.47922
▁사이에	-9.47922
▁마을	-9.47993
▁알려줘	-9.48024
▁세상에	-9.48045
▁하시	-9.48165
▁효과	-9.4818
으려고	-9.48189
▁강아지가	-9.4835
▁받아야	-9.48358
▁해줘	-9.48448
하느라	-9.48498
▁멋진	-9.48542
▁정보	-9.48631
▁그것이	-9.48646
▁공연	-9.4865
축제	-9.48705
득	-9.48725
되었다	-9.48734
▁인기	-9.48759
▁했었	-9.48818
▁담배	-9.4883
▁먹은	-9.48843
▁축제는	-9.48848
▁남자친구	-9.4885
▁널	-9.48866
▁맞아요	-9.48871
▁퇴근	-9.48873
▁곳은	-9.489
▁드시	-9.48928
▁없지	-9.48944
▁쭉	-9.49013
▁갈등	-9.49109
▁특산물을	-9.49118
▁대피	-9.49199
광	-9.49267
▁가격	-9.49273
악	-9.49365
되면	-9.49396
▁있었는데	-9.49441
▁나이를	-9.49443
▁보험에	-9.4948
▁않아서	-9.4948
▁축구	-9.49485
▁만한	-9.49532
▁소개해	-9.49571
▁했더니	-9.4963
▁무서운	-9.49631
렴	-9.49654
▁신기	-9.49669
겼	-9.49699
▁얘들아	-9.49718
▁소개	-9.49801
▁무조건	-9.49937
▁없네	-9.49957
송	-9.49975
▁파리	-9.5001
▁영향을	-9.50093
효	-9.50105
▁올리	-9.50152
▁완전	-9.50155
▁음악이	-9.50236
테	-9.50333
값	-9.50362
▁홍	-9.50416
▁거기에	-9.50422
▁아무도	-9.50471
▁주택청약	-9.5051
▁푹	-9.50546
▁장난	-9.50605
▁구경	-9.50616
▁글을	-9.50644
하라고	-9.50659
▁연구	-9.50668
▁해야지	-9.50682
▁않다	-9.50687
▁직장	-9.50736
▁내일부터	-9.50756
▁언제나	-9.50972
▁생각나네	-9.50973
▁저희가	-9.50988
▁저번	-9.51026
▁통해	-9.5109
하네요	-9.5117
주고	-9.5126
▁들었어요	-9.51266
▁적금은	-9.51435
▁몰랐	-9.51438
랐	-9.51513
▁제출	-9.51605
규	-9.51611
할게요	-9.51667
겠네	-9.51694
▁잊지	-9.51711
▁간다	-9.51843
하지만	-9.51975
▁갔는데	-9.51979
▁측	-9.52018
▁싸우	-9.52023
해야지	-9.52041
▁합	-9.52077
▁거기서	-9.52079
▁했던	-9.52201
▁능력	-9.52402
냐면	-9.52471
▁했지	-9.525
▁기준	-9.52517
▁수영	-9.52526
▁효과가	-9.52541
▁나빠	-9.52592
봉	-9.52636
▁틀어	-9.52683
▁들으면	-9.52732
▁없다고	-9.52777
▁너랑	-9.52823
▁어쩔	-9.52843
손	-9.5287
▁유지	-9.52989
▁계세요	-9.53034
▁광고	-9.53038
▁대출이	-9.53096
이란	-9.53111
한데	-9.53144
▁장소	-9.53154
▁실제로	-9.53161
▁신문	-9.53203
▁썼	-9.53252
시간	-9.53274
▁반드시	-9.53289
드릴	-9.53324
금리	-9.53413
분들	-9.53417
▁찍어	-9.53422
▁것들이	-9.53431
▁알았	-9.53456
▁더운	-9.5346
셔서	-9.53491
▁들려	-9.53545
▁즐기	-9.53567
었지	-9.5359
▁날아	-9.53648
▁예쁘	-9.53677
을까요	-9.53713
▁순간	-9.53726
▁거래	-9.53797
▁이야기했어	-9.53807
잡	-9.53819
메	-9.53839
▁현실	-9.53971
▁부정적인	-9.53973
됐어	-9.53979
▁칼	-9.53992
▁가르쳐	-9.54027
▁추가	-9.54055
주면	-9.5409
▁거니까	-9.5411
신가요	-9.54147
▁생각나네요	-9.54204
▁귀찮	-9.54246
▁가족들과	-9.54342
귀	-9.54421
▁덜	-9.54457
▁식으로	-9.54513
침	-9.54598
▁중심	-9.54624
▁항	-9.5463
▁만날	-9.54807
▁비교	-9.54809
▁판	-9.54834
▁그동안	-9.54893
▁건강검진은	-9.55071
▁아닙니다	-9.55077
▁온난화를	-9.55101
▁해주세요	-9.55167
육	-9.5537
▁드세요	-9.55379
익	-9.55398
▁시키	-9.55421
▁예전	-9.55493
▁장르	-9.55534
▁발전	-9.55547
객	-9.55601
▁선풍기	-9.5568
▁해봐	-9.55688
십니다	-9.55803
▁선생님께서	-9.55807
▁자유	-9.55849
▁내년에	-9.55875
▁길이	-9.56055
돈	-9.56149
▁휴	-9.56191
▁도서관	-9.56194
▁마트	-9.56233
▁아저씨	-9.5624
▁빠지	-9.56337
십니까	-9.5638
▁보면서	-9.56471
▁격	-9.56473
한다는	-9.56489
▁언제까지	-9.56519
▁마치	-9.56542
▁일정	-9.56634
▁공원	-9.56664
▁뉴욕	-9.56756
▁허리	-9.56813
▁죄송합니다	-9.56851
줘서	-9.56857
▁넣고	-9.56898
▁비용	-9.56924
▁사람의	-9.56977
혈	-9.57086
▁폐	-9.5709
▁폭염으로	-9.57108
쟁	-9.57156
▁것들을	-9.57163
▁검진	-9.57189
▁걱정이야	-9.57249
▁받았어	-9.57284
▁시기	-9.57302
훈	-9.57322
▁긴	-9.57364
▁골	-9.5738
▁여기까지	-9.57425
▁상대	-9.57466
▁건강한	-9.57493
하시고	-9.57501
▁잠이	-9.57518
▁되었	-9.57527
▁구조	-9.57543
덕	-9.57579
▁꼬	-9.57644
시키	-9.57671
▁귀찮아	-9.57754
▁사러	-9.57763
▁신발	-9.57767
▁회사에서	-9.5777
▁있지만	-9.57928
율	-9.58
▁대출은	-9.58006
장에	-9.58026
▁분명히	-9.58114
▁과거	-9.5812
▁재밌어	-9.58126
▁사람도	-9.58151
숙	-9.5822
▁기회	-9.58236
▁치료	-9.5837
합시다	-9.58375
보자	-9.58376
▁있었던	-9.58379
▁쉬운	-9.58391
▁온라인	-9.58419
▁친구들이랑	-9.58514
▁슬	-9.58538
들과	-9.58652
▁날씨에	-9.58669
▁실수	-9.58812
▁있대	-9.58838
▁많다	-9.58849
▁받았	-9.58851
려고요	-9.58945
▁있다면	-9.58968
▁호텔	-9.59047
낼	-9.59123
▁없으면	-9.59123
▁느낌이	-9.5917
▁고려	-9.59179
하며	-9.59184
▁계약	-9.59193
▁쇼핑	-9.59282
▁졸	-9.59288
▁책상	-9.59453
▁되죠	-9.59461
▁목표	-9.59482
▁대표	-9.59502
▁놓고	-9.59523
황	-9.59599
하시나요	-9.59619
춘	-9.59619
▁헤어	-9.59622
되었습니다	-9.59664
▁좋다고	-9.59737
▁태풍에	-9.59742
▁받은	-9.59862
▁택배	-9.59863
▁나누	-9.60041
빙	-9.60056
▁이야기했어요	-9.60094
▁머	-9.60169
▁입장	-9.60242
▁두고	-9.60269
▁되니까	-9.60279
▁쓰지	-9.60294
▁현대	-9.60336
▁색	-9.60336
▁제목	-9.60407
▁됐어요	-9.60485
보려고	-9.60489
▁아름다운	-9.60495
▁테	-9.60503
▁일반	-9.6052
▁녹음	-9.60525
▁계신	-9.60571
▁알지	-9.60585
▁집안	-9.60734
▁얘기해	-9.60752
▁평생	-9.60804
▁억	-9.60828
▁형태	-9.60864
▁생각해요	-9.60878
길래	-9.60904
▁앉아	-9.60943
▁날씨는	-9.60953
▁습관	-9.6097
▁지방	-9.6103
▁김치	-9.61157
▁욕	-9.61326
▁기사	-9.61328
장님	-9.61399
▁월급	-9.61469
봅시다	-9.61477
▁참여	-9.61508
▁일주일	-9.61528
▁인상	-9.61535
여행	-9.61562
▁쪽에	-9.61653
▁나눠	-9.61675
▁관광지는	-9.61693
▁비싼	-9.61713
▁인한	-9.61769
▁초등학교	-9.61773
▁바닥	-9.61876
▁골라	-9.61894
져요	-9.61952
▁돌려	-9.61964
▁이상한	-9.61971
▁후회	-9.61974
이래	-9.61988
▁주택	-9.62012
▁심해지	-9.62026
▁태도	-9.62052
▁정도로	-9.62089
"	-9.62114
▁연기	-9.62201
▁들면	-9.62297
▁이번엔	-9.62322
▁가격이	-9.62359
▁물어봐	-9.62447
▁멀리	-9.62526
생활	-9.6258
▁화가	-9.62629
▁빨	-9.62674
버렸	-9.62685
끈	-9.62717
▁배경	-9.62718
▁인정	-9.6272
▁아들	-9.62737
▁하네요	-9.6276
였어요	-9.62771
▁충분히	-9.62796
▁여자친구	-9.62817
봤는데	-9.62835
▁해보	-9.62854
▁쉬고	-9.62873
▁손을	-9.62894
▁책임	-9.62909
▁맞지	-9.62945
▁생각나	-9.62956
새	-9.62982
▁얘기했어요	-9.63
▁뜨	-9.63014
▁그날	-9.63033
왕	-9.63142
▁올려	-9.63249
▁괜찮아요	-9.63322
▁볼게요	-9.63328
혜	-9.63331
▁설명해	-9.63339
▁기술	-9.63346
몽	-9.63419
▁동생이	-9.63428
▁멀	-9.63448
린다	-9.63475
▁가까운	-9.6352
▁자산관리에	-9.63567
▁학기	-9.63685
▁집에만	-9.63821
▁계산	-9.63854
일까	-9.63865
▁씩	-9.63902
화를	-9.63917
▁매운	-9.6393
▁다니는	-9.63973
킨	-9.6399
▁제품	-9.64013
▁확인할	-9.64044
끼리	-9.64075
▁소비	-9.6409
렸어	-9.64124
▁굴	-9.64185
▁기업	-9.64195
▁살펴보	-9.64281
로운	-9.64284
▁단계	-9.64313
▁원인	-9.64363
례	-9.64376
▁있잖아요	-9.64443
랄	-9.64532
▁지금까지	-9.64553
▁미안	-9.64654
▁작년에	-9.64689
▁월요일	-9.64788
▁길을	-9.64986
▁씨는	-9.65061
▁습	-9.651
▁출발	-9.65138
▁먹어서	-9.65148
▁나이는	-9.6518
▁전기	-9.65217
식이	-9.65223
▁종류가	-9.65227
▁주인공	-9.65247
▁건강은	-9.65251
▁목적	-9.65283
▁눈물	-9.6529
▁바쁘	-9.65299
▁이따가	-9.65369
▁아래	-9.65419
▁조심하세요	-9.65548
▁찾	-9.65623
▁선배	-9.65627
▁관광	-9.65675
▁조건	-9.65768
▁구매	-9.65793
▁놀아	-9.65881
드렸	-9.65919
▁낫	-9.65949
▁저축	-9.66039
▁풀어	-9.66129
았어요	-9.66207
▁아이들이	-9.66286
▁멋있	-9.66296
▁누나	-9.66328
▁사회적	-9.6637
▁짜장면	-9.66431
▁모자	-9.66432
▁자세	-9.66463
제를	-9.66511
련	-9.66537
▁어려	-9.6655
▁선물을	-9.66564
▁어디야	-9.66601
▁예를	-9.66628
▁작업	-9.66686
▁희	-9.66706
▁이따	-9.66724
▁뻔	-9.66765
찰	-9.668
▁위해서는	-9.66848
▁외출	-9.66881
▁휴양지는	-9.66917
▁예뻐	-9.66923
▁끝났	-9.67033
▁갔어요	-9.6705
▁유럽	-9.67074
▁경찰	-9.67135
이었어	-9.67239
이었다	-9.67268
▁엄마는	-9.67269
▁기다리고	-9.67394
▁일이야	-9.67397
겠습니까	-9.67403
끄	-9.67411
▁축하	-9.67477
▁듯	-9.67491
▁힘들다	-9.6757
▁나쁘	-9.67592
▁생일인데	-9.67668
▁니은	-9.67712
▁여러분들	-9.67754
하다가	-9.67775
▁금요일	-9.67789
▁찾고	-9.6785
▁추석에	-9.67883
략	-9.67893
▁주시면	-9.67993
▁평가	-9.68055
▁본다	-9.68077
분이	-9.68082
▁덕분에	-9.68315
▁마무리	-9.68315
▁과학	-9.68349
▁궁	-9.68512
▁눈에	-9.68551
써	-9.68634
▁방학	-9.68715
▁확실히	-9.68738
▁낙	-9.68824
▁선생님께	-9.68845
▁선택지	-9.68907
▁여섯	-9.68919
착	-9.69002
▁그러고	-9.69062
▁축제를	-9.69139
▁없었어	-9.69159
▁따뜻한	-9.69163
▁상관없	-9.69216
▁마련	-9.69301
쾌	-9.69323
▁이젠	-9.69398
▁연예인	-9.6943
▁이루어	-9.69533
▁파악	-9.69571
▁종류	-9.69586
▁서비스	-9.6959
▁마실	-9.69598
빵	-9.69647
▁아내	-9.69712
▁질병이	-9.69748
▁최고의	-9.69753
▁되기	-9.69753
▁이쪽	-9.69766
▁지진에	-9.6977
▁하다	-9.69779
죽	-9.69786
▁요즘에는	-9.69804
▁곳에	-9.69857
▁지금부터	-9.70041
▁간식	-9.70064
▁밑에	-9.70254
▁갑니다	-9.70273
▁공기	-9.70338
▁심각한	-9.70342
▁면접	-9.70345
답	-9.70377
▁느낌	-9.70413
답니다	-9.70528
▁친구야	-9.7056
▁때까지	-9.70579
▁언어	-9.70585
▁느껴	-9.70602
▁"	-9.70726
▁씨가	-9.70741
▁보여주	-9.70782
▁운	-9.70803
▁왔습니다	-9.70815
있는	-9.70815
으신	-9.70882
▁어미	-9.70929
▁취업	-9.70978
▁규칙	-9.70991
▁저랑	-9.71035
▁아닌데	-9.71048
▁차이가	-9.71052
▁먹어도	-9.71054
▁사무실	-9.711
▁당시	-9.71245
▁프랑스	-9.71262
▁학생들	-9.71264
▁끌	-9.71265
▁재미있는	-9.71268
닐	-9.71368
▁등산	-9.71386
▁계란	-9.71435
▁보시면	-9.71631
▁저녁은	-9.71664
있어	-9.7208
▁젊은	-9.72191
▁유리	-9.72361
▁시작하	-9.72392
▁엄	-9.72395
▁얘기했어	-9.72403
힌	-9.72411
▁많았	-9.72483
▁작년	-9.72493
▁얼굴이	-9.72602
▁하던데	-9.72613
▁북	-9.72616
옷	-9.72771
▁장면	-9.72818
▁만난	-9.72841
▁석	-9.72843
▁패	-9.72925
▁알려주	-9.72935
▁익	-9.72946
겠네요	-9.72955
▁태풍으로	-9.73001
▁국민	-9.73018
▁청약통장	-9.73019
▁성적을	-9.73099
▁할게요	-9.7314
▁시원한	-9.7319
해져	-9.73233
▁즐겨	-9.7324
▁잠시	-9.73252
▁있는데요	-9.73259
해보자	-9.73264
▁중이에요	-9.73329
▁문을	-9.73374
랬	-9.73374
▁국내	-9.7339
▁되세요	-9.73427
▁온대	-9.73553
▁건강하게	-9.73561
식을	-9.73674
해봐	-9.73681
▁냄새	-9.73875
줬어	-9.73883
▁술을	-9.73958
▁귀엽	-9.73972
▁생각합니다	-9.74116
곳	-9.74177
▁많은데	-9.74261
▁문학	-9.74271
▁않았다	-9.74451
▁해당	-9.74451
▁좋게	-9.74468
▁옛날에	-9.74504
▁버려	-9.7454
▁알아야	-9.74542
▁마찬가지	-9.74636
▁놀고	-9.74707
▁축	-9.74733
▁아냐	-9.74734
▁당첨	-9.7474
▁피아노	-9.74749
▁하나만	-9.74787
▁차가	-9.74797
▁전쟁	-9.74857
▁말할	-9.74927
▁시절	-9.74963
▁관리를	-9.74973
▁알아보고	-9.74992
▁휴대폰	-9.75031
▁반복	-9.75054
뿐	-9.75111
▁즉	-9.75125
주시면	-9.75185
▁영상	-9.7522
▁좋고	-9.75257
▁편의점	-9.75258
▁당장	-9.7531
▁매년	-9.75382
▁냄새가	-9.75403
▁브	-9.75408
▁실패	-9.75503
▁자리에	-9.75505
▁완	-9.75518
▁활	-9.75518
▁짐	-9.75524
▁길에	-9.75557
▁문제는	-9.75576
하셨어요	-9.75653
▁둘이	-9.7566
▁아세요	-9.75696
▁냉	-9.75854
▁나왔어요	-9.759
▁언제부터	-9.75919
▁명절	-9.75931
스러워	-9.75939
▁분들	-9.75949
▁있던	-9.76087
▁업무	-9.76115
▁긴장	-9.76132
▁전공	-9.76181
한다면	-9.76281
▁색깔	-9.76283
에다가	-9.76305
▁그렇다면	-9.7634
▁갖다	-9.76453
팅	-9.76502
▁꿈이	-9.76504
▁긍정적인	-9.7655
척	-9.76564
▁과자	-9.7657
▁모습을	-9.76608
▁마라	-9.76649
▁원하는	-9.76665
▁일요일	-9.76755
혼	-9.76784
▁힘드	-9.76837
딩	-9.76912
▁극	-9.76949
▁서류	-9.76954
골	-9.76976
▁가득	-9.76982
▁얼	-9.76995
▁모르겠다	-9.77013
▁겨울에	-9.77056
▁했잖아	-9.77085
▁클	-9.7711
▁좋았어	-9.77175
▁싫다	-9.77181
▁않았어요	-9.77192
물을	-9.77194
▁가만히	-9.77202
▁벌어	-9.77215
▁안내	-9.7723
▁필요하	-9.77251
둔	-9.77258
▁무엇	-9.77276
▁미래	-9.77406
냐고	-9.77438
짝	-9.77457
▁어른	-9.77459
▁의견	-9.77464
▁글자	-9.77466
▁커피를	-9.77536
▁태풍은	-9.77553
▁위치	-9.77559
▁여유	-9.77559
▁자기가	-9.77575
▁청약은	-9.7758
▁대답	-9.77634
▁강아지는	-9.77636
▁모임	-9.77712
▁찾아보	-9.77733
▁똑같은	-9.7777
▁낮은	-9.77821
▁된다는	-9.77832
▁읽고	-9.77837
▁친한	-9.77871
▁부자	-9.77963
▁공부할	-9.77973
▁조용히	-9.78012
▁관광지가	-9.78043
하잖아	-9.78118
▁깜짝	-9.78128
커	-9.78227
▁있더라	-9.78233
▁찌	-9.78263
늘	-9.7837
▁집으로	-9.78374
▁알바	-9.7839
이고요	-9.78392
▁전세	-9.78426
뜨	-9.78483
▁유명해	-9.78518
▁주변에	-9.78627
▁등록	-9.78631
▁가정	-9.78649
▁처리	-9.78706
▁없을까	-9.78796
▁붙여	-9.78813
▁속이	-9.78869
▁이래	-9.78887
▁여성	-9.78892
쓰	-9.78972
▁생일을	-9.78979
▁과연	-9.78989
▁궁금하	-9.79012
▁빠	-9.79014
스럽	-9.79107
▁세계도시에	-9.79146
▁내년	-9.79147
놈	-9.79183
▁준비해	-9.79229
▁판단	-9.79245
▁활용	-9.79277
▁환경오염	-9.793
▁산업	-9.79359
▁맨	-9.79379
▁차를	-9.79397
시켜	-9.79564
▁심해	-9.79694
▁모양	-9.79708
▁피곤해	-9.79734
▁야구	-9.79801
▁남아	-9.79807
▁성적은	-9.79869
스러운	-9.79892
봐야	-9.79926
▁있냐	-9.80065
▁입어	-9.80087
▁즐거운	-9.80129
▁계시나요	-9.80149
▁피해를	-9.80155
듯	-9.80183
▁어떡하지	-9.80186
▁전문가	-9.80203
▁않을래	-9.80327
▁이유는	-9.80363
▁뭘까	-9.80408
▁그룹	-9.80498
▁관점	-9.80513
▁가을이	-9.80525
링	-9.80546
확	-9.80577
▁영화관	-9.80619
▁알아가	-9.80659
▁아빠가	-9.80839
▁않겠	-9.80983
▁만족	-9.80986
▁행사	-9.80998
▁정리해	-9.81049
▁성장	-9.81053
▁설거지	-9.81085
▁떨어졌	-9.81086
▁남자가	-9.81099
▁전문	-9.81196
▁무엇인가요	-9.81222
▁몰라요	-9.81309
▁것들	-9.81331
▁편하게	-9.81347
▁가진	-9.81405
▁본인	-9.81411
▁맘	-9.81463
▁모기	-9.81464
▁걸릴	-9.81521
▁쳐	-9.81543
력을	-9.81573
▁이러한	-9.8166
압	-9.81686
▁많지	-9.81719
▁보인다	-9.81746
▁인구	-9.81748
▁털	-9.81905
▁속에서	-9.81957
▁경쟁	-9.81964
람	-9.81967
꾸	-9.81988
킹	-9.81989
▁됐다	-9.82119
▁설명을	-9.82121
▁비판	-9.82138
▁모으	-9.82143
▁선수	-9.82169
▁바이러스	-9.8217
▁갑	-9.82173
▁택시	-9.82175
▁있으신가요	-9.82183
▁뜻이	-9.82286
▁방탄소년단	-9.82474
▁예상	-9.82498
합니까	-9.82504
금을	-9.82571
▁헬스장	-9.82593
집니다	-9.82628
납	-9.82658
▁찾으	-9.8274
▁환자	-9.82786
▁피곤하	-9.82973
▁저렇게	-9.83024
▁요소	-9.83025
▁만들고	-9.83047
▁주장	-9.83122
▁추억	-9.83157
▁결과가	-9.83212
▁보도록	-9.83246
▁모음	-9.83273
▁나가는	-9.83453
▁늦었	-9.83514
▁중요해요	-9.83519
▁비밀	-9.83606
▁생산	-9.83644
▁주차	-9.83664
▁닫	-9.83754
▁소리를	-9.83766
휴	-9.83786
▁편안	-9.83793
▁뒷	-9.83831
려나	-9.83948
▁하네	-9.83967
▁먼지	-9.83979
▁으	-9.83992
었나	-9.83993
▁박스	-9.84019
▁오십	-9.84086
▁금리는	-9.84136
▁영향	-9.84198
▁커서	-9.84222
▁가세요	-9.84242
▁생겨	-9.84254
▁좋겠습니다	-9.84316
쳐서	-9.84366
▁환경보호	-9.84379
밀	-9.84409
주시겠어요	-9.84459
▁전화를	-9.84483
▁핵심	-9.84503
▁쓰면	-9.84632
▁발견	-9.84658
▁어떠	-9.84933
혔	-9.85001
▁좋아하지	-9.85155
▁그쪽	-9.85165
▁찾는	-9.85167
▁상당히	-9.85188
▁계절	-9.8519
▁좋아하세요	-9.85199
▁먹었어요	-9.85228
▁떨어져서	-9.85275
센터	-9.85287
▁있네요	-9.85287
▁열어	-9.85316
▁탄	-9.85333
▁남았	-9.85346
▁사람들을	-9.85404
▁한다는	-9.85445
▁식단	-9.85462
▁티	-9.85467
었죠	-9.85606
▁회사에	-9.85614
씨	-9.85621
▁쉬는	-9.85661
▁생각하지	-9.85679
해줘	-9.85734
▁해석	-9.85735
▁나오면	-9.85756
▁어려워요	-9.85758
▁고양이가	-9.85798
▁외식	-9.85814
▁우린	-9.8585
▁주면	-9.85869
컵	-9.85878
▁강아지를	-9.85903
춤	-9.8596
▁무시	-9.85965
▁일어나서	-9.85987
▁은행에	-9.86018
▁사진을	-9.86125
▁일어나면	-9.86127
님이	-9.86166
스터	-9.86283
달라고	-9.86283
▁말하면	-9.86314
▁있네	-9.86358
▁있도록	-9.86392
▁사랑하는	-9.86393
▁옷이	-9.8643
▁체크	-9.86459
▁콘서트	-9.8651
▁시작해	-9.86537
▁다녀왔	-9.8659
▁이불	-9.86608
기에는	-9.86814
▁반말	-9.86835
▁살았	-9.86865
▁요즘엔	-9.86918
▁기억나	-9.86957
▁상처	-9.86992
펴	-9.87003
▁오신	-9.87039
▁시골	-9.87059
색이	-9.87152
▁중학교	-9.87174
시나요	-9.87175
▁분명	-9.87191
▁애들이	-9.8724
▁음악에	-9.87248
되었	-9.87295
▁숙	-9.87307
▁있으니	-9.87311
▁칭찬	-9.87337
▁점이	-9.87344
▁가려면	-9.87358
▁변동	-9.87377
▁갔다가	-9.87397
당한	-9.87408
▁될지	-9.87412
▁놔	-9.87424
▁생각할	-9.8752
▁가는데	-9.8754
▁종이	-9.87546
묵	-9.87592
▁감자	-9.87599
▁섬	-9.8764
▁품	-9.87686
▁난리	-9.87729
▁그리워	-9.87739
▁수밖에	-9.87785
▁미역국	-9.87785
▁들어갈	-9.87786
▁특산물에	-9.87793
▁잤어	-9.87977
▁동아리	-9.87981
놔	-9.8802
값이	-9.88053
▁이해가	-9.88062
▁옆	-9.88097
▁켜	-9.88227
▁수능	-9.88237
굴	-9.88283
▁되겠죠	-9.88292
▁들리	-9.88359
▁가봤어	-9.8836
▁편해	-9.88368
▁걸리지	-9.88382
▁관광지로	-9.8844
▁만들었	-9.88446
하겠다	-9.88451
▁적금에	-9.88592
▁경제를	-9.88614
▁그러게	-9.88666
▁행복해	-9.88679
▁부모님과	-9.88715
▁경우에는	-9.8872
▁고통	-9.88738
▁어떠세요	-9.88745
▁높이	-9.88752
▁않니	-9.88817
▁이럴	-9.88884
▁적은	-9.88917
▁기차	-9.88936
▁상상	-9.88968
했는지	-9.89011
▁결혼식	-9.89026
시간에	-9.89031
념	-9.89088
▁겁	-9.89106
▁뿐이	-9.89234
▁명이	-9.89376
▁척	-9.89414
▁근무	-9.89546
▁정치	-9.89561
▁부동산에서	-9.89628
▁판매	-9.89689
▁기능	-9.89691
▁너희들	-9.89752
흔	-9.89787
▁위로	-9.89795
▁년에	-9.89797
▁분들이	-9.8984
▁싶었어	-9.8986
▁부모님이	-9.89987
▁정보를	-9.90074
▁장마	-9.90078
▁듣기	-9.90105
▁걸린	-9.90109
▁모르겠네	-9.90122
▁인기가	-9.90157
▁아메리카노	-9.90187
▁의미가	-9.90215
▁오랜	-9.90237
쿠	-9.90253
▁글쎄	-9.90254
퇴	-9.90271
▁작성	-9.90423
률	-9.90432
홀	-9.90451
▁봉	-9.90475
▁중요하	-9.90509
▁이때	-9.90525
▁걱정하지	-9.90534
▁삶을	-9.90586
취	-9.9064
▁만들기	-9.90642
혁	-9.90649
었으면	-9.9066
▁맞춰	-9.90676
▁말씀을	-9.90685
▁중간	-9.90688
▁근처	-9.90723
▁뛰	-9.90779
▁가슴	-9.90779
▁원리	-9.90808
▁깜빡	-9.90847
▁좋대	-9.90847
▁반려동물로	-9.90943
▁이천	-9.90959
▁꿈을	-9.90993
▁위기	-9.90999
▁하러	-9.91051
▁다니고	-9.91077
▁나와요	-9.9111
▁밖에서	-9.91128
▁가족들이랑	-9.91147
▁이것도	-9.91224
왔어	-9.91232
▁아이스	-9.91254
▁알아보려고	-9.9128
▁성격이	-9.91317
▁검	-9.91364
▁줄래	-9.91364
▁하셨어요	-9.91406
▁날짜	-9.9143
하던	-9.91467
▁읽는	-9.91511
▁자신이	-9.91512
▁생명	-9.91544
▁함부로	-9.91578
▁똑같	-9.91627
▁하시는	-9.91643
▁슬퍼	-9.91716
겠지만	-9.91741
▁지역의	-9.91774
▁생일날	-9.91786
▁모습이	-9.91806
▁도와줄	-9.91828
렁	-9.91844
▁도전	-9.91917
▁오니까	-9.92112
▁그녀의	-9.92132
▁한강	-9.92246
▁생겼어	-9.92268
▁다행이	-9.92357
▁되나	-9.92376
▁잠깐만	-9.92381
▁수술	-9.92383
밭	-9.92447
▁주셔서	-9.92461
시킬	-9.92481
▁만나는	-9.92544
▁받아서	-9.92566
▁관해서	-9.92636
주실	-9.92659
▁포함	-9.92758
드리고	-9.92845
▁가능하	-9.92891
▁몰랐어	-9.92944
▁아쉽	-9.92954
▁공부하고	-9.92968
▁건강검진받으러	-9.92987
▁퍼	-9.93008
으셨	-9.93051
▁적용	-9.93083
▁속에	-9.93096
▁빛	-9.93157
▁혼자서	-9.93181
하나요	-9.93192
▁머리를	-9.93371
▁결국은	-9.93381
▁가져가	-9.93418
▁반찬	-9.93492
▁누군가	-9.93529
▁바빠서	-9.9353
▁놀라	-9.93604
▁클래식	-9.93665
▁착	-9.93714
짜	-9.93796
▁줄게	-9.93824
▁찾았	-9.93838
▁경우가	-9.93875
▁전통	-9.9388
탈	-9.93972
▁방향	-9.94027
▁넓	-9.9412
몬	-9.94142
▁있겠죠	-9.94167
▁검색해	-9.94204
▁깨끗이	-9.94279
▁아닐까	-9.94286
▁누워	-9.94287
▁쌀	-9.94287
▁많습니다	-9.94308
▁수업을	-9.94326
▁나가지	-9.94343
버려	-9.94372
으러	-9.94463
▁지켜야	-9.94474
▁사귀	-9.94613
삭	-9.94622
▁표시	-9.94652
▁하다가	-9.94689
▁헤	-9.94746
쌍	-9.9476
▁행복한	-9.94788
▁이동	-9.94804
▁가족과	-9.94804
▁고르	-9.9481
▁그것도	-9.94814
▁받으면	-9.94829
▁학습	-9.94866
▁군대	-9.94874
▁읽기	-9.94897
듯이	-9.94948
▁퍼센트	-9.94966
▁가능한	-9.95004
▁순서	-9.95026
▁데리고	-9.95051
▁지역에	-9.95055
우면	-9.95077
▁담당	-9.95084
▁얼음	-9.95089
▁좋아하는데	-9.95124
▁성적에	-9.95138
▁여보	-9.9514
▁구입	-9.95185
▁무척	-9.95304
▁들었는데	-9.95359
▁대단하	-9.95361
▁알게	-9.95372
▁높임	-9.95381
▁비슷한	-9.9545
▁되겠다	-9.95457
암	-9.95601
▁금리를	-9.95631
▁맡기	-9.95643
▁꺼내	-9.95648
▁목소리	-9.95843
▁최고야	-9.95874
충	-9.9588
▁영양제가	-9.95912
▁마지막으로	-9.95949
다며	-9.95965
▁시원하	-9.95975
▁정서	-9.95976
잔	-9.96001
▁직원	-9.96012
▁올게	-9.9603
▁힘들었어	-9.96068
▁끓여	-9.96075
▁좋네요	-9.96075
▁찾을	-9.96144
▁보네요	-9.96182
▁어르신들	-9.96223
핑	-9.96284
▁이모	-9.9632
줄까	-9.96354
▁저한테	-9.96376
▁심각하	-9.96442
▁그렇구나	-9.96448
▁닦	-9.96456
▁분리수거	-9.96635
▁차라리	-9.9664
▁힘을	-9.96658
클	-9.96674
▁들어와	-9.96695
▁섭취	-9.96705
▁못했어	-9.96725
▁서술	-9.96746
증이	-9.96834
량이	-9.96889
▁불안	-9.96991
▁어디에서	-9.97088
꾼	-9.97127
감을	-9.97191
▁배고파	-9.97198
으려면	-9.97241
▁남은	-9.97248
▁끝날	-9.97254
▁질병을	-9.97264
▁보이지	-9.97277
뚝	-9.97338
▁흥	-9.97352
보면	-9.97423
률이	-9.97429
▁어렵지	-9.97436
▁정도는	-9.97511
할까요	-9.97538
▁노력해	-9.97559
▁조심	-9.97581
이었어요	-9.97661
▁일곱	-9.97742
▁어쨌든	-9.97763
▁팬	-9.97793
▁끝이	-9.97854
▁점심은	-9.97883
맥	-9.97898
▁무료	-9.97975
▁시청	-9.97998
▁심하게	-9.98014
▁노트북	-9.98047
▁퇴	-9.98082
▁스타일	-9.98118
징	-9.98128
▁거고요	-9.98158
틀	-9.98174
▁상자	-9.98251
▁대출금	-9.9831
▁도망	-9.98334
▁그러다	-9.98361
▁의미를	-9.98414
▁지각	-9.98444
▁가족들	-9.98446
▁말이에요	-9.98452
▁없잖아	-9.98461
▁공부해	-9.98555
드립니다	-9.98564
▁줘야	-9.98569
▁보험료	-9.98579
▁데이트	-9.98626
▁정답	-9.98628
▁관심을	-9.98632
▁어떡하	-9.98641
나무	-9.98719
▁왔으면	-9.98726
▁회사는	-9.98794
▁알아서	-9.989
▁근거	-9.98975
얼	-9.99019
▁지식	-9.99047
▁넘어가	-9.99081
일까요	-9.99101
김	-9.99137
▁알겠어	-9.9917
▁했죠	-9.99191
▁한글	-9.99197
▁이름을	-9.99198
▁질병은	-9.99259
▁읽을	-9.99263
▁좋아합니다	-9.99264
보단	-9.99288
▁건강해	-9.99415
비를	-9.99434
▁입을	-9.99448
▁맡겨	-9.99455
▁끄	-9.99492
▁심한	-9.99496
짓	-9.99505
▁곡	-9.99531
▁싶으면	-9.99553
▁오후에	-9.99575
▁일어나는	-9.99611
▁여름에는	-9.99615
▁볼까	-9.99634
▁안정	-9.99708
롱	-9.99768
▁재밌게	-9.9983
던데요	-9.99858
▁없네요	-9.99884
▁찬	-9.99948
납니다	-10.0001
떡	-10.0002
▁봅니다	-10.0006
▁고민이	-10.0009
택	-10.0011
▁근육	-10.0015
▁최근	-10.0017
▁v	-10.0023
▁아이돌에	-10.0024
란다	-10.0025
▁대청소	-10.0028
자마자	-10.0032
▁되었다	-10.0033
▁했으면	-10.0035
▁오염	-10.0037
▁독서	-10.0041
▁생각해서	-10.0042
▁왜냐하면	-10.0042
▁표현을	-10.0046
▁놀이	-10.0052
▁특별히	-10.0053
▁끊어	-10.0057
▁콩	-10.0057
하셨나요	-10.0058
▁등장	-10.0064
▁통화	-10.0067
하십니까	-10.0075
▁어린이	-10.0078
▁이자가	-10.0085
▁이쁘	-10.0089
칭	-10.0093
▁일자리	-10.0095
▁휴양지가	-10.0097
▁요리를	-10.01
참	-10.0104
먼	-10.0104
▁충분	-10.0105
▁전달	-10.0108
▁배우고	-10.0114
▁진심으로	-10.0115
▁존경	-10.0115
▁길어	-10.0119
▁떨어져	-10.012
칙	-10.0125
▁시작했어	-10.0137
▁자체	-10.0137
▁하와이	-10.0138
▁노력을	-10.0147
▁벽	-10.0149
▁답답해	-10.0152
볼게요	-10.0152
▁슬슬	-10.0153
허	-10.0158
▁하는데요	-10.0159
▁오후	-10.0166
▁괜히	-10.0167
▁보낼	-10.0174
▁귀여워	-10.0174
▁단순	-10.0175
▁방송이	-10.0178
▁포장	-10.0179
▁싫어요	-10.0188
▁했으니까	-10.0189
▁누구나	-10.0189
▁여전히	-10.0196
▁부모	-10.0202
▁봤던	-10.0202
▁배웠	-10.0205
▁갈게	-10.0208
겁	-10.021
▁체육	-10.0214
겠다고	-10.0215
▁셋	-10.0216
▁필요해요	-10.0218
▁샀는데	-10.0226
▁어차피	-10.0226
맞	-10.0229
▁시간은	-10.0238
▁참석	-10.0243
▁드셔	-10.0247
턴	-10.0248
옥	-10.0249
▁소화	-10.025
▁알려줄	-10.025
▁치즈	-10.0259
▁어려울	-10.0259
운동	-10.027
▁들수록	-10.0274
▁않도록	-10.0278
싹	-10.0278
▁떨어졌어	-10.0278
▁아예	-10.0279
▁우주	-10.028
▁배운	-10.0285
▁먹었는데	-10.0285
▁전국	-10.0287
▁매력	-10.0294
▁생일은	-10.0301
▁합격	-10.0303
▁쉬어	-10.0304
▁정해	-10.0304
▁외국인	-10.0305
하셔	-10.031
됐다	-10.0311
▁추천해주세요	-10.0312
▁당첨되	-10.0315
▁생각하세요	-10.0316
▁들어간	-10.0317
▁이것은	-10.0319
▁걸렸	-10.0322
▁의자	-10.0323
여서	-10.0328
▁돌아오	-10.0329
누	-10.0343
▁재료	-10.0344
▁증가	-10.0352
▁깨끗하게	-10.0362
▁죄	-10.0362
▁감동	-10.0366
▁얘기하는	-10.0368
율이	-10.037
▁만약에	-10.0371
▁반려동물은	-10.0383
빈	-10.0385
▁끝까지	-10.0386
▁여름이	-10.0399
▁최대한	-10.0399
▁멋지	-10.04
▁괴	-10.0405
▁준비를	-10.0405
▁어딜	-10.0411
▁삶의	-10.0414
▁임금	-10.0418
▁주시겠어요	-10.0419
좌	-10.0427
▁카메라	-10.0428
▁파스타	-10.0428
▁제공	-10.0431
▁중요합니다	-10.0436
▁캐	-10.0443
찜	-10.0443
▁무엇인지	-10.0447
▁좋아하니	-10.045
험	-10.0451
▁목이	-10.0456
▁침대	-10.0459
단다	-10.0466
▁보여요	-10.0476
▁읽었	-10.0481
▁더운데	-10.0487
▁지식이	-10.0489
▁지진으로	-10.049
▁과목	-10.0492
싱	-10.0496
▁그랬어	-10.051
▁만났어	-10.0512
흰	-10.0512
▁맛있다	-10.0514
▁곰	-10.0516
▁움직이	-10.0527
▁떡	-10.0528
▁방송은	-10.0531
▁빠르게	-10.0531
▁연주	-10.0534
▁드러나	-10.0535
▁테니	-10.0541
▁낮아서	-10.0548
▁같네요	-10.055
놀이	-10.0551
▁지내고	-10.0556
▁번호	-10.0559
▁굳이	-10.056
▁대구	-10.0568
▁늘어	-10.0569
방송	-10.0572
▁표정	-10.0573
벼	-10.0573
▁공부하는	-10.0576
▁여러분들이	-10.0576
▁중요하지	-10.059
▁심각해	-10.0596
▁부탁드립니다	-10.0597
▁온난화는	-10.0599
▁상황을	-10.0601
▁태어나	-10.0604
▁알았는데	-10.0605
▁상대방	-10.0617
▁더욱	-10.062
▁관련해서는	-10.0623
▁만들었어	-10.063
▁챙겨야	-10.0634
▁고양이를	-10.0639
주신	-10.0651
줬으면	-10.0652
시네요	-10.0654
▁많다고	-10.0663
▁걱정이에요	-10.0673
▁저녁식사	-10.0673
간다	-10.0678
▁말라고	-10.0683
▁쓰레기를	-10.069
▁속도	-10.0696
▁음운	-10.0699
▁모이	-10.0701
시겠어요	-10.0703
▁오징어	-10.0704
▁맛있어요	-10.0711
▁도움을	-10.0711
▁함	-10.0711
잇	-10.0712
▁실제	-10.0717
▁있거든요	-10.0719
▁인식	-10.0729
▁실력	-10.0731
▁필요합니다	-10.0732
▁건너	-10.0735
▁보시	-10.0742
들한테	-10.0749
▁나름	-10.0758
▁한잔	-10.0765
▁달려	-10.0766
C	-10.0767
▁사십	-10.0769
▁배울	-10.0772
▁방법은	-10.0781
드릴까요	-10.0785
▁어플	-10.0791
▁교재	-10.0803
▁선생님한테	-10.0804
▁때에는	-10.0809
▁매번	-10.0811
▁표기	-10.0811
였습니다	-10.0812
▁노인	-10.0823
▁저쪽	-10.0825
▁쉽	-10.0827
▁잘못된	-10.0828
였는데	-10.0833
튼	-10.0836
궁	-10.0846
하다는	-10.0848
▁가족들이	-10.0851
▁가실래요	-10.0854
▁바빠	-10.0855
▁세상에서	-10.0858
▁토요일	-10.0867
▁바지	-10.0868
▁보이는데	-10.0875
하거나	-10.0877
▁일어날	-10.0877
▁추운	-10.0885
▁죄송하지만	-10.0885
▁읽으	-10.0886
▁지갑	-10.0892
▁약을	-10.0893
▁오랫동안	-10.0893
▁공무원	-10.0893
▁뭐냐	-10.0893
볼래	-10.0894
▁바르	-10.0894
▁까먹	-10.0897
▁예술	-10.0898
▁철수	-10.0903
▁노동	-10.0905
닌	-10.0911
찌	-10.0914
▁딱히	-10.0924
▁있대요	-10.0924
맹	-10.0924
욕	-10.0927
받았어	-10.0929
▁구분	-10.0929
▁요거	-10.0939
▁기운	-10.0945
▁그러나	-10.0954
흘	-10.0955
스크	-10.0956
했었어	-10.0957
▁쟤	-10.0957
민이	-10.0958
▁모르고	-10.0962
▁어머	-10.0966
▁어젯밤에	-10.0968
▁말씀해	-10.0972
▁하더라고요	-10.0978
▁역할을	-10.098
▁요렇게	-10.098
▁좋아해서	-10.0982
▁출연	-10.0984
▁부장님	-10.0993
▁많더라	-10.0996
겠는데	-10.1
▁중입니다	-10.1003
▁아파요	-10.1006
▁강조	-10.1015
▁그녀가	-10.1017
짐	-10.102
▁나오고	-10.1021
▁먹어야지	-10.1026
▁출제	-10.103
▁먹으	-10.1031
▁운영	-10.1033
춰	-10.1033
▁각자	-10.104
▁층	-10.1043
▁흔들	-10.1043
▁햄버거	-10.1044
▁이름은	-10.1049
▁이제부터	-10.1059
▁간단하게	-10.1061
▁드릴까요	-10.1061
▁생일에는	-10.1066
▁일어난	-10.1077
▁생각이야	-10.1083
▁방송국	-10.1092
▁완성	-10.1093
▁기억에	-10.1097
▁당분간	-10.1101
▁많고	-10.1107
▁심해서	-10.1108
▁금지	-10.1111
▁만나고	-10.1115
드린	-10.1125
▁힘들지	-10.1131
▁지진은	-10.1131
▁없다는	-10.1134
▁된대	-10.1139
▁걸리면	-10.1146
▁숫자	-10.115
▁음식에	-10.1156
▁아이돌을	-10.1158
▁고쳐	-10.116
▁확진자가	-10.1165
▁같은데요	-10.1166
▁속상해	-10.1167
▁날씨도	-10.1167
▁기계	-10.1169
▁요구	-10.117
대학교	-10.1171
▁강남	-10.1175
▁가려	-10.1177
▁세대	-10.118
▁연락이	-10.1181
▁올라서	-10.1183
▁감상	-10.1183
둘	-10.1185
선생님	-10.1186
▁장사	-10.1197
▁문단	-10.1201
▁그러는데	-10.1204
▁학생들이	-10.1208
▁편이에요	-10.1209
▁자체가	-10.1209
▁없나	-10.1215
▁한다면	-10.1218
▁예정	-10.1219
▁세계도시를	-10.1219
▁되겠습니다	-10.1219
▁이해할	-10.1229
▁어머님	-10.123
▁여름은	-10.1233
▁청소기	-10.124
▁사람들의	-10.124
머리	-10.1242
▁내내	-10.1245
벨	-10.1248
▁타는	-10.1252
▁빠르	-10.1257
▁대단한	-10.1257
▁한참	-10.1261
▁농구	-10.1262
▁야식	-10.1266
▁꿀	-10.1267
▁하려면	-10.1271
▁재미없	-10.1272
▁고객님	-10.1284
▁부럽	-10.1288
▁올여름	-10.1289
▁조선	-10.1291
▁문제에	-10.1296
▁모두가	-10.1296
▁쓰기	-10.1298
▁기억해	-10.13
▁부분을	-10.1301
▁충전	-10.1304
▁프로젝트	-10.1305
▁혹은	-10.1308
▁바라보	-10.1312
▁리을	-10.1313
▁촬영	-10.1314
▁자격증	-10.1314
▁감기에	-10.1324
▁해야겠어	-10.1325
▁채소	-10.1326
▁곳으로	-10.1328
▁에어컨을	-10.1331
▁아닌가	-10.1337
▁돌아다니	-10.1346
엉	-10.1347
▁독감	-10.1352
▁탐	-10.1355
▁공항	-10.1358
▁어땠어	-10.1363
섯	-10.1366
▁용돈	-10.1367
▁올까	-10.1368
뿐만	-10.137
눈	-10.1371
▁개나	-10.1372
▁사이즈	-10.1373
▁인해서	-10.1375
역에서	-10.1384
뚱	-10.1388
▁인형	-10.1393
주셔서	-10.1394
▁옥	-10.1395
▁좋으면	-10.1397
▁매달	-10.1407
▁나온다	-10.1408
▁배우는	-10.1412
▁키가	-10.1412
▁흥미	-10.1418
▁벌레	-10.1424
▁덕	-10.1425
▁아버님	-10.143
▁맞추	-10.1433
▁기록	-10.1434
▁선선	-10.1436
▁받았어요	-10.1438
▁언젠가	-10.1438
▁전화해	-10.1448
▁않나요	-10.1455
▁성적표	-10.147
▁예금	-10.1472
▁소중한	-10.1481
▁딸기	-10.1497
▁초콜릿	-10.1497
▁우리에게	-10.1498
▁덥다	-10.15
▁화장	-10.1504
▁말해줘	-10.1504
▁자세히	-10.1504
▁나가고	-10.1508
▁경주	-10.1515
▁자식	-10.1516
▁신고	-10.1517
▁형식	-10.1522
▁낫지	-10.1526
▁어울리는	-10.1528
▁예쁘다	-10.1531
▁제주도에	-10.1534
▁수준	-10.1534
▁볼까요	-10.1536
▁김밥	-10.1537
줘요	-10.1539
▁백화점	-10.1539
▁치과	-10.1541
▁그렇지만	-10.1543
▁회복	-10.1547
냥	-10.1549
버릴	-10.1551
▁그러지	-10.1552
▁죽어	-10.1553
▁달리	-10.1555
▁전해	-10.1555
딱	-10.1556
▁떼	-10.156
▁하잖아	-10.1562
▁밤새	-10.1568
▁나가기	-10.1578
▁짝	-10.1582
▁엄마랑	-10.1585
▁어깨	-10.1588
▁쉴	-10.1599
▁살아가	-10.1606
져야	-10.1613
▁장난감	-10.1613
▁걸려서	-10.1622
▁가봤	-10.163
▁어찌	-10.1633
촉	-10.1633
▁어렵다	-10.1636
▁착용	-10.1637
닝	-10.1641
볼게	-10.1643
▁나왔다	-10.1644
▁극복	-10.1645
▁힘내	-10.1649
▁넣었	-10.165
▁병원에서	-10.1662
▁내용은	-10.1676
▁시작하는	-10.1678
▁줄여	-10.1679
▁마시는	-10.1682
▁먹으려고	-10.1685
▁고객	-10.1685
▁갔던	-10.1693
▁빼고	-10.1698
▁믿어	-10.1701
▁바닷가	-10.1701
뇌	-10.171
▁곳에서	-10.1712
▁돌리	-10.1715
삐	-10.1719
▁드시고	-10.172
패	-10.172
튀	-10.1727
▁먹어봐	-10.1728
▁온난화의	-10.1732
▁오래된	-10.1736
▁희망	-10.1739
▁실망	-10.1741
▁다녀왔어	-10.1742
▁눈을	-10.1743
▁간다고	-10.1746
▁친구들은	-10.1752
▁일부	-10.1755
▁생겨서	-10.1756
▁없으니까	-10.176
헌	-10.1762
▁플라스틱	-10.1779
▁김치찌개	-10.1788
▁체험	-10.179
▁되잖아	-10.18
▁없죠	-10.1801
▁사려고	-10.1803
듬	-10.1805
▁오시	-10.1806
▁기역	-10.1807
▁지어	-10.1811
쇼	-10.1814
멜	-10.1814
▁죽을	-10.1816
었고	-10.1816
▁실천	-10.1823
▁모여	-10.1826
▁바뀌었	-10.1827
웨	-10.1831
▁예쁘게	-10.1835
▁도시락	-10.1836
▁계획이	-10.1842
▁가볼	-10.1842
▁몸을	-10.1843
▁드릴게요	-10.185
풀	-10.1859
▁매일매일	-10.1866
▁플	-10.1866
▁소원	-10.1874
▁완벽	-10.1875
하냐	-10.1878
▁동네에	-10.1879
▁부분은	-10.1889
▁오는데	-10.1891
▁딴	-10.1891
▁무대	-10.1895
▁멍	-10.1907
▁토끼	-10.1911
▁시작한	-10.1912
콘	-10.1927
식품	-10.1928
▁지난번에	-10.1936
댁	-10.1936
▁그릇	-10.1937
▁곳을	-10.194
럭	-10.1954
▁모여서	-10.1954
▁구름	-10.1959
▁위험해	-10.1963
▁시작할	-10.1965
시장	-10.1966
▁걔가	-10.1967
▁대출에	-10.1978
▁미치	-10.198
▁샐러드	-10.1989
쇠	-10.1989
▁싶었는데	-10.199
▁낼	-10.1994
▁노래가	-10.1995
▁종합	-10.1995
▁현장	-10.1996
▁집고양이	-10.1998
▁약속을	-10.1998
▁써서	-10.1998
▁퇴근하고	-10.2003
▁적절한	-10.2007
▁싶다고	-10.2008
▁윤	-10.201
▁마시면	-10.2012
▁기숙사	-10.2016
▁응원	-10.2029
맨	-10.2036
▁이야기가	-10.2037
▁누구야	-10.2038
혹	-10.2039
▁분석	-10.204
▁좋았어요	-10.2056
▁시민	-10.2059
▁토요일에	-10.2063
▁계획을	-10.2068
▁삼겹살	-10.2069
▁요런	-10.2074
▁되고요	-10.2082
▁건조	-10.2087
▁런던	-10.2087
▁가봐야	-10.2093
▁덮	-10.2097
▁책은	-10.2102
▁라디오	-10.2105
▁베트남	-10.2105
똥	-10.2105
▁영국	-10.2105
▁됐는데	-10.2105
함을	-10.2106
▁기뻐	-10.2106
▁많았어	-10.2108
이라면	-10.212
였지	-10.2121
▁서울에	-10.2124
▁u	-10.2125
▁되니	-10.2127
▁상황에	-10.2127
▁염	-10.2128
▁저에게	-10.2131
▁여덟	-10.2132
▁나머지	-10.2132
권을	-10.2134
퍼	-10.2137
▁관해서는	-10.2149
▁필요하다	-10.2155
▁점심에	-10.2156
▁물건을	-10.2165
뚜	-10.2168
▁제안	-10.217
▁있었습니다	-10.219
▁못해서	-10.2191
으며	-10.2196
▁걔는	-10.2204
▁들어가서	-10.2204
▁백신	-10.2214
▁자산관리사	-10.2217
▁붙어	-10.2218
찬	-10.2222
▁봐봐	-10.2225
▁단원	-10.223
▁내려갈	-10.2231
▁훌륭한	-10.224
▁청년	-10.2249
▁그랬어요	-10.2253
▁생일이라	-10.2264
으셔	-10.2265
▁밖으로	-10.2267
▁뭐든지	-10.2267
▁이상하게	-10.2267
▁동생은	-10.2269
▁대회	-10.2273
폰	-10.2276
칸	-10.2276
▁갈까요	-10.2284
▁고구마	-10.2285
▁깊게	-10.2286
관리	-10.2289
▁궁금한	-10.2295
줍니다	-10.2295
▁없었다	-10.2297
▁휴지	-10.2298
▁키울	-10.2303
▁만화	-10.2311
▁대통령	-10.2313
▁콜라	-10.2315
▁둘러	-10.232
▁웃음	-10.2321
▁고마워요	-10.233
▁이것이	-10.2336
▁저런	-10.2336
끼	-10.2339
▁와요	-10.234
▁귀여운	-10.234
▁샤워	-10.234
▁단체	-10.234
밤	-10.2341
▁역할	-10.2349
▁고맙습니다	-10.2349
▁말하지	-10.2351
픈	-10.2354
그래	-10.2355
낭	-10.2358
▁주실	-10.236
▁소문	-10.2376
▁최소	-10.2379
▁봤을	-10.2386
▁국제	-10.2398
▁입장에서	-10.2402
▁귀천이	-10.2405
▁나보다	-10.242
▁할머니가	-10.2422
▁교통	-10.2429
해지는	-10.2432
렇	-10.2432
▁다행이야	-10.2435
빛	-10.2446
▁너무너무	-10.2451
▁부족	-10.2451
윤	-10.2456
놔야	-10.246
▁우울해	-10.2461
▁사례	-10.2464
▁사람에게	-10.2466
▁눈치	-10.2472
▁탈락	-10.2475
▁너에게	-10.2477
갑니다	-10.2481
▁어우	-10.2486
쑥	-10.2488
▁정상	-10.2488
▁그러는	-10.249
▁흘러	-10.2497
▁작아	-10.2505
▁고향에서	-10.2508
▁탓	-10.2509
▁쥐	-10.2516
▁걱정돼	-10.252
▁계단	-10.2524
▁쏟아	-10.2525
릅니다	-10.2526
▁검색	-10.2529
▁멀어	-10.2533
▁아홉	-10.254
깊	-10.2543
▁취향	-10.2546
▁먹었더니	-10.2546
▁각각	-10.2548
▁보냈	-10.255
▁개봉	-10.2551
▁수요일	-10.2551
▁대출받으	-10.2553
▁알겠습니다	-10.2553
▁기름	-10.2561
▁의심	-10.2564
▁있겠어	-10.2567
▁떨어진	-10.2572
▁차려	-10.258
덩	-10.2581
빗	-10.2581
▁더러워	-10.2581
준다	-10.2585
해보세요	-10.2593
▁관광지를	-10.2611
▁보조	-10.2612
▁없었어요	-10.2612
보도록	-10.2614
▁알았지	-10.2615
▁양반	-10.2635
▁특산물로	-10.2636
▁인터넷으로	-10.2638
엄	-10.2639
문화	-10.264
▁노래방	-10.2645
▁시끄러워	-10.2647
▁오늘따라	-10.2647
▁삼촌	-10.2649
▁갈수록	-10.2657
▁가르치	-10.2662
▁작품을	-10.2663
▁닦아	-10.2666
▁시까지	-10.2669
▁할래	-10.2671
▁경험이	-10.2674
그것은	-10.2689
▁있구나	-10.269
▁활동을	-10.2693
▁디자인	-10.2695
▁춘천	-10.2695
▁배려	-10.2697
▁예능	-10.2697
▁않습니까	-10.2704
▁폭염이라	-10.2711
▁냉장고	-10.2711
▁다루	-10.2717
▁부부	-10.2722
▁탁	-10.2729
해수욕장	-10.2733
버린	-10.2736
▁어떨까	-10.274
▁실례	-10.2743
팀	-10.2743
스럽게	-10.2745
▁살짝	-10.2747
▁생일파티	-10.2752
▁놓으	-10.2752
▁현금	-10.2753
렸어요	-10.2757
▁출장	-10.2759
따	-10.2762
▁살아야	-10.2764
▁취직	-10.2767
겠니	-10.2767
▁알레르기	-10.2771
깃	-10.2771
▁특별	-10.2771
▁보내고	-10.2777
▁보셨어요	-10.278
▁센	-10.2788
▁어떨까요	-10.2801
▁경우는	-10.2806
▁훈련	-10.2809
▁반응	-10.2813
▁알아요	-10.2814
겐	-10.2819
랜드	-10.2821
톡	-10.2827
▁정확히	-10.2828
▁짬뽕	-10.2828
룩	-10.2828
턱	-10.2828
▁이루	-10.2831
▁적응	-10.2833
학생	-10.2834
▁당신을	-10.2836
▁긍정적으로	-10.2854
하거든	-10.2855
▁다리가	-10.2855
t	-10.2857
▁그저	-10.2874
릿	-10.2877
▁사라지	-10.2878
▁들어왔	-10.2888
▁알아봐	-10.2897
▁실내	-10.2898
▁사람들도	-10.2898
▁빠른	-10.2898
▁사용하는	-10.2899
▁부르는	-10.29
▁똑같이	-10.29
▁싫어하는	-10.2901
▁행동을	-10.2903
시고요	-10.2904
A	-10.2906
▁운동하는	-10.2907
▁화장품	-10.2908
푸	-10.2908
▁되었어요	-10.2911
셔도	-10.2912
▁아버지가	-10.2917
▁영어를	-10.2917
▁나오지	-10.292
▁해줄	-10.2931
▁이것을	-10.2934
▁오른쪽	-10.2935
▁캠핑	-10.2944
▁새벽에	-10.2948
▁액션	-10.2954
▁목요일	-10.2954
▁점수	-10.2956
▁다녀올	-10.2958
▁있겠지	-10.296
▁적절하	-10.296
표를	-10.2961
▁재미	-10.2962
▁강원	-10.2969
▁재산	-10.2971
▁시계	-10.2981
텐	-10.3011
▁가봐	-10.3017
▁게임을	-10.3019
닥	-10.3026
▁대박	-10.3033
▁아이돌들은	-10.3033
▁추천해줘	-10.3035
▁솔	-10.3035
▁예정이야	-10.3036
▁미술	-10.3037
▁떠나고	-10.3047
▁접근	-10.3048
▁소재	-10.305
▁부러워	-10.3052
▁엄마한테	-10.3057
▁되어서	-10.3064
▁하냐	-10.307
립니다	-10.3073
베	-10.3078
준다고	-10.3079
웃	-10.3088
검	-10.3091
▁날이야	-10.3094
▁재미있게	-10.3094
▁조정	-10.3095
▁뭐냐면	-10.3095
▁소녀	-10.3096
▁불편하	-10.3098
▁보장	-10.3101
▁늘어나	-10.3104
으셨어요	-10.3106
▁태국	-10.311
▁정도면	-10.3123
▁아이들은	-10.3123
▁어울리	-10.3125
▁아프다	-10.3127
▁연세가	-10.3132
하려고요	-10.3136
▁독자	-10.3137
▁운동하고	-10.314
▁주체	-10.3153
▁찾아봐	-10.3154
▁걸까요	-10.3156
▁내일까지	-10.3156
다면서요	-10.3157
▁심리	-10.3164
콜	-10.3178
▁폭염주의보	-10.3181
▁지구온난화가	-10.3184
▁샀어요	-10.3184
었잖아	-10.3186
▁숲	-10.3188
▁가져다	-10.3188
▁농사	-10.319
▁자음	-10.3194
▁평화	-10.3196
▁특성	-10.3198
▁정리를	-10.3202
▁하나씩	-10.3203
▁휘	-10.3204
▁끝난	-10.3209
랍	-10.3209
▁만나자	-10.3212
▁없더라	-10.3226
▁기르	-10.3228
▁청소하는	-10.3232
▁은행에서	-10.3239
▁느껴지	-10.3243
▁나가야	-10.3244
▁연애	-10.3246
▁만약	-10.3247
▁공장	-10.325
▁이익	-10.3252
▁초코	-10.3259
느	-10.326
▁가사	-10.3262
▁뿌리	-10.3262
▁번씩	-10.3264
▁불편해	-10.3273
▁충격	-10.3277
▁죽겠어	-10.3279
▁있었으면	-10.328
▁똑똑	-10.3291
▁만나기로	-10.3302
싸	-10.3306
▁공사	-10.3319
▁모르겠	-10.3327
▁드러내	-10.3342
▁강한	-10.3349
▁다이어트할	-10.3353
▁설치	-10.3353
▁깔	-10.3355
웅	-10.336
▁새벽	-10.336
멸	-10.3361
▁조절	-10.3368
▁이백	-10.3376
▁되었어	-10.3377
▁슬프	-10.3378
쓸	-10.3383
▁않을까요	-10.3401
뼈	-10.3413
했었는데	-10.3418
▁반납	-10.342
▁아직까지	-10.3421
▁공유	-10.3422
▁죄송해요	-10.3433
볼까요	-10.3437
슈	-10.3443
▁야채	-10.3447
▁옆집	-10.3449
하나	-10.3458
▁수박	-10.3459
▁안경	-10.3464
▁가난	-10.3465
▁확진자	-10.3465
▁말해봐	-10.3468
▁예정입니다	-10.3469
▁맞게	-10.3471
▁평소	-10.3477
▁선배님	-10.3482
▁다행히	-10.3484
렌	-10.3494
▁정확하게	-10.3495
▁맛있었어	-10.3503
▁주제로	-10.3504
▁아침마다	-10.3508
▁않네	-10.3508
▁더위	-10.3509
▁재미있어	-10.3524
▁에너지	-10.3526
▁서른	-10.3533
▁잡고	-10.3538
주시고	-10.3548
▁가실	-10.355
▁쉬워	-10.3552
▁조심하	-10.3555
▁부모님께	-10.3555
틈	-10.3556
▁미루	-10.3563
하긴	-10.3563
▁휴가철	-10.3564
▁고민이야	-10.3564
▁주위	-10.3567
▁놀자	-10.3582
▁아시나요	-10.359
▁설마	-10.3595
▁경제학	-10.3596
▁부족해	-10.3597
▁존댓말	-10.3598
쩍	-10.3598
▁깔끔	-10.3598
▁피동	-10.3599
▁들어있	-10.3601
▁막혀	-10.3617
▁바꿀	-10.362
▁피우	-10.3627
▁축하드려요	-10.3629
▁들어보	-10.363
▁즐겁게	-10.3632
▁치워	-10.3633
▁식물	-10.3636
▁보겠습니다	-10.3642
널	-10.3644
앙	-10.3644
▁스물	-10.3644
▁물고기	-10.3645
폐	-10.3649
▁TV	-10.365
▁같더라	-10.365
▁아침부터	-10.3659
▁그렇다고	-10.3663
▁좁	-10.3668
▁거절	-10.3669
▁착한	-10.3669
▁부탁해	-10.3671
▁처음으로	-10.3677
▁꼬박꼬박	-10.3681
▁남겨	-10.3683
사님	-10.369
▁사투리	-10.3692
▁윤리	-10.3693
▁좋아져	-10.3694
▁얘기할	-10.3695
▁상승	-10.3698
▁지나간	-10.37
▁독립	-10.3706
떨	-10.3711
▁세탁기	-10.3711
▁직원들	-10.3718
▁아프면	-10.3718
▁야근	-10.372
▁녀석	-10.3724
▁세워	-10.3727
▁다가오	-10.3729
▁못했어요	-10.3731
▁잃어버렸	-10.3734
▁의료	-10.3739
▁잠들	-10.3739
펜	-10.3744
▁비슷하	-10.3745
▁행위	-10.3746
▁깊은	-10.3747
▁물어	-10.3755
▁보냈어	-10.3756
▁친구한테	-10.3756
▁다르게	-10.376
럼	-10.3771
▁요금	-10.3772
▁받으러	-10.3776
▁그만두	-10.378
하셔서	-10.3784
▁흐름	-10.3787
▁전개	-10.3788
▁설득	-10.3789
▁몰라서	-10.3793
엽	-10.3796
묘	-10.3797
▁낚시	-10.3797
하였다	-10.3797
▁강릉	-10.3798
질까	-10.3799
▁일부러	-10.3806
▁힘들었	-10.3808
▁해보고	-10.3829
▁왼쪽	-10.384
▁건강해지	-10.3842
▁닫아	-10.3843
▁시끄럽	-10.385
▁선생님과	-10.3851
▁다양하	-10.3851
▁영양	-10.3851
▁절대로	-10.3859
▁냉장고에	-10.3864
▁이해를	-10.3874
▁된소리	-10.3882
완	-10.3884
▁말씀드렸	-10.3884
▁사람한테	-10.3889
▁의식	-10.389
▁싶네요	-10.3893
▁대한민국	-10.3893
▁파괴	-10.3895
▁대충	-10.3895
쉬	-10.3898
▁없나요	-10.3902
▁사랑해	-10.3906
▁볼래	-10.3913
옛	-10.3914
▁크리스마스	-10.3915
▁떠오르	-10.3915
▁보았	-10.3922
▁아이디어	-10.3925
뻐	-10.3929
▁목소리가	-10.3935
▁유치원	-10.3936
▁문법	-10.3943
옹	-10.3958
흑	-10.3958
▁화면	-10.3959
▁대장	-10.396
응	-10.3965
깜	-10.3968
▁미래에	-10.3969
▁가족들은	-10.3977
적이고	-10.3983
뿐이	-10.3983
▁못해요	-10.3993
보니까	-10.3993
▁시스템	-10.4001
▁아름답	-10.4001
▁기회가	-10.4003
▁이후에	-10.4004
▁실례지만	-10.4006
▁뭔데	-10.4012
▁청약저축	-10.4012
▁개월	-10.4019
▁인용	-10.4032
▁존중	-10.4034
▁회식	-10.4055
었더니	-10.4058
▁일본은	-10.4065
콤	-10.4066
▁알아볼	-10.4069
▁만나면	-10.4069
▁맞습니다	-10.4071
▁스마트폰	-10.4077
▁친절	-10.4084
▁맞춰서	-10.4088
었는지	-10.4093
▁그랬더니	-10.4095
▁춤을	-10.4095
▁누군지	-10.4099
▁음료수	-10.4099
줬어요	-10.4101
▁줄까	-10.4101
들끼리	-10.4111
▁파일	-10.4116
우니까	-10.4122
▁무엇일까	-10.4122
▁놀랐어	-10.4122
▁주부터	-10.4125
▁고파	-10.4126
곱	-10.4146
▁의견을	-10.4148
켜	-10.415
▁아쉬워	-10.4153
▁서울에서	-10.4157
폴	-10.4164
▁이상해	-10.4171
▁편한	-10.4171
▁기후	-10.4171
▁알았어요	-10.4175
▁재능	-10.4184
▁햇빛	-10.4186
▁남았어	-10.4187
▁준다	-10.4189
콩	-10.4196
▁자리를	-10.4204
▁연극	-10.4212
털	-10.4213
▁금액	-10.4213
▁사람들에게	-10.4215
▁이웃	-10.4217
▁신나는	-10.422
▁뉴스에서	-10.4221
▁텔레비전	-10.423
▁팔아	-10.4235
▁여긴	-10.4238
▁주신	-10.4244
▁염색	-10.4244
벤	-10.4253
▁받침	-10.4253
▁여권	-10.4256
▁상관	-10.426
▁재미가	-10.427
▁경제적으로	-10.4277
▁한숨	-10.4279
▁몰랐어요	-10.4285
▁손해	-10.4287
▁육십	-10.4293
▁하더라고	-10.4295
▁배고픈데	-10.4297
▁줄어들	-10.4298
농	-10.4298
▁종류의	-10.4299
알	-10.4301
▁슬픈	-10.4309
▁기타	-10.4313
▁저녁으로	-10.4313
▁카페에서	-10.4321
D	-10.4331
▁혜택	-10.4331
▁최선을	-10.4331
▁바나나	-10.4331
▁인하	-10.4334
▁않은데	-10.4337
▁가져왔	-10.434
▁말하기	-10.4342
▁대표적인	-10.4345
섭	-10.4348
▁소고기	-10.4348
▁않네요	-10.435
▁맛있더라	-10.4353
▁대리님	-10.4365
▁달라고	-10.4367
▁새끼	-10.4367
▁고전	-10.4379
▁않았으면	-10.4387
▁예정이	-10.4392
▁갔더니	-10.4398
▁즐거워	-10.4398
▁코스	-10.4408
▁요청	-10.441
▁친구끼리	-10.441
▁들여	-10.4414
▁있었죠	-10.4419
▁트로트	-10.442
▁도쿄	-10.4421
▁한국어	-10.4422
▁엄청난	-10.4424
▁겨우	-10.4433
▁봉구	-10.4443
껴	-10.4445
▁북한	-10.4451
▁들으면서	-10.4452
▁생길	-10.4452
▁토마토	-10.4454
▁기념	-10.4456
뉴	-10.4464
힐	-10.4466
빚	-10.4466
▁독일	-10.4467
▁하던	-10.4471
▁시점	-10.4473
▁있거든	-10.4479
▁운동하러	-10.4482
▁급식	-10.4482
▁갈게요	-10.4483
▁이틀	-10.4485
▁찾기	-10.4488
▁가까이	-10.449
▁따르	-10.4501
▁배송	-10.4508
▁예산	-10.4509
▁빠진	-10.4509
▁모양이	-10.451
▁노후	-10.4511
▁자취	-10.4511
P	-10.4511
▁담아	-10.4513
▁시설	-10.4517
앗	-10.4522
▁호랑이	-10.4524
▁받았다	-10.4534
▁해먹	-10.4538
▁미래를	-10.4542
▁세계적으로	-10.4542
▁치우	-10.455
▁선호	-10.4556
▁시원해	-10.456
▁신혼여행	-10.4568
굽	-10.4568
▁답답하	-10.4569
킬	-10.4572
▁사용할	-10.4576
▁미용실	-10.458
▁영웅	-10.4582
▁나왔는데	-10.4586
몰	-10.4587
▁위험한	-10.4588
▁복숭아	-10.4591
롤	-10.4591
▁모르게	-10.4595
▁로봇	-10.4603
▁그러니	-10.4608
▁당황	-10.4609
▁초밥	-10.461
겸	-10.4614
쇄	-10.4614
▁민정	-10.4615
▁팀장님	-10.4616
▁공부해야	-10.4624
▁필요할	-10.4625
▁않냐	-10.4626
▁생방송	-10.4628
▁사이좋게	-10.4637
▁비법	-10.464
▁되어있	-10.4642
▁점심으로	-10.4652
▁발달	-10.466
▁빨간	-10.466
▁결제	-10.4661
▁중요하다고	-10.4663
▁죽음	-10.4672
▁들러	-10.4675
▁영업	-10.4681
▁불가능	-10.4695
▁약국	-10.4696
▁영화관에서	-10.47
▁안된다	-10.4704
▁시각	-10.4707
▁다녀왔어요	-10.4714
콕	-10.4718
▁깊이	-10.4726
▁공감	-10.4726
▁모른다	-10.4731
▁무엇입니까	-10.4731
▁골고루	-10.4741
▁배웠어	-10.4742
▁생겼어요	-10.4748
어야지	-10.475
▁페이지	-10.4753
▁부분에서	-10.4753
▁겁니까	-10.4758
▁세탁	-10.4759
▁입학	-10.4764
▁적당히	-10.4765
▁날에는	-10.4772
사회	-10.4782
▁설레	-10.4787
주실래요	-10.479
▁왜냐면	-10.4796
▁무서워서	-10.4798
신데	-10.4799
▁미세먼지	-10.48
▁업체	-10.4801
▁아끼	-10.4802
몸	-10.4804
▁메시지	-10.4812
▁아닌가요	-10.4817
▁큰일이야	-10.4818
▁나갔다	-10.4823
▁죄송한데	-10.4835
꼴	-10.4835
▁살까	-10.4835
▁가보자	-10.4836
▁이해해	-10.484
▁부족한	-10.4845
▁했지만	-10.4852
▁식사시간	-10.4852
▁운동장	-10.4853
억	-10.4857
▁필라테스	-10.4859
숭	-10.4859
▁모시고	-10.486
싼	-10.4861
▁넣어야	-10.4863
▁구두	-10.4867
▁그렇고	-10.4869
▁꼬마	-10.487
▁쿠키	-10.487
뿌	-10.488
▁졸려	-10.488
▁뜨거운	-10.4882
▁들었다	-10.489
▁공공	-10.4893
▁마감	-10.4894
▁여기저기	-10.4894
▁돈가스	-10.4907
하셨습니다	-10.4917
▁만날까	-10.4925
▁홍보	-10.4933
▁하긴	-10.4933
▁무엇보다	-10.4942
▁어려움	-10.4944
셀	-10.4965
젤	-10.4965
▁조직	-10.4971
끌	-10.4977
엘	-10.4977
▁땜에	-10.4977
▁못하겠어	-10.4981
▁기다렸	-10.4981
▁조언	-10.4986
▁조카	-10.4986
▁길게	-10.4989
▁양식	-10.4998
▁가질	-10.5
▁재밌었어	-10.5
▁힐링	-10.5001
▁중요하게	-10.5003
▁반영	-10.5004
▁비대면	-10.5014
▁나가면	-10.5025
▁영희	-10.5043
▁하하	-10.5048
꺼	-10.5051
▁고용	-10.5057
솔	-10.5058
▁교실	-10.5067
▁되시나요	-10.5068
였죠	-10.507
▁처음부터	-10.5071
짠	-10.5073
▁불구하고	-10.5073
▁보일	-10.5076
꼬	-10.5076
▁썼어	-10.5087
▁기침	-10.5089
▁고치	-10.509
▁남자친구랑	-10.5095
▁박물관	-10.5097
▁힘들게	-10.5104
붓	-10.5109
▁구별	-10.5115
잎	-10.5121
▁재난	-10.5132
▁친구에게	-10.5133
▁해볼까	-10.5133
▁없지만	-10.5134
▁답변	-10.5136
▁맞죠	-10.5137
▁되려면	-10.5137
하라	-10.5148
▁스포츠	-10.5158
▁차례	-10.5158
▁올라오	-10.5163
▁싶었	-10.5165
▁엄청나게	-10.517
▁고추	-10.5171
▁좋았던	-10.5178
샤	-10.5182
▁가운데	-10.5182
▁아껴	-10.5191
▁칠십	-10.5195
▁축하드립니다	-10.5195
▁모델	-10.5196
▁사번	-10.5196
▁잠시만	-10.5207
▁말씀드리	-10.5208
▁음식점	-10.5215
▁모르겠는데	-10.522
▁글쓴이	-10.5231
탑	-10.5231
끔	-10.5237
▁빨라	-10.5239
▁면역력	-10.5243
▁과장님	-10.5249
▁삼백	-10.5258
▁생선	-10.5263
s	-10.5268
▁도저히	-10.5268
▁도움	-10.5271
S	-10.528
꽂	-10.528
▁갈비	-10.5287
▁중인데	-10.5289
▁걸렸어	-10.5292
▁어제저녁	-10.5292
▁올게요	-10.5294
▁공포영화	-10.5304
▁머리카락	-10.5317
뜯	-10.5317
▁환불	-10.5322
▁이어지	-10.5326
▁변경	-10.5332
▁구워	-10.5332
▁풍경	-10.5337
▁넓은	-10.5337
▁살면서	-10.5339
▁순위	-10.5347
▁지속	-10.535
T	-10.5354
▁대책	-10.5359
주셨어	-10.5359
▁열린	-10.5359
▁가을에	-10.5363
▁교환	-10.5365
▁통일	-10.5368
▁보이네	-10.5369
▁사태	-10.5372
▁도와줘	-10.5373
▁무언가	-10.5379
▁몰래	-10.5382
흥	-10.5382
▁스무	-10.5383
긋	-10.5391
▁공포	-10.5393
되어야	-10.5398
▁짐작	-10.5408
▁새우	-10.5419
▁팝콘	-10.5428
경제	-10.5431
▁집단	-10.5438
▁설계	-10.544
▁먹었다	-10.5445
▁시작했어요	-10.545
▁장점	-10.5451
▁샌드위치	-10.5453
사람	-10.5457
▁어떠한	-10.5462
▁이후로	-10.5467
▁포항	-10.5472
▁설정	-10.5472
▁이쪽으로	-10.5476
띠	-10.5478
▁배터리	-10.5478
▁교회	-10.5479
▁예매	-10.5485
▁마침	-10.5488
▁말아야	-10.549
룡	-10.5491
▁빙하가	-10.5491
▁중이라	-10.5493
▁어른들	-10.55
▁어디인가요	-10.5503
▁행복하	-10.5509
▁마음대로	-10.553
▁만드	-10.5532
▁상황에서	-10.554
▁유일한	-10.5542
▁화요일	-10.5542
▁방안	-10.5542
▁알아봐야	-10.5543
빨	-10.5545
▁서술자	-10.5553
▁제작	-10.5554
흉	-10.5554
▁됐습니다	-10.5554
위원회	-10.5554
▁목욕	-10.5557
▁채워	-10.5559
▁거리두기	-10.5567
▁비음	-10.5569
▁학년	-10.5577
▁발라드	-10.5579
▁바보	-10.558
▁조각	-10.5586
▁구하기	-10.559
▁아침식사	-10.5592
으라고	-10.5593
▁모래	-10.5594
▁선거	-10.5599
▁호주	-10.56
▁스페인	-10.5605
▁점심시간	-10.5607
▁소풍	-10.5609
▁기획	-10.5618
닭	-10.5625
▁검은색	-10.563
▁먹으니까	-10.5653
되었어	-10.5655
▁잔뜩	-10.5656
▁협상	-10.5657
▁태양	-10.5665
▁엘리베이터	-10.5668
▁과장	-10.5671
▁있던데	-10.5673
▁시작해야	-10.5673
▁재택근무	-10.5681
첩	-10.5681
▁원피스	-10.5681
▁예측	-10.5685
▁질병관리본부	-10.5694
▁중요하다	-10.5694
▁티켓	-10.5694
▁앉아서	-10.5695
▁계곡	-10.57
쌀	-10.5705
눌	-10.5719
▁슈퍼	-10.572
▁소금	-10.572
▁남아있	-10.5725
조차	-10.5729
▁유학	-10.5732
▁일회용품	-10.5732
넷	-10.5732
룸	-10.5732
▁들었습니다	-10.5737
▁형성	-10.5741
활	-10.5756
▁시조	-10.5758
▁드라이브	-10.5758
드리려고	-10.5762
▁가구	-10.5763
룰	-10.5771
▁수영장	-10.5773
▁의해서	-10.5782
▁매장	-10.5784
폭	-10.5788
▁극장	-10.579
▁준비해야	-10.5796
▁감독	-10.5797
▁나옵니다	-10.5802
▁음식물	-10.5805
▁분들은	-10.5808
구먼	-10.5809
▁찬성	-10.581
컨	-10.581
▁완료	-10.5814
▁대접	-10.5817
껏	-10.5821
▁강화	-10.5821
▁어울려	-10.5823
▁흔들리	-10.5826
해주셔서	-10.5827
▁싶으	-10.5828
▁나왔습니다	-10.5829
▁공주	-10.5829
센	-10.5832
▁디저트	-10.5849
▁외우	-10.5854
▁보낸	-10.5854
짜리	-10.5859
▁세계적인	-10.5861
e	-10.5862
▁재활용	-10.5862
겹	-10.5884
썩	-10.5888
▁곤란	-10.5889
▁홍콩	-10.5902
▁먹었으면	-10.591
▁생기면	-10.5911
▁흔히	-10.5914
으실	-10.5918
a	-10.5927
▁동물들	-10.5936
▁가볼까	-10.5938
▁재밌더라	-10.5945
B	-10.5953
▁느껴져	-10.5954
▁읽어보	-10.5956
▁월세	-10.5959
▁워낙	-10.5967
▁깨끗해	-10.5967
▁사이트	-10.5975
▁군데	-10.5979
해지고	-10.598
잉	-10.598
▁향수	-10.5988
▁해야겠다	-10.5988
▁싸움	-10.5989
▁피곤해서	-10.5989
▁실비보험	-10.5993
▁갔었어	-10.6006
▁탕수육	-10.6006
▁테이블	-10.6006
▁느낄	-10.6006
▁권리	-10.6009
▁운전면허	-10.6019
뭉	-10.6019
▁스트레칭	-10.6019
▁조용한	-10.6033
▁카톡	-10.6034
▁어려웠	-10.6037
하진	-10.6047
▁실험	-10.6065
▁만나러	-10.6071
샘	-10.6073
▁무거워	-10.6073
▁효율	-10.6073
▁자유롭게	-10.6086
▁지냈어	-10.6086
벽	-10.6088
▁이벤트	-10.6099
▁알겠지	-10.61
▁신선	-10.6105
▁들어온	-10.6107
▁구십	-10.6118
▁원칙	-10.6122
▁불안해	-10.6125
▁전환	-10.6131
▁줄여야	-10.6134
▁돌아왔	-10.6135
▁금융	-10.614
▁팔십	-10.6143
▁나와있	-10.6144
뻔	-10.6147
▁뮤지컬	-10.6153
큐	-10.6153
▁입원	-10.6159
▁단추	-10.6171
쩜	-10.618
▁태어난	-10.618
▁데이터	-10.6194
십육	-10.6195
▁대전	-10.6198
▁욕심	-10.6201
▁싶으세요	-10.6212
켓	-10.6219
첨	-10.6225
▁생일선물로	-10.6239
▁허락	-10.6244
▁프라이	-10.6247
▁됐네	-10.6267
▁오른	-10.6267
▁휴식	-10.628
▁불꽃축제	-10.6288
▁마녀	-10.6295
▁배고프다	-10.6301
▁규제	-10.6303
야말로	-10.6306
▁신용	-10.6306
밍	-10.6315
틴	-10.6315
▁힘드네요	-10.6322
▁개봉한	-10.6327
▁이탈리아	-10.6329
렬	-10.6329
컷	-10.6329
▁미안한데	-10.6331
▁언제든지	-10.6338
관계	-10.6339
▁소주	-10.6346
▁출신	-10.6352
▁판소리	-10.636
▁그렇습니다	-10.6362
▁진정	-10.6366
▁두려워	-10.637
▁지정	-10.637
▁달리기	-10.6372
학교	-10.6393
▁전문가에게	-10.6395
츠	-10.6397
▁늦잠	-10.6397
헐	-10.6397
▁없도록	-10.6397
▁즐길	-10.6397
▁인천	-10.6406
및	-10.6411
▁넣으면	-10.6416
덤	-10.6425
▁바탕으로	-10.6425
바람	-10.6427
▁점검	-10.6427
쪼	-10.6438
▁있긴	-10.6441
▁성분	-10.646
▁민주	-10.6468
▁최대	-10.6471
▁좋아졌어	-10.6473
▁중세	-10.6478
낯	-10.6494
M	-10.6494
▁규정	-10.6495
▁관광객	-10.6496
▁세금	-10.6497
하대	-10.6498
▁이러면	-10.6507
▁심장	-10.6507
▁포인트	-10.6508
▁경영	-10.651
또	-10.6516
▁오래됐어	-10.6517
▁유형	-10.6519
▁북극곰	-10.6522
▁운동화	-10.6527
▁더우니까	-10.6533
▁따른	-10.6534
▁과외	-10.6538
▁보충	-10.6541
▁고정	-10.6549
▁이천십	-10.6558
균	-10.6562
밟	-10.6563
▁이메일	-10.6564
▁피곤한	-10.6564
핀	-10.6577
▁밝혀	-10.6577
▁구멍	-10.6581
▁떠날	-10.6589
교육	-10.6591
▁꼼꼼히	-10.6591
▁천구백	-10.6594
땅	-10.6596
▁좋더라고요	-10.6607
엠	-10.662
▁낮잠	-10.662
▁생각해봐	-10.6621
▁양념	-10.6626
젠	-10.6628
하십시오	-10.663
▁울릉도	-10.6634
▁하얀	-10.6634
▁지우	-10.6637
▁차별	-10.6639
▁양말	-10.664
▁계층	-10.6653
▁가능해	-10.6661
▁당근	-10.6666
▁감염	-10.667
퉁	-10.6676
▁크림	-10.6676
▁어휴	-10.6684
▁반가워	-10.6691
▁흘리	-10.6692
▁놀랐	-10.6695
▁기부	-10.6695
멋	-10.6698
▁넣으	-10.67
즐	-10.6702
쏠	-10.6704
▁중독	-10.6707
▁보험금	-10.6711
▁자리가	-10.6715
붙	-10.6719
▁세월	-10.6723
▁온다는데	-10.6724
▁빨간색	-10.6727
▁손톱	-10.6735
▁대응	-10.6743
▁소통	-10.6744
▁골프	-10.6755
▁않겠어	-10.6757
▁시작했다	-10.6757
▁막히	-10.6761
▁평균	-10.6763
▁감사하겠습니다	-10.6764
▁심지어	-10.6764
삽	-10.6775
▁이어폰	-10.679
▁많으니까	-10.6793
▁받았는데	-10.6794
읍	-10.6795
바닥	-10.6798
으려	-10.6802
▁소득	-10.6808
▁연휴	-10.6814
▁청소년	-10.6814
▁게다가	-10.6817
▁신나게	-10.6819
▁복용	-10.6819
▁설탕	-10.6823
시험	-10.6825
팩	-10.6833
되었어요	-10.6846
쁠	-10.6847
▁박수	-10.6854
▁민족	-10.6854
▁홍대	-10.6855
▁출산	-10.6855
▁아프리카	-10.6861
▁스키	-10.6871
썰	-10.6876
하시죠	-10.6886
▁계셔	-10.6887
▁끔찍	-10.6905
▁변호사	-10.6905
▁귀신	-10.6921
▁많네요	-10.6923
▁봉사	-10.6925
랍니다	-10.6931
▁넷플릭스	-10.6934
▁그녀에게	-10.6934
▁진정한	-10.6937
벅	-10.6948
▁우체국	-10.6948
▁파이팅	-10.6948
▁패션	-10.695
휘	-10.6971
므로	-10.6972
하겠지	-10.6974
▁다녀온	-10.6974
▁가다가	-10.6991
▁다람쥐	-10.6992
▁나타난	-10.7006
▁손가락	-10.7007
▁미뤄	-10.701
▁교체	-10.7011
▁알아두	-10.702
쿵	-10.7021
▁매미	-10.7029
▁형님	-10.7032
▁키운	-10.7037
▁많으면	-10.7037
붕	-10.7047
▁매주	-10.7048
▁일기예보	-10.705
주시겠습니까	-10.7054
귤	-10.7063
▁동남아	-10.7065
▁그녀를	-10.707
텔	-10.7078
▁빠질	-10.7088
주셨어요	-10.7096
▁가족이랑	-10.7099
▁중앙	-10.7103
▁구체적으로	-10.7109
▁집값이	-10.7112
슨	-10.7119
▁쌀쌀해	-10.7139
▁가끔씩	-10.7144
▁카카오	-10.7154
▁이것저것	-10.7154
갓	-10.7154
▁먹었던	-10.7156
▁끝났어	-10.716
▁작동	-10.7161
톤	-10.7168
▁멋있어	-10.7178
옵니다	-10.7179
하느냐	-10.718
▁닮았	-10.7183
특	-10.7197
▁심심해	-10.7215
▁잡았	-10.7216
찐	-10.7228
덧	-10.7228
▁메일	-10.7228
할수록	-10.7228
▁식탁	-10.7229
▁입양	-10.7237
윗	-10.7243
▁멤버	-10.7243
▁시즌	-10.7244
▁나타났	-10.7258
▁하겠어	-10.7259
▁반갑	-10.7262
댔	-10.7273
▁무서웠어	-10.7273
▁어딘지	-10.7273
▁서점	-10.7277
▁급하게	-10.728
컬	-10.7288
▁튼튼	-10.7288
▁대학생	-10.7298
였던	-10.7298
▁들어올	-10.7299
▁멈추	-10.7303
▁배고프	-10.7303
▁다이어트한다고	-10.7304
▁환절기	-10.7304
▁사라졌	-10.7307
▁부른	-10.7324
▁앉으	-10.7324
▁내용들	-10.7332
▁당신에게	-10.7332
하시네요	-10.7336
▁명령	-10.7343
▁장학금	-10.7363
▁기온이	-10.7364
측	-10.7406
최	-10.7431
!	-10.75
뱀	-10.75
I	-10.7516
랫	-10.7516
릇	-10.7528
롯	-10.7531
접	-10.755
렵	-10.7562
륙	-10.7609
쏘	-10.764
깐	-10.7678
엎	-10.7702
밑	-10.7726
c	-10.7828
돋	-10.7828
뵈	-10.8053
짱	-10.8101
꼼	-10.8118
홍	-10.8151
흙	-10.8266
땡	-10.8366
큼	-10.8392
팽	-10.8399
빅	-10.8433
멈	-10.8484
찔	-10.8484
욱	-10.8532
깝	-10.8546
톱	-10.8651
앱	-10.8724
꺾	-10.8776
샌	-10.8776
찼	-10.8793
푼	-10.8811
홈	-10.8811
뇨	-10.886
칩	-10.8916
냉	-10.9067
씬	-10.9077
팁	-10.9095
챙	-10.9129
랜	-10.9129
횡	-10.9149
덜	-10.9175
잘	-10.9246
총	-10.9266
뿜	-10.9313
캔	-10.9368
폼	-10.9387
쫓	-10.9423
짖	-10.948
멘	-10.9555
앤	-10.9555
쿨	-10.9555
꾹	-10.9631
칫	-10.9631
탁	-10.9698
쪄	-10.9705
닷	-10.9745
O	-10.9765
숨	-10.9803
굳	-10.9835
숍	-10.9842
괴	-10.9878
몇	-10.9915
뤄	-10.9935
획	-10.9936
멍	-11.0158
웬	-11.0217
렉	-11.0238
쑤	-11.0278
뱅	-11.0319
빡	-11.04
닉	-11.0421
딜	-11.0488
쥐	-11.0503
헛	-11.0503
귄	-11.0524
끝	-11.0582
즙	-11.0629
잠	-11.0652
L	-11.0671
잖	-11.0699
컴	-11.0713
p	-11.0713
탱	-11.0713
틱	-11.0755
꿔	-11.0772
릭	-11.0777
뭇	-11.0798
셈	-11.0798
꽁	-11.0819
믹	-11.0819
닫	-11.0854
맵	-11.0862
빠	-11.0894
팍	-11.0927
킷	-11.097
툰	-11.1057
슷	-11.1098
융	-11.11
랴	-11.1101
뺄	-11.1101
콧	-11.1145
짚	-11.1185
뱃	-11.1212
놀	-11.1245
깨	-11.1318
엿	-11.1346
낮	-11.1347
뒤	-11.1353
m	-11.1414
둑	-11.1433
덴	-11.1437
햇	-11.1482
#	-11.1482
쭤	-11.1504
흠	-11.1505
F	-11.1528
슴	-11.1546
딘	-11.1574
i	-11.1621
땄	-11.1621
붐	-11.1667
헬	-11.1878
쌈	-11.1879
훌	-11.1879
뜬	-11.1998
찮	-11.2069
팡	-11.2071
줌	-11.2193
굉	-11.2242
눅	-11.2267
룬	-11.2291
논	-11.2308
헤	-11.2345
윈	-11.2366
셋	-11.2449
씹	-11.2455
넘	-11.2495
못	-11.2574
뜰	-11.2593
칼	-11.2763
엇	-11.2769
죄	-11.2845
옵	-11.2929
K	-11.2931
쭉	-11.2988
솜	-11.3011
섬	-11.3071
캡	-11.3253
줍	-11.3306
E	-11.3335
템	-11.3363
븐	-11.3363
뷰	-11.3391
팝	-11.3418
냄	-11.3418
깡	-11.3446
졸	-11.346
늑	-11.3502
렛	-11.3558
쫄	-11.3586
봄	-11.3615
셰	-11.3643
넛	-11.3671
꿈	-11.3696
뉘	-11.3757
델	-11.3839
핵	-11.3872
맘	-11.3893
팬	-11.4006
깔	-11.4036
갯	-11.4048
핏	-11.4137
퀴	-11.4192
왜	-11.4196
밴	-11.4197
찍	-11.4226
똑	-11.4227
픽	-11.4257
끗	-11.4287
즘	-11.4315
긍	-11.4317
잦	-11.4348
댕	-11.4378
땐	-11.438
r	-11.4409
뾰	-11.444
푹	-11.4476
옴	-11.4501
쭈	-11.4532
큰	-11.454
v	-11.4552
썽	-11.4563
랩	-11.4688
몫	-11.4688
잼	-11.4688
굿	-11.472
륨	-11.472
껌	-11.4783
릉	-11.4812
꿀	-11.4831
뢰	-11.4842
랗	-11.4847
깍	-11.4879
낱	-11.4944
찝	-11.4944
찾	-11.5077
갤	-11.5172
좀	-11.5208
쩡	-11.5239
캄	-11.5272
d	-11.5306
뿔	-11.5339
V	-11.5373
룹	-11.54
슘	-11.5407
낀	-11.5508
갇	-11.5509
랭	-11.5509
삿	-11.5509
떠	-11.5573
뮤	-11.5681
쉰	-11.5716
텍	-11.5751
곽	-11.5786
짤	-11.5786
앞	-11.5848
됨	-11.5892
댄	-11.5927
딸	-11.6036
샷	-11.6071
읒	-11.6107
륜	-11.618
N	-11.6217
킵	-11.6291
갱	-11.6327
꼭	-11.6337
빌	-11.6364
뎌	-11.6365
툴	-11.6402
돗	-11.6477
쓱	-11.6477
룻	-11.6515
R	-11.6553
뛰	-11.6576
훼	-11.6591
맣	-11.6629
k	-11.6706
둠	-11.6783
캠	-11.694
틸	-11.694
캐	-11.698
릅	-11.7017
G	-11.7019
녕	-11.7094
뻑	-11.7099
딴	-11.7105
왼	-11.7139
핸	-11.7139
렐	-11.722
튜	-11.726
뿡	-11.7342
웁	-11.7425
듣	-11.7483
눕	-11.7508
솥	-11.7508
댐	-11.7592
텨	-11.7592
g	-11.7676
앵	-11.7761
윙	-11.7804
빼	-11.7839
톨	-11.7847
곶	-11.7891
눔	-11.7891
헨	-11.7978
풋	-11.7978
햄	-11.8022
벙	-11.8022
륵	-11.8154
숫	-11.8288
첼	-11.8289
펄	-11.8289
혐	-11.8289
괄	-11.8334
댓	-11.838
깰	-11.838
얄	-11.8425
탠	-11.8425
낙	-11.8443
씁	-11.8517
팟	-11.8517
멀	-11.8536
헷	-11.8564
얽	-11.8564
럴	-11.8593
녁	-11.8643
퐁	-11.8704
찹	-11.8751
춧	-11.8846
뜸	-11.9137
홉	-11.9158
똘	-11.9235
럿	-11.9285
귈	-11.9335
뀌	-11.938
펫	-11.9385
닙	-11.9436
덟	-11.9586
킥	-11.964
궈	-11.9692
깬	-11.9849
u	-12.0214
덮	-12.0271
쩐	-12.0731
볕	-12.1083
펑	-12.1143
떼	-12.1296
얘	-12.142
덥	-12.1481
짬	-12.151
퓨	-12.1699
낄	-12.1762
므	-12.2047
걱	-12.2087
탐	-12.2088
펀	-12.222
뜩	-12.2559
즉	-12.2654
맡	-12.2944
썼	-12.3174
힘	-12.3483
쩌	-12.3487
낌	-12.3656
뷔	-12.4456
곰	-12.484
곧	-12.5022
쩔	-12.5318
랙	-12.5334
넓	-12.5487
많	-12.557
칵	-12.5706
벗	-12.5874
얀	-12.6696
쓴	-12.6722
넌	-12.6726
봇	-12.6806
숲	-12.6836
킁	-12.7021
젝	-12.713
캉	-12.7351
캘	-12.8411
쎄	-12.8661
넥	-12.879
쁘	-12.8825
깅	-12.9182
셉	-12.9596
떤	-12.9721
펠	-12.9737
뭐	-13.0069
렷	-13.0172
쉽	-13.0297
땜	-13.0622
닦	-13.0863
샴	-13.1951
촬	-13.2129
즌	-13.3064
녹	-13.3271
봅	-13.3683
젯	-13.5036
멕	-13.6883
텀	-13.7177
옆	-13.7715
쟤	-13.9118
엊	-14.0722
첫	-14.271
좁	-14.3266
걀	-14.3666
걷	-14.4474
쿄	-14.4879
싫	-14.5853
걔	-14.586
멩	-14.6264
멤	-14.7033
뿍	-14.7867
읗	-14.8776
삶	-15.0478
눠	-15.353
륭	-15.3565
탓	-15.4829
뒷	-15.9328
낫	-16.2664
쉴	-16.7668
뭘	-16.7668
훅	-17.7503
궐	-17.7504
쌩	-17.7505
촛	-17.7506
폈	-17.7507
쾃	-17.7508
픕	-17.7509
씌	-17.751
꿰	-17.7511
둡	-17.7512
뱉	-17.7513
뤘	-17.7514
굵	-17.7515
펐	-17.7516
툼	-17.7517
얗	-17.7518
빤	-17.7519
툭	-17.752
뻥	-17.7521
큽	-17.7522
얹	-17.7523
뺐	-17.7524
밸	-17.7525
팸	-17.7526
뒹	-17.7527
뺀	-17.7528
쁩	-17.7529
벳	-17.753
봬	-17.7531
꽝	-17.7532
얌	-17.7533
엮	-17.7534
쩝	-17.7535
뻗	-17.7536
쌌	-17.7537
숟	-17.7538
흩	-17.7539
뵐	-17.754
텅	-17.7541
꿍	-17.7542
썹	-17.7543
몹	-17.7544
쫙	-17.7545
낡	-17.7546
휩	-17.7547
엌	-17.7548
뀔	-17.7549
꾀	-17.755
쐬	-17.7551
붉	-17.7552
껑	-17.7553
꿉	-17.7554
뺏	-17.7555
긁	-17.7556
잣	-17.7557
깁	-17.7558
얇	-17.7559
훔	-17.756
쁨	-17.7561
괌	-17.7562
늬	-17.7563
쏙	-17.7564
깼	-17.7565
찢	-17.7566
솟	-17.7567
곁	-17.7568
꼽	-17.7569
힙	-17.757
딪	-17.7571
뻤	-17.7572
췄	-17.7573
빴	-17.7574
뭡	-17.7575
쪘	-17.7576
앓	-17.7577
맺	-17.7578
닿	-17.7579
냅	-17.758
뚫	-17.7581
쨍	-17.7582
떴	-17.7583
깥	-17.7584
넉	-17.7585
섰	-17.7586
껍	-17.7587
볍	-17.7588
웹	-17.7589
팥	-17.759
컸	-17.7591
앨	-17.7592
뀐	-17.7593
뽀	-17.7594
젓	-17.7595
팠	-17.7596
돕	-17.7597
깎	-17.7598
벚	-17.7599
빔	-17.76
펼	-17.7601
픔	-17.7602
릎	-17.7603
딨	-17.7604
겉	-17.7605
꽉	-17.7606
엑	-17.7607
귿	-17.7608
섞	-17.7609
뽕	-17.761
핫	-17.7611
젖	-17.7612
늙	-17.7613
탔	-17.7614
왠	-17.7615
샐	-17.7616
낚	-17.7617
굶	-17.7618
쏟	-17.7619
꼈	-17.762
띄	-17.7621
닮	-17.7622
묶	-17.7623
옳	-17.7624
춥	-17.7625
듭	-17.7626
뒀	-17.7627
꿨	-17.7628
흡	-17.7629
쨌	-17.763
녔	-17.7631
낳	-17.7632
뵙	-17.7633
땠	-17.7634
옮	-17.7635
둬	-17.7636
겪	-17.7637
눴	-17.7638
켰	-17.7639
쌓	-17.764
맑	-17.7641
짧	-17.7642
땀	-17.7643
묻	-17.7644
끓	-17.7645
밝	-17.7646
갚	-17.7647
렀	-17.7648
뽑	-17.7649
맙	-17.765
잤	-17.7651
얻	-17.7652
씻	-17.7653
젊	-17.7654
훨	-17.7655
끊	-17.7656
잃	-17.7657
램	-17.7658
놨	-17.7659
롭	-17.766
쳤	-17.7661
볶	-17.7662
잊	-17.7663
앉	-17.7664
믿	-17.7665
쁜	-17.7666
샀	-17.7667
뜻	-17.7668
갖	-17.7669
늦	-17.767
밌	-17.7671
씀	-17.7672
뭔	-17.7673
됩	-17.7674
넣	-17.7675
읽	-17.7676
높	-17.7677
밖	-17.7678
놓	-17.7679
괜	-17.768
났	-17.7681
졌	-17.7682
갔	-17.7683
셨	-17.7684
떻	-17.7685
받	-17.7686
싶	-17.7687
않	-17.7688
없	-17.7689
했	-17.769
같	-17.7691
꽤	-17.7692
좋	-17.7692
