<pad>	0
<unk>	0
<s>	0
</s>	0
<sep>	0
<mask>	0
<cls>	0
▁	-4.07154
▁그	-4.19723
▁거	-4.29987
▁아	-4.49442
▁근데	-4.53469
▁안	-4.58946
도	-4.71812
▁뭐	-4.76595
▁어	-4.80367
이	-4.87925
는	-4.9845
가	-4.9904
▁막	-4.99779
을	-5.07114
▁그냥	-5.12489
▁한	-5.1371
▁내가	-5.1442
▁나	-5.21331
▁그런	-5.2229
▁진짜	-5.28978
에	-5.29487
▁그래서	-5.32165
▁다	-5.33568
▁이제	-5.37792
지	-5.39524
▁게	-5.45616
은	-5.4579
를	-5.46173
▁거야	-5.51141
▁좀	-5.56628
고	-5.57079
▁그거	-5.60777
▁나는	-5.63545
▁때	-5.69019
만	-5.70259
▁너무	-5.70646
▁잘	-5.7664
▁많이	-5.77545
▁아니	-5.82739
▁같애	-5.83488
▁약간	-5.8397
▁또	-5.84245
▁이	-5.84319
▁수	-5.88296
▁우리	-5.92931
▁하고	-5.93854
▁되게	-5.97211
▁못	-5.99136
▁응	-6.00663
▁이런	-6.00679
로	-6.0109
▁내	-6.04147
▁그게	-6.0448
▁너	-6.04696
▁그렇게	-6.0578
▁이렇게	-6.08218
▁하는	-6.09054
▁일	-6.09554
▁더	-6.11036
▁지금	-6.11127
서	-6.11638
▁해	-6.12248
▁있는	-6.12816
야	-6.14074
에서	-6.14592
▁난	-6.15481
나	-6.18541
▁할	-6.20477
▁있어	-6.20653
▁그때	-6.23328
다	-6.23856
잖아	-6.2581
▁쫌	-6.26493
▁나도	-6.27364
▁그래	-6.28329
▁같은	-6.3226
▁왜	-6.32491
▁음	-6.34965
하고	-6.35754
▁그니까	-6.39496
어	-6.41047
요	-6.4445
▁그리고	-6.45619
▁거기	-6.45671
▁사	-6.46878
▁아니야	-6.47107
▁돼	-6.47987
대	-6.4922
▁가	-6.50913
▁그럼	-6.5208
▁맞아	-6.52117
▁번	-6.52217
▁엄청	-6.52912
으로	-6.5299
▁데	-6.60565
기	-6.61978
랑	-6.62047
▁같이	-6.63066
한	-6.63438
▁건	-6.64527
게	-6.66719
▁계속	-6.67207
▁뭔가	-6.67618
면	-6.67993
인	-6.72427
▁것도	-6.72538
는데	-6.73319
▁거지	-6.73867
▁그러면	-6.74519
니까	-6.75361
▁어떻게	-6.76168
▁오	-6.76178
▁없어	-6.77194
라	-6.77997
▁가서	-6.78211
▁있고	-6.78605
▁딱	-6.78793
▁이게	-6.79725
▁두	-6.79961
해	-6.8017
▁있잖아	-6.80652
▁그래도	-6.80837
▁걸	-6.81322
하는	-6.82435
▁원래	-6.82982
데	-6.84829
리	-6.88352
▁원	-6.88601
▁해야	-6.89449
▁야	-6.90086
▁주	-6.90143
▁먹고	-6.90655
▁몇	-6.91563
라고	-6.92571
▁보고	-6.9272
할	-6.94701
▁있는데	-6.949
▁해서	-6.9503
▁봐	-6.96472
▁하	-6.96812
긴	-6.97173
구	-6.97375
▁말	-6.97719
진	-6.97758
이랑	-6.97907
의	-6.98388
▁되는	-6.98438
▁했는데	-6.99425
▁거의	-7.00691
▁사람	-7.00853
시	-7.01037
네	-7.01268
▁이거	-7.01491
▁그치	-7.01746
▁같은데	-7.02496
가지고	-7.02523
▁정도	-7.04312
거든	-7.04479
▁일단	-7.04962
다고	-7.04968
▁개	-7.04971
▁무슨	-7.0501
▁시	-7.06213
▁갈	-7.0669
▁사람이	-7.06736
▁걔	-7.06897
▁하면	-7.07176
까지	-7.07773
▁1	-7.09246
▁하나	-7.10316
▁살	-7.10399
이야	-7.11152
일	-7.11535
▁세	-7.13042
▁돈	-7.13398
▁아이	-7.13978
▁다른	-7.15482
▁인제	-7.16696
▁별로	-7.16883
인데	-7.17476
▁지	-7.1776
▁너가	-7.18141
▁어떤	-7.18479
▁2	-7.18484
▁솔직히	-7.19
▁맨날	-7.19034
▁얘기	-7.1914
▁그건	-7.19364
자	-7.19566
▁보니까	-7.19881
▁시간	-7.20442
▁거기서	-7.20451
스	-7.20591
▁삼	-7.21173
▁날	-7.21177
▁했어	-7.2146
▁좋은	-7.21611
▁가는	-7.23642
▁하는데	-7.24248
▁될	-7.24686
▁줄	-7.24801
▁그걸	-7.25775
▁가고	-7.26369
▁우리가	-7.27747
▁하지	-7.27922
▁말이야	-7.28059
아	-7.28242
▁있지	-7.29529
▁않아	-7.31702
▁집	-7.31914
▁그래가지고	-7.32076
들	-7.32173
▁와	-7.32851
▁오늘	-7.32854
▁몰라	-7.32864
▁다시	-7.33122
▁네	-7.33169
단	-7.33207
▁학교	-7.34479
▁수도	-7.34858
▁명	-7.35902
사	-7.37273
▁사실	-7.37426
▁때문에	-7.37442
▁애들	-7.37794
▁자기	-7.37997
▁아니면	-7.38114
▁요즘	-7.38168
▁어제	-7.39226
▁대	-7.39395
▁제일	-7.39448
▁거는	-7.39574
▁완전	-7.40073
▁마	-7.40525
주	-7.40796
▁아니라	-7.41023
▁본	-7.41094
▁달	-7.41274
▁생각	-7.41386
▁되는데	-7.41399
▁3	-7.41482
해서	-7.41498
▁걔가	-7.42049
▁자	-7.42394
▁가지고	-7.42459
들이	-7.42789
▁갑자기	-7.42886
▁까	-7.4373
▁없는	-7.43873
인가	-7.43898
▁저	-7.44195
▁정말	-7.44209
▁년	-7.44987
▁건데	-7.45006
더라고	-7.46002
▁차	-7.46025
▁너는	-7.46652
▁되지	-7.46813
▁영화	-7.47165
▁십	-7.47282
▁좋아	-7.4739
▁보면	-7.4799
까	-7.4815
▁보	-7.48159
▁이번에	-7.48241
▁사람들이	-7.4876
▁어디	-7.49028
면은	-7.49143
이나	-7.49149
▁아예	-7.49376
▁있을	-7.49417
▁반	-7.49528
▁그거는	-7.49923
▁싶어	-7.50503
▁그것도	-7.50645
▁갔다	-7.5069
▁전에	-7.5084
니	-7.51228
▁이케	-7.51329
▁바로	-7.51332
▁술	-7.51731
▁되고	-7.52772
▁것	-7.52917
던	-7.53919
▁아직	-7.53954
▁니가	-7.54073
▁전	-7.54173
▁생각을	-7.54789
▁때는	-7.54819
▁그러면은	-7.55052
장	-7.55124
▁집에	-7.5559
▁알아	-7.55653
▁한번	-7.55695
▁볼	-7.56494
년	-7.56834
▁모르겠어	-7.56855
수	-7.57151
▁한데	-7.57214
▁혼자	-7.57836
▁그럴	-7.58309
▁아니고	-7.58756
▁구	-7.59108
▁아마	-7.59186
래	-7.59333
▁열	-7.5943
▁친구	-7.59657
부터	-7.60211
▁뭐지	-7.6112
치	-7.61272
▁하니까	-7.61492
▁간	-7.61625
▁가면	-7.61976
▁봤어	-7.62236
▁고	-7.62611
▁애들이	-7.64154
▁여기	-7.64707
▁말고	-7.64768
▁왜냐면	-7.64913
하	-7.65078
▁알바	-7.6547
▁그서	-7.65553
▁월	-7.66093
▁분	-7.66246
▁사람들	-7.66709
▁나중에	-7.66932
▁맞어	-7.6738
▁비	-7.67469
과	-7.67533
▁얼마	-7.67744
▁나한테	-7.68394
▁여행	-7.68901
▁정	-7.68965
▁않을까	-7.69068
▁그러고	-7.69289
▁언제	-7.69631
▁그러니까	-7.70085
▁금	-7.70599
▁엄마	-7.70663
밖에	-7.70675
▁그거를	-7.71274
드	-7.72254
하게	-7.72348
▁밥	-7.7291
부	-7.73651
▁니	-7.73875
▁싶은	-7.73988
▁생각이	-7.74077
▁빨리	-7.74794
▁뭐야	-7.7506
냐	-7.75247
월	-7.75386
▁만	-7.76164
▁생각해	-7.76572
▁하면은	-7.76684
▁만약에	-7.77287
▁애	-7.77768
▁어차피	-7.78698
한테	-7.78709
▁게임	-7.79163
▁해도	-7.79175
▁공부	-7.79383
다가	-7.79506
처럼	-7.79577
▁신	-7.80029
▁해가지고	-7.802
▁중	-7.8027
질	-7.81137
원	-7.81234
분	-7.81478
하면	-7.81597
비	-7.81958
▁뭘	-7.82774
▁아냐	-7.83256
▁보면은	-7.83274
전	-7.83298
▁그렇지	-7.8352
▁먹을	-7.83772
거	-7.84074
▁알	-7.84379
면서	-7.84504
러	-7.84746
▁기	-7.84827
▁큰	-7.85092
겠지	-7.85568
▁얘기를	-7.86854
상	-7.8703
보다	-7.87046
▁그까	-7.8737
▁부	-7.87384
▁자기가	-7.87471
▁엄마가	-7.88282
▁있으니까	-7.88407
정	-7.88684
▁거잖아	-7.88714
으니까	-7.8912
▁들어	-7.89214
던데	-7.89322
▁유	-7.89532
▁걔는	-7.89632
▁처음	-7.89796
▁보는	-7.89867
트	-7.89919
▁하면서	-7.90281
▁먹는	-7.90344
▁없고	-7.90353
▁많아	-7.90983
▁일본	-7.9113
▁제	-7.91208
적으로	-7.91284
하지	-7.91335
구나	-7.9143
▁상	-7.91446
▁항상	-7.92541
오	-7.93084
▁나랑	-7.93126
려	-7.93134
▁있으면	-7.93478
▁적	-7.93487
▁모	-7.94906
▁가지	-7.94933
가지구	-7.95038
▁서	-7.95066
▁싫어	-7.95103
겠다	-7.95316
더라	-7.95652
▁팔	-7.96236
마	-7.96451
▁다음	-7.96739
▁되	-7.97105
이라고	-7.97237
▁알고	-7.97247
▁소	-7.97488
▁언니	-7.97796
신	-7.97877
라는	-7.98148
▁타고	-7.98321
▁온	-7.98456
▁집에서	-7.98524
▁4	-7.98655
▁가야	-7.98734
▁중에	-7.99108
▁타	-7.9917
▁어쨌든	-7.9926
▁봤는데	-7.99467
었어	-7.99765
▁여자	-7.99816
▁되잖아	-7.9993
▁열심히	-8.00159
▁인	-8.00607
▁시간이	-8.00982
▁걸로	-8.01801
려고	-8.02112
▁형	-8.0226
적인	-8.03225
▁돈이	-8.03261
▁된	-8.03286
▁따른	-8.03476
▁있다	-8.03678
▁식으로	-8.04555
▁보통	-8.04754
▁백	-8.05244
▁여	-8.05353
으면	-8.05443
▁5	-8.05532
성	-8.06193
▁이십	-8.06343
▁운동	-8.06692
▁사진	-8.06762
▁무	-8.06767
▁뭐라	-8.06869
▁말을	-8.07068
동	-8.07136
▁되니까	-8.07286
▁시험	-8.07914
▁나서	-8.081
▁동안	-8.08372
▁쪼끔	-8.08392
방	-8.08601
보	-8.08671
▁공	-8.08904
▁이번	-8.08919
화	-8.0892
제	-8.09145
▁동	-8.0948
두	-8.09532
▁되나	-8.09827
▁먹어	-8.09838
▁군대	-8.09968
▁물	-8.10071
▁방	-8.10352
▁조	-8.10528
▁배	-8.11077
▁우리는	-8.11087
▁스	-8.11754
▁끝나고	-8.11783
실	-8.12442
▁거고	-8.12566
여	-8.12829
▁남자	-8.12941
했어	-8.13062
미	-8.13136
우	-8.13254
▁연	-8.1346
▁했잖아	-8.13613
▁어느	-8.13802
▁있거든	-8.13964
▁남	-8.14074
▁때도	-8.14153
▁머리	-8.14169
▁오래	-8.14647
▁피	-8.14788
거나	-8.14813
▁진	-8.14895
▁학년	-8.14972
▁예	-8.15193
개	-8.15341
걸	-8.15398
▁같아	-8.15433
▁입	-8.15579
▁올	-8.15872
▁옷	-8.15876
선	-8.16137
▁하잖아	-8.16612
▁많은	-8.16798
▁미	-8.16916
▁없잖아	-8.17015
▁참	-8.17157
▁넌	-8.17171
▁했지	-8.17922
산	-8.17942
▁와서	-8.18022
▁싶다	-8.18296
▁너도	-8.18457
▁있었어	-8.18525
▁조금	-8.19222
▁고등학교	-8.19284
▁누가	-8.19496
▁그러	-8.19543
▁거를	-8.19728
▁저번에	-8.20017
▁아닌	-8.20077
▁말이	-8.20459
▁학원	-8.20602
▁연락	-8.20618
▁처음에	-8.20919
▁굳이	-8.21434
차	-8.21729
▁다음에	-8.21752
▁지금은	-8.21795
▁내일	-8.21799
▁둘	-8.21831
▁아까	-8.21892
▁갔는데	-8.21928
▁먼저	-8.2211
▁옛날에	-8.2226
▁이러고	-8.22336
▁없지	-8.22562
▁돈을	-8.22711
▁수가	-8.22735
▁있었는데	-8.23155
이니까	-8.23383
학년	-8.23744
만원	-8.24092
▁싸	-8.24243
▁얼마나	-8.24471
▁봤을	-8.24501
▁성	-8.24781
▁대학	-8.24893
▁이러면서	-8.25022
▁들	-8.25115
▁느낌	-8.25211
▁기억이	-8.25268
식	-8.25566
▁과	-8.256
▁싶은데	-8.25722
▁써	-8.26082
▁재	-8.26252
란	-8.26415
▁영어	-8.26465
▁꼭	-8.26498
음	-8.26528
▁확실히	-8.26574
▁따로	-8.26835
▁갖고	-8.26923
▁우	-8.26962
▁그랬어	-8.27046
이잖아	-8.27063
▁나오는	-8.27405
져	-8.27472
▁책	-8.27521
▁놀	-8.27707
이고	-8.27769
▁사고	-8.27802
▁하더라고	-8.27929
명	-8.27969
▁에	-8.28011
▁그런데	-8.2816
▁아닌데	-8.28448
▁대해서	-8.28452
▁산	-8.28859
▁했던	-8.29294
▁바	-8.29331
든	-8.29374
▁불	-8.29505
▁맞는	-8.29632
▁10	-8.29638
▁쓰	-8.30125
▁갔어	-8.30176
▁일이	-8.30231
지는	-8.30257
▁화	-8.30278
린	-8.30374
▁있어서	-8.30433
▁애가	-8.30443
▁이미	-8.30711
▁좋아하는	-8.30712
▁오빠	-8.30715
▁같고	-8.31048
▁물론	-8.31312
▁사는	-8.31355
▁모르겠는데	-8.3138
▁아니면은	-8.31476
▁이상	-8.31507
▁다섯	-8.3158
▁저기	-8.31743
▁친구가	-8.31753
죠	-8.31836
르	-8.3184
▁너네	-8.31941
▁알지	-8.32148
▁근	-8.32632
▁없는데	-8.32796
▁점	-8.33349
▁되면	-8.33358
▁가면은	-8.3348
▁치	-8.33874
▁쓸	-8.34059
▁걔네	-8.34486
▁한국	-8.34569
▁나온	-8.34633
▁으	-8.35105
▁일을	-8.35144
▁육	-8.35279
▁딱히	-8.35529
▁나와	-8.35566
였어	-8.35707
야지	-8.36
▁아빠	-8.36144
▁요즘에	-8.36451
▁무조건	-8.36518
▁쪽	-8.36769
▁노래	-8.36776
▁장	-8.36891
다는	-8.36909
▁뭔	-8.37245
이면	-8.37396
이지	-8.37485
기도	-8.38081
▁쓰고	-8.38558
학	-8.38785
▁건가	-8.38789
해야	-8.38947
▁강	-8.39019
▁하루	-8.39085
▁쓰는	-8.39088
문	-8.39255
당	-8.39729
집	-8.40041
었는데	-8.40145
▁핸드폰	-8.40262
▁회사	-8.4032
▁아빠가	-8.40343
▁따	-8.40495
▁가자	-8.40554
▁쪼금	-8.40701
▁요새	-8.41067
소	-8.41126
▁오히려	-8.41258
겠네	-8.41335
▁그랬는데	-8.4186
적	-8.41938
▁뭐가	-8.42284
▁눈	-8.42499
▁차라리	-8.42521
▁아침에	-8.42529
엔	-8.426
▁혹시	-8.42764
▁느낌이	-8.4277
▁문제	-8.42912
▁들고	-8.4294
▁여러	-8.43188
▁누구	-8.43222
▁6	-8.43267
▁않았어	-8.43336
▁해야지	-8.4353
▁근까	-8.4375
▁기억	-8.44042
▁둘이	-8.44275
으	-8.44308
▁짐	-8.44809
▁알았어	-8.4484
▁파	-8.44862
▁하다가	-8.44934
간	-8.4532
▁하긴	-8.45362
▁당연히	-8.45378
▁좋아해	-8.45564
▁갔을	-8.45787
▁앞에	-8.45842
크	-8.45858
▁밖에	-8.46342
▁들어가	-8.46487
▁대학교	-8.46759
▁사람은	-8.46858
▁삼십	-8.46888
▁달에	-8.4726
▁서울	-8.47344
▁거니까	-8.47369
물	-8.4786
▁된다	-8.47925
▁좋지	-8.48202
▁있다고	-8.48238
▁발	-8.483
▁서로	-8.48491
▁아니지	-8.48531
▁번도	-8.48532
이라	-8.4869
▁괜찮아	-8.48786
▁만나	-8.48807
▁텐데	-8.49565
▁거기에	-8.49663
▁생각보다	-8.49732
점	-8.49758
히	-8.49765
▁주고	-8.4985
관	-8.50338
무	-8.50378
▁전화	-8.50575
시간	-8.50589
갖고	-8.50732
▁자꾸	-8.50942
▁노	-8.51133
반	-8.51214
▁아닌가	-8.51316
▁있	-8.51362
▁먹	-8.51428
▁수업	-8.51497
매	-8.51674
▁달라	-8.52221
▁오는	-8.52323
▁칠	-8.52435
▁힘들어	-8.52471
그	-8.5266
▁그렇고	-8.52773
▁아는	-8.52822
▁자주	-8.52947
타	-8.53204
릴	-8.53293
▁영	-8.53351
바	-8.5341
박	-8.53538
세	-8.53542
▁짜	-8.53626
▁없	-8.53702
▁학기	-8.53911
▁적이	-8.54199
▁졸업	-8.54525
▁길	-8.54526
▁선	-8.54556
루	-8.55103
▁취업	-8.55428
▁카페	-8.55436
▁순	-8.55488
▁초	-8.55567
모	-8.55799
▁단	-8.5586
▁걍	-8.55918
▁언니가	-8.55998
▁힘들	-8.56166
▁아무래도	-8.56297
생	-8.56512
프	-8.56822
디	-8.56837
▁일단은	-8.56907
▁없으니까	-8.56984
▁딴	-8.57183
▁입고	-8.57254
터	-8.57254
▁없이	-8.57264
▁양	-8.57355
▁있나	-8.57665
▁같	-8.57804
▁제가	-8.57977
▁없어서	-8.58095
▁우리나라	-8.58195
▁안에	-8.58675
▁주는	-8.58994
▁시에	-8.59155
▁않나	-8.59177
▁된다고	-8.59273
드라고	-8.59397
급	-8.59479
회	-8.59483
▁나이	-8.5971
와	-8.59849
▁고민	-8.59879
▁최근에	-8.60111
호	-8.60257
냐고	-8.60576
운	-8.60592
들은	-8.60812
▁드라마	-8.60902
▁거기는	-8.60991
▁사람들은	-8.61092
▁아무것도	-8.61236
용	-8.61351
▁아무	-8.61629
▁많고	-8.61697
▁옆에	-8.61719
▁절대	-8.6183
▁비싸	-8.61853
하면서	-8.61998
체	-8.62035
▁듣고	-8.62074
▁말하는	-8.62201
위	-8.62394
▁받고	-8.62466
▁뭐냐	-8.62494
▁않고	-8.62596
드라	-8.62889
라도	-8.6295
▁그다음에	-8.63067
연	-8.63094
겠어	-8.63365
▁재밌어	-8.63379
▁하다	-8.63576
▁약	-8.63743
▁한다고	-8.63846
▁굉장히	-8.64208
▁데가	-8.64417
▁됐어	-8.64612
▁편	-8.64677
▁여섯	-8.64693
▁홍대	-8.64715
▁자체가	-8.64735
하기	-8.64821
번	-8.64947
▁땐	-8.64953
씩	-8.64974
▁받아	-8.64979
조	-8.65032
▁버스	-8.65131
▁그날	-8.65252
▁너랑	-8.65371
보다는	-8.65686
▁일찍	-8.65729
▁모르겠다	-8.65754
▁중국	-8.65778
▁아무튼	-8.65805
▁20	-8.65975
▁실	-8.6609
▁위	-8.66165
버	-8.66222
▁그래가지구	-8.66329
▁중학교	-8.66364
▁거기가	-8.6654
▁나가	-8.66869
▁가게	-8.6703
▁훨씬	-8.67062
▁가기	-8.67385
▁괜찮은	-8.67455
울	-8.67492
▁대한	-8.67578
▁보러	-8.67616
해가지고	-8.67638
▁꺼	-8.67745
내	-8.68026
▁사람도	-8.68036
▁식	-8.68317
▁경	-8.68503
▁살짝	-8.68507
▁준	-8.6851
▁이름	-8.68759
▁부산	-8.68771
▁먹었어	-8.68902
▁같긴	-8.69019
워	-8.69276
▁왔어	-8.69512
▁걔도	-8.69691
▁그런가	-8.69758
▁소리	-8.69775
▁회	-8.69841
▁어쩔	-8.69871
▁없다	-8.69973
▁별	-8.69982
▁코	-8.70072
▁욕	-8.70184
▁늦게	-8.70582
기가	-8.70976
▁그때는	-8.71001
하잖아	-8.71004
▁얼굴	-8.71015
▁제주도	-8.71047
▁얘가	-8.71136
▁애들은	-8.71143
천	-8.71378
▁이상한	-8.71617
▁있긴	-8.71727
난	-8.71764
살	-8.71858
▁공부를	-8.71869
▁한다	-8.719
▁만들어	-8.71913
▁크게	-8.71945
▁했거든	-8.72031
▁저는	-8.7207
▁여기서	-8.72117
▁손	-8.72304
즈	-8.72543
피	-8.72852
감	-8.72905
▁봐야	-8.72996
금	-8.73412
공	-8.7344
▁놀러	-8.73462
역	-8.73658
레	-8.73692
▁박	-8.73702
▁벌	-8.73733
▁이러	-8.73734
안	-8.73864
▁문	-8.73942
지만	-8.73977
▁진짜로	-8.74234
했는데	-8.74267
▁쪽으로	-8.74463
▁하게	-8.74504
▁좋을	-8.74555
놓고	-8.74559
▁다닐	-8.74638
라서	-8.74714
▁하기	-8.74847
▁음식	-8.74896
▁예전에	-8.75281
▁면접	-8.75516
▁친구들	-8.75761
▁선생님	-8.75975
마다	-8.76201
▁하나도	-8.76287
▁어디서	-8.76317
▁커	-8.764
▁같다	-8.76649
▁포	-8.76702
판	-8.76734
▁보면서	-8.7678
에는	-8.76832
▁영상	-8.76858
리는	-8.76995
▁가끔	-8.7717
▁키	-8.7719
▁지원	-8.77194
니깐	-8.7764
재	-8.77886
▁아직도	-8.77964
이었어	-8.77996
▁수능	-8.78035
▁맛있는	-8.7808
▁방학	-8.78308
▁병	-8.78854
▁없을	-8.79127
▁토	-8.79139
▁8	-8.79172
▁가장	-8.7936
▁때부터	-8.79362
▁천	-8.79378
▁먹으면	-8.79416
하니까	-8.79438
▁7	-8.79465
▁잘못	-8.79611
유	-8.79679
▁다들	-8.79965
▁나올	-8.79979
▁신경	-8.79981
길	-8.80031
파	-8.80033
▁갔다가	-8.80266
국	-8.80528
▁잠깐	-8.80645
까진	-8.80841
▁글	-8.81035
▁그걸로	-8.81048
▁좋겠다	-8.81376
형	-8.81429
▁맞	-8.8144
하면은	-8.81694
▁없었어	-8.81828
▁돼서	-8.81956
▁얘길	-8.81967
▁예를	-8.82132
▁했을	-8.82194
계	-8.82211
건	-8.82251
지도	-8.82293
력	-8.82343
▁옛날	-8.82394
중	-8.82405
▁축구	-8.82481
▁학	-8.82516
▁건지	-8.82641
▁올해	-8.82818
▁죽	-8.8285
▁외	-8.82949
▁모든	-8.82973
▁보다	-8.83099
▁나오고	-8.83324
▁당	-8.83335
▁후	-8.83429
▁친	-8.83616
보고	-8.83815
▁허	-8.83881
▁너한테	-8.83919
▁목	-8.83948
에다가	-8.84069
▁명이	-8.84137
▁나오	-8.84157
▁다니고	-8.84214
▁아니잖아	-8.84301
▁뭐라고	-8.84463
카	-8.84499
셨	-8.84543
▁뒤에	-8.84815
▁미국	-8.84884
▁호	-8.85097
▁있어야	-8.85261
권	-8.85297
▁거라고	-8.85424
티	-8.85442
하는데	-8.85454
▁제대로	-8.85609
▁그러는	-8.85698
된	-8.85741
▁준비	-8.8586
▁들어서	-8.86009
▁매	-8.86102
▁줘	-8.86287
▁아침	-8.86429
▁저녁	-8.86443
▁맛	-8.866
▁그것	-8.86804
▁하자	-8.8685
▁따라	-8.86994
▁생활	-8.87107
▁형이	-8.8714
▁크	-8.87172
▁요	-8.87258
▁30	-8.87292
갈	-8.87457
발	-8.87702
▁동아리	-8.87748
▁들었어	-8.87759
▁했	-8.88029
▁왔다	-8.88219
▁학교에서	-8.88291
▁간다	-8.88359
▁오고	-8.88428
▁음악	-8.88791
▁하지만	-8.88869
날	-8.89003
▁생	-8.8907
▁맨	-8.89077
▁쳐	-8.89392
▁많잖아	-8.89601
▁심	-8.89669
▁끼	-8.89795
▁살아	-8.89804
▁말야	-8.89933
▁좋은데	-8.90188
▁다니는	-8.90323
▁가는데	-8.90694
▁이해	-8.90764
▁때마다	-8.90806
▁넘	-8.90815
▁누나	-8.90838
봐	-8.90942
▁거랑	-8.91213
▁뭔지	-8.9141
작	-8.91566
▁보내	-8.91585
▁추	-8.91603
▁오빠가	-8.91658
▁필요	-8.91769
▁이건	-8.91779
▁딸	-8.91831
했	-8.91833
▁긍까	-8.91954
▁생각하고	-8.92043
지고	-8.92171
였는데	-8.92237
▁벌써	-8.92397
포	-8.92626
▁배우	-8.92885
본	-8.93055
기는	-8.93199
▁땜에	-8.93218
업	-8.93228
▁않냐	-8.93255
▁그지	-8.93384
▁힘든	-8.93419
▁자고	-8.93617
▁할려고	-8.93898
혀	-8.93977
▁민	-8.94013
▁병원	-8.94747
이다	-8.94773
직	-8.94785
▁왜냐면은	-8.94893
▁새	-8.94915
▁몸	-8.95031
▁신청	-8.9512
▁싶	-8.95286
▁짜증	-8.95479
저	-8.95504
했던	-8.95517
▁있다가	-8.95618
쯤	-8.95622
▁맛있어	-8.95786
▁봐도	-8.95802
하다	-8.95915
▁똑같은	-8.96132
▁이걸	-8.96158
▁그러지	-8.96202
▁감	-8.96241
▁마지막	-8.96241
▁싶지	-8.963
▁않은	-8.96345
▁문제가	-8.96594
행	-8.96713
이라서	-8.96733
▁데서	-8.96849
▁드	-8.9687
▁결혼	-8.96914
▁컴퓨터	-8.96994
▁시작	-8.97019
▁되면은	-8.97234
심	-8.97262
▁모르는	-8.97272
▁받는	-8.97404
▁빼	-8.97755
▁나쁘지	-8.97965
▁씨	-8.98234
▁오십	-8.9826
▁개월	-8.98298
▁많	-8.98545
▁이래	-8.98546
른	-8.98723
더	-8.9876
▁재수	-8.98815
▁등	-8.98892
양	-8.9902
▁맛이	-8.99131
▁마음이	-8.99292
▁있대	-8.99365
복	-8.99414
▁통	-8.9943
▁그렇구나	-8.99519
임	-8.99716
▁이러는	-8.99784
▁9	-8.99939
▁같기도	-8.99986
▁잔	-9.00074
▁비행기	-9.00105
▁그러면서	-9.00183
▁하거든	-9.00279
▁맞다	-9.00587
▁정도로	-9.00616
▁보여	-9.0064
▁때가	-9.00717
인지	-9.01039
한다고	-9.01176
▁빼고	-9.01338
▁좋겠어	-9.01352
▁여덟	-9.01433
▁사회	-9.01567
▁받	-9.01778
▁될지	-9.01828
한다	-9.01857
셔	-9.01964
▁자격증	-9.02108
▁어렸을	-9.02135
▁고기	-9.02167
▁초등학교	-9.02231
▁동네	-9.0241
▁가도	-9.02439
▁같애요	-9.02476
▁좋다	-9.02555
▁현	-9.02843
▁떠	-9.02978
에도	-9.03119
▁며칠	-9.0324
▁일반	-9.03365
주고	-9.03479
이라는	-9.03564
▁거면	-9.03636
준	-9.03737
▁위에	-9.03767
▁있더라고	-9.03769
▁12	-9.03773
▁관심	-9.03796
▁일주일	-9.03832
▁깨	-9.04044
▁놓고	-9.04073
▁그쪽	-9.04137
▁나와서	-9.04203
졌	-9.04419
▁할머니	-9.04424
▁생각은	-9.04694
▁많지	-9.04857
▁보지	-9.04891
병	-9.04944
▁승	-9.05041
어서	-9.05151
이가	-9.0518
▁중요한	-9.05395
▁티	-9.05413
더니	-9.05421
▁전공	-9.05427
들을	-9.05597
▁어때	-9.05748
등	-9.05772
▁망	-9.05813
▁얘	-9.0586
▁괜찮	-9.06066
▁가야지	-9.06159
▁그랬잖아	-9.06224
였나	-9.06295
▁만들	-9.06375
노	-9.06404
▁수학	-9.06464
▁이거는	-9.06718
있	-9.06868
절	-9.06959
▁우린	-9.07234
교	-9.07562
주는	-9.07583
▁잠	-9.07613
달	-9.07664
▁작년에	-9.07713
▁생각하는	-9.07736
▁그랬더니	-9.07803
▁변	-9.07859
▁카톡	-9.07878
0	-9.07887
색	-9.07905
께	-9.07929
▁풀	-9.07936
▁걱정	-9.07981
▁왔는데	-9.08024
▁잡	-9.08165
▁에이	-9.08269
▁투	-9.08294
▁방송	-9.08334
▁선생님이	-9.08389
▁했다	-9.08417
▁보기	-9.08483
▁해보고	-9.08493
▁동생	-9.08609
▁암튼	-9.0866
▁쉬	-9.08667
▁차이	-9.09086
▁해주	-9.09153
▁하루에	-9.0917
▁일곱	-9.0921
▁새로	-9.09242
▁교육	-9.09263
▁법	-9.09287
▁주변에	-9.09293
▁사십	-9.09386
▁스물	-9.09468
▁토익	-9.09628
▁유럽	-9.09633
▁그래갖고	-9.09637
▁받을	-9.09757
▁쪽에	-9.09797
▁리	-9.09819
▁있으면은	-9.09839
▁왔	-9.09937
▁않았	-9.09986
▁미리	-9.10018
▁대충	-9.10074
대로	-9.10079
▁친구랑	-9.10088
▁아님	-9.10098
▁간다고	-9.10156
▁술을	-9.1019
▁가가지고	-9.10254
▁곳	-9.10305
▁맞지	-9.1056
▁밤에	-9.10806
▁재밌는	-9.10809
▁끝나	-9.10836
▁똑같이	-9.10837
▁많은데	-9.10983
림	-9.10987
▁알아서	-9.11004
▁나왔어	-9.1115
▁싶어서	-9.11276
▁아주	-9.11429
▁함	-9.11517
▁이러니까	-9.11538
▁강아지	-9.11581
▁오면	-9.11704
▁직접	-9.1192
통	-9.12073
줄	-9.12355
▁번씩	-9.12376
종	-9.12423
▁들어가서	-9.12462
▁말한	-9.12591
▁확	-9.126
▁그렇	-9.12679
원이	-9.12699
▁생긴	-9.12726
▁주에	-9.12756
▁사람을	-9.12793
▁놀고	-9.12806
▁좋고	-9.12806
이라도	-9.12822
▁있었던	-9.13113
▁치킨	-9.13221
▁와가지고	-9.13236
▁살고	-9.1324
▁국	-9.13285
▁애기	-9.13393
▁탈	-9.13553
▁총	-9.13645
코	-9.13733
라면	-9.1375
▁건강	-9.13772
▁했었는데	-9.13903
▁듣는	-9.1402
▁않을	-9.14079
▁커피	-9.1409
경	-9.14123
▁나라	-9.14248
되	-9.14373
▁외국	-9.14394
▁번째	-9.1443
▁만날	-9.14443
▁돌	-9.14593
▁기숙사	-9.14632
▁올려	-9.14638
▁얘기해	-9.14642
▁말도	-9.14671
여서	-9.14783
▁걔랑	-9.14784
▁다녀	-9.14862
약	-9.14889
▁호텔	-9.14951
▁토요일	-9.15049
▁평	-9.15134
▁장난	-9.15145
▁밑에	-9.15242
군	-9.15571
▁판	-9.15749
▁카	-9.15835
영	-9.15839
▁낫지	-9.15928
▁않	-9.15941
▁할까	-9.15975
▁교회	-9.15985
▁앞	-9.16002
▁머	-9.16025
▁집이	-9.16091
▁얼	-9.16121
▁운전	-9.16171
곤	-9.16286
▁앞으로	-9.16472
했지	-9.16593
▁이유가	-9.16647
▁나름	-9.16755
▁공연	-9.16844
▁먹은	-9.16918
는지	-9.16923
었던	-9.16985
▁되겠다	-9.17046
▁나가서	-9.17124
▁있어요	-9.17206
았	-9.17341
했다	-9.17424
들도	-9.1745
되는	-9.17473
▁괜히	-9.17488
▁나이가	-9.17602
류	-9.17632
▁그렇긴	-9.17703
▁팀	-9.17728
▁된대	-9.17751
▁점심	-9.17789
했을	-9.17825
▁복	-9.17955
추	-9.18004
▁했었어	-9.18028
▁귀	-9.18044
▁수영	-9.18177
▁쓴	-9.18183
▁시켜	-9.1819
▁애들이랑	-9.18196
▁좋아하	-9.18358
▁교	-9.18469
▁거에	-9.18506
▁비싼	-9.18559
▁찾아	-9.18596
▁이름이	-9.1861
▁중간에	-9.1865
▁처음에는	-9.18657
▁아무리	-9.18729
리고	-9.18751
렸	-9.18782
▁밤	-9.18815
▁울	-9.18891
▁용	-9.18954
출	-9.19039
▁지하철	-9.19123
▁이랬는데	-9.19138
▁인생	-9.1922
!	-9.19376
▁위해서	-9.19406
▁먹었	-9.19431
▁봤	-9.19451
배	-9.19518
▁군	-9.19543
▁지금도	-9.19552
▁것만	-9.19605
▁그렇다고	-9.19643
▁갔	-9.19652
▁작	-9.19725
▁학점	-9.19725
▁고양이	-9.19728
▁특히	-9.1975
▁엄마한테	-9.19847
▁논	-9.20014
▁다니	-9.20034
론	-9.20051
▁재밌게	-9.20216
▁먹으러	-9.20225
▁연습	-9.20384
▁싼	-9.20423
▁파는	-9.20536
▁그랬지	-9.20695
▁애초에	-9.20695
▁태	-9.20949
▁전혀	-9.21007
▁겨울	-9.21008
▁덜	-9.21085
▁먹지	-9.21175
▁라고	-9.21194
▁작년	-9.21216
▁청	-9.21264
▁유명한	-9.21422
▁가족	-9.215
었거든	-9.21597
▁알바를	-9.21614
▁보는데	-9.2177
▁만드는	-9.21819
▁봤지	-9.21874
▁없다고	-9.22109
백	-9.2215
▁어떡해	-9.22279
▁이까	-9.22329
졌어	-9.22478
개월	-9.22486
▁금방	-9.2254
▁똑같	-9.22607
쳐	-9.22618
▁데는	-9.22665
▁우리도	-9.22772
플	-9.22874
▁자기는	-9.23001
온	-9.2307
▁만난	-9.23096
▁친한	-9.23167
▁급	-9.23172
▁찍어	-9.23213
다니까	-9.23215
근	-9.23238
▁프로	-9.23369
▁운동을	-9.23417
세요	-9.23434
▁메	-9.23518
▁설	-9.23535
▁생각도	-9.23573
▁재밌	-9.23578
이래	-9.23598
▁그래야	-9.23754
거리	-9.23754
▁그대로	-9.238
▁뽑	-9.23909
▁비슷한	-9.24094
▁만든	-9.24167
▁말해	-9.24189
▁마시	-9.24215
입	-9.24258
겨	-9.24282
브	-9.24326
▁만나는	-9.2442
▁스타일	-9.24477
성이	-9.24546
▁같애서	-9.24675
▁피자	-9.24768
▁여름	-9.24816
▁심지어	-9.24886
▁교수님	-9.24911
▁봐서	-9.24967
▁애들도	-9.2507
▁아니다	-9.25184
▁역	-9.2519
▁크리스마스	-9.2539
▁이야기	-9.25456
▁빵	-9.25466
▁기분	-9.25612
▁알았는데	-9.25614
같이	-9.25668
▁무서워	-9.25673
▁걸어	-9.25679
▁해가지구	-9.25839
장이	-9.25923
잖아요	-9.26241
▁담배	-9.26244
▁밥을	-9.2626
속	-9.26304
▁롤	-9.26401
▁하더라	-9.26405
때	-9.26429
▁디	-9.2653
락	-9.2673
▁드는	-9.26763
▁창	-9.26807
▁있었거든	-9.26881
했잖아	-9.26884
시에	-9.26896
▁점점	-9.26972
끼	-9.2698
▁저번	-9.27017
▁사야	-9.27065
▁괜찮을	-9.2715
▁같지	-9.27215
▁가지구	-9.27221
▁유튜브	-9.27227
▁관	-9.27229
강	-9.27261
▁사람들도	-9.27349
돼	-9.27522
▁먹어야	-9.27605
길래	-9.28095
▁그러다	-9.28247
▁막상	-9.28248
▁해외	-9.28358
▁카드	-9.2846
▁가보고	-9.28487
▁의	-9.28531
▁편의점	-9.28637
▁암	-9.28771
▁쌤	-9.28976
줘	-9.28996
▁철	-9.29192
▁있어가지고	-9.29251
글	-9.29374
토	-9.29431
▁버	-9.29455
▁쭉	-9.2948
▁그림	-9.29498
▁꼬	-9.29538
▁택시	-9.29584
▁속	-9.29728
▁엄마랑	-9.29947
▁많아서	-9.30014
석	-9.30049
친	-9.30084
▁정도는	-9.30118
▁됐는데	-9.30149
▁요즘은	-9.30172
▁줬	-9.30209
▁것들	-9.30373
▁뒤	-9.30388
▁않는	-9.30425
하다가	-9.30495
▁시간에	-9.30498
▁표	-9.30691
▁선물	-9.30697
▁챙겨	-9.30705
너	-9.30758
▁마음	-9.30774
▁아니니까	-9.30775
▁봤거든	-9.30794
보단	-9.30853
▁워낙	-9.31015
스트	-9.31018
▁작은	-9.3107
▁그랬던	-9.31117
망	-9.3112
▁그나마	-9.31129
거야	-9.31142
학과	-9.3118
▁얘기가	-9.31304
까지는	-9.31312
▁경우는	-9.31398
▁주말에	-9.31671
▁내고	-9.31748
민	-9.3177
▁그다음	-9.31846
▁머리가	-9.31986
품	-9.32013
초	-9.32067
태	-9.3219
▁나갈	-9.32239
▁이천	-9.32292
▁선택	-9.32387
▁라면	-9.32502
▁있던	-9.32649
▁얘기하는	-9.32674
▁가니까	-9.32936
▁저녁에	-9.3317
▁만나서	-9.33257
▁패딩	-9.33285
말	-9.33362
었잖아	-9.33368
▁보이는	-9.33406
▁종	-9.33416
▁눈이	-9.33502
▁생일	-9.33561
▁만나고	-9.33624
예	-9.33853
에서는	-9.33875
▁들어갈	-9.3403
▁중에서	-9.34051
하러	-9.34115
▁월요일	-9.34117
▁나를	-9.34122
▁그면	-9.34278
▁내용	-9.34294
▁거예요	-9.34363
▁사랑	-9.34464
▁잡고	-9.34466
쯤에	-9.3472
▁일요일	-9.34796
▁부모님	-9.34841
애	-9.34883
▁거기도	-9.34892
설	-9.34933
▁대부분	-9.35219
▁내년	-9.35308
▁몸이	-9.35362
▁인사	-9.35371
▁100	-9.35379
▁살이	-9.35385
님	-9.35513
▁색깔	-9.35915
▁찍고	-9.35919
▁그리구	-9.35933
▁아무도	-9.35996
▁했고	-9.36172
려면	-9.36525
▁했나	-9.36542
▁들어가는	-9.36635
▁채	-9.36757
에서도	-9.36763
각	-9.3682
▁이사	-9.36832
▁맛있	-9.36932
▁너희	-9.37068
이란	-9.37176
▁잡아	-9.37251
▁금요일	-9.37286
▁은데	-9.37425
링	-9.37567
▁눈치	-9.37574
으면은	-9.37662
▁어머니	-9.37676
▁있을까	-9.37716
▁떡볶이	-9.38049
▁안돼	-9.38086
▁거긴	-9.38161
▁일하는	-9.38169
▁기본	-9.38189
름	-9.3823
시는	-9.38254
▁맥주	-9.38318
▁넣어	-9.38342
▁나왔	-9.38347
▁요리	-9.38375
▁바다	-9.38399
어가지고	-9.38406
남	-9.38431
▁경기	-9.38455
▁났	-9.38499
칠	-9.3852
▁먹었는데	-9.38535
▁접	-9.38686
▁주말	-9.38743
▁기억나	-9.38745
▁새로운	-9.38798
▁많으니까	-9.38851
▁그리	-9.39
▁특	-9.39207
▁내년에	-9.3922
▁이래서	-9.39255
▁지짜	-9.39263
갔	-9.39375
키	-9.39751
▁끝	-9.39859
▁어려운	-9.40081
창	-9.40115
▁있냐	-9.40211
▁직	-9.40294
▁자리	-9.40503
▁원래는	-9.40517
▁빠져	-9.40554
며	-9.40554
이었나	-9.40751
▁정리	-9.41019
▁성격	-9.41097
▁일어나	-9.41154
▁같던데	-9.41197
만한	-9.41221
▁있겠지	-9.41237
▁베트남	-9.41259
▁책을	-9.41296
▁다르	-9.41301
청	-9.41455
▁개인	-9.41483
▁모르지	-9.41505
▁결국	-9.41519
▁웃긴	-9.41614
▁문화	-9.41624
▁인정	-9.41646
▁듣	-9.41667
▁돌아가	-9.41725
▁대화	-9.41738
씨	-9.41771
▁그러네	-9.41777
▁시간을	-9.41811
▁동물	-9.41847
▁아이폰	-9.41879
료	-9.4196
▁괜찮은데	-9.42079
▁당장	-9.42188
▁관심이	-9.42248
▁싶고	-9.42313
▁없으면	-9.42333
시고	-9.42457
▁각	-9.42483
▁갔지	-9.42535
▁이거를	-9.42537
▁빠	-9.42596
이었는데	-9.42598
▁기분이	-9.42622
▁아프	-9.42627
▁분이	-9.42662
▁게임을	-9.42671
이네	-9.42702
▁때까지	-9.4271
가주구	-9.42778
자마자	-9.42824
▁팬	-9.42834
▁이따	-9.42882
▁연애	-9.42962
▁여행을	-9.43017
▁하겠지	-9.43097
편	-9.43125
▁라는	-9.43266
▁나오면	-9.43292
▁기대	-9.43356
▁매일	-9.43512
됐	-9.43605
▁공무원	-9.4366
▁나쁜	-9.4367
▁것처럼	-9.43786
끼리	-9.43951
▁학생	-9.43962
▁몰랐어	-9.43997
▁티비	-9.44005
▁저도	-9.44024
▁먹자	-9.44087
▁붙	-9.44089
▁갔잖아	-9.44091
언	-9.44148
▁청소	-9.44246
▁상황이	-9.44368
목	-9.44431
퍼	-9.44557
▁생겼	-9.44865
▁나는데	-9.44905
▁11	-9.44942
▁이해가	-9.45005
▁있었	-9.45023
불	-9.45034
▁휴학	-9.45041
▁들을	-9.45128
케	-9.45167
▁그러더라고	-9.4523
▁그렇다	-9.45466
함	-9.45562
▁직업	-9.45678
▁안데	-9.45703
▁어렵	-9.45774
▁연기	-9.45776
▁그거랑	-9.45814
▁골	-9.45904
▁나가는	-9.46023
▁화장실	-9.46024
▁말은	-9.46105
▁아파	-9.46219
▁가잖아	-9.46311
증	-9.46354
▁경찰	-9.46439
▁요즘에는	-9.46452
▁연락을	-9.46455
▁아닐까	-9.46471
희	-9.46472
▁분위기	-9.4648
▁실제로	-9.46517
▁잘하는	-9.46531
후	-9.46638
▁걔네가	-9.4665
▁모르	-9.46689
▁싶었는데	-9.46689
지가	-9.46952
▁교수님이	-9.46981
습	-9.46994
▁수술	-9.47003
▁경험	-9.4704
만큼	-9.47087
▁저거	-9.47125
립	-9.47163
▁괜찮지	-9.47211
▁시까지	-9.47228
▁이럴	-9.4726
▁계획	-9.4726
▁적은	-9.47332
투	-9.47431
▁정신	-9.47488
▁깜짝	-9.47532
▁필요한	-9.47553
▁받았	-9.47562
▁절	-9.4768
▁어릴	-9.47747
▁그거에	-9.47803
▁취직	-9.47856
▁끝났	-9.47997
▁있단	-9.4802
▁갔던	-9.48087
였지	-9.48108
▁좋게	-9.48164
▁아니었어	-9.48165
▁새벽	-9.48218
▁모르고	-9.48258
▁엄	-9.48316
기로	-9.48323
▁순간	-9.48327
▁성적	-9.48401
▁힘	-9.48603
▁뛰어	-9.48622
▁했으니까	-9.48681
▁친구들이랑	-9.48705
▁역시	-9.48762
▁찌	-9.48804
▁앞에서	-9.48814
▁옆에서	-9.48849
▁월급	-9.49078
▁좋다고	-9.49086
▁갈까	-9.49118
▁할인	-9.49173
▁질	-9.49273
▁샀어	-9.49443
▁언	-9.4946
▁얘기하고	-9.49469
▁이틀	-9.49571
월에	-9.49577
층	-9.49589
▁디자인	-9.49594
▁노트북	-9.49605
▁동생이	-9.49609
격	-9.4966
▁누	-9.4968
▁말하면	-9.5008
▁늘	-9.50166
▁엄마는	-9.50315
▁웃	-9.50355
명이	-9.50376
▁치고	-9.50405
▁뜨	-9.50435
▁살았	-9.50478
봤	-9.50517
▁관리	-9.50545
▁계	-9.50602
▁같다고	-9.50616
▁들었	-9.50658
▁지금까지	-9.50665
▁지역	-9.50741
였던	-9.50773
▁이쁘	-9.50807
▁없어가지고	-9.50827
▁근처에	-9.50913
▁그양	-9.50964
▁물어보	-9.51019
▁색	-9.51053
▁40	-9.5111
▁있다는	-9.51115
▁남았	-9.51136
이면은	-9.51136
▁좋았어	-9.51216
▁헬스	-9.5124
▁재미	-9.51303
▁넘어	-9.51366
▁뭔데	-9.51398
▁후회	-9.51429
▁영화를	-9.51554
▁척	-9.51595
있는	-9.51705
▁됐	-9.51718
▁들었는데	-9.51757
▁50	-9.51846
▁꿈	-9.51953
▁대박	-9.52016
량	-9.52086
줬	-9.52213
▁기사	-9.5242
▁친구들이	-9.52477
었지	-9.52554
먹	-9.52596
▁형은	-9.52649
▁여름에	-9.52676
▁높은	-9.52714
▁이후로	-9.52792
합	-9.52802
▁한두	-9.52854
▁쪽이	-9.52962
▁편이	-9.52986
치고	-9.53041
▁거에요	-9.53265
막	-9.53289
▁올라가	-9.53318
놨	-9.53394
▁노는	-9.53407
▁인천	-9.53461
▁추천	-9.53513
▁차이가	-9.53577
였	-9.53635
▁봤던	-9.5374
적이	-9.53798
▁기계	-9.53801
▁김	-9.53882
▁있었잖아	-9.53956
▁받은	-9.53964
▁정도면	-9.53967
메	-9.54039
▁언니는	-9.54116
▁해봐	-9.54138
▁쉽지	-9.54144
▁좋았	-9.54183
야겠다	-9.54206
▁갖다	-9.54223
▁담	-9.54264
▁경우에는	-9.54276
▁옷을	-9.54366
▁점수	-9.5439
▁않은데	-9.54412
▁사이	-9.54416
▁잘해	-9.54433
▁뭐였지	-9.54457
런	-9.54467
▁걔네는	-9.54467
▁우선	-9.54512
▁생각하면	-9.54542
▁일부러	-9.5456
술	-9.54651
▁들어간	-9.54653
▁수밖에	-9.54795
▁마시고	-9.54804
▁하던데	-9.54812
▁스트레스	-9.5482
▁바쁘	-9.54901
▁하냐	-9.55047
▁신발	-9.5515
▁귀찮	-9.5525
3	-9.55262
▁그러는데	-9.55415
▁노력	-9.55498
▁베	-9.55627
▁요번에	-9.55634
법	-9.55698
▁주변	-9.55757
▁독	-9.55759
▁권	-9.55831
▁강남	-9.55834
▁대로	-9.5585
▁그만큼	-9.55851
▁중이야	-9.55894
▁하여튼	-9.55923
▁배우고	-9.55951
담	-9.56033
▁다니면서	-9.56125
▁15	-9.56134
▁건물	-9.56232
▁마음에	-9.56266
▁알았	-9.56313
학기	-9.56341
▁클	-9.56342
▁체	-9.56436
▁상황	-9.56462
▁그러다가	-9.56478
▁시즌	-9.56629
▁케	-9.56724
▁발표	-9.56802
▁충	-9.56816
▁부분이	-9.56849
▁인터넷	-9.56873
▁세계	-9.56955
▁출근	-9.56968
▁숙소	-9.5697
▁지내	-9.57029
한데	-9.57098
▁멀	-9.57146
▁휴가	-9.57158
했거든	-9.57363
▁지방	-9.5737
▁탄	-9.57378
▁있겠다	-9.57393
슬	-9.57511
▁같더라고	-9.57623
리가	-9.57627
▁내용이	-9.57637
처	-9.57651
▁저희	-9.57896
▁보자	-9.5793
▁쇼핑	-9.58005
▁한대	-9.5805
▁이러면	-9.58176
자가	-9.58183
▁농구	-9.58189
현	-9.58238
▁아파트	-9.58399
▁성격이	-9.58401
꺼	-9.58423
▁학교에	-9.58494
▁재밌을	-9.58523
▁들은	-9.58558
▁배우는	-9.58747
▁재밌었어	-9.58775
▁돈도	-9.59218
▁있지만	-9.59237
▁다리	-9.59239
▁아버지	-9.59302
▁악	-9.5943
▁거거든	-9.59432
▁근처	-9.5949
▁출	-9.59502
▁문자	-9.59599
▁일주일에	-9.5963
▁어려워	-9.59774
▁좋아하고	-9.59836
▁뒤로	-9.59924
▁광고	-9.59933
▁대신	-9.59951
▁맞춰	-9.60029
▁싶다고	-9.60079
▁식당	-9.60209
▁임	-9.60216
▁같아서	-9.60243
을걸	-9.60252
▁월에	-9.60278
▁재미없	-9.60288
▁알겠어	-9.60311
▁갈려고	-9.60317
▁냄새	-9.60319
▁과제	-9.6045
▁경제	-9.60514
▁스무	-9.6055
▁번에	-9.60649
▁넘어가	-9.60682
이거든	-9.60684
▁낫	-9.60737
▁상태	-9.60782
▁뽑아	-9.60834
▁끄치	-9.60888
였거든	-9.60888
▁사업	-9.60976
믄	-9.61042
▁생기	-9.61061
▁지가	-9.61091
▁활동	-9.61125
▁프로그램	-9.61211
▁넣고	-9.61399
▁육십	-9.61414
▁이유	-9.61431
▁꾸	-9.61483
▁물어봐	-9.61494
▁있게	-9.61592
▁해주는	-9.61598
▁그거야	-9.61648
▁오만	-9.61658
▁하겠다	-9.61761
▁거래	-9.61846
해야지	-9.61896
▁A	-9.61926
▁쎄	-9.61961
▁맘에	-9.62144
해도	-9.62161
▁지나가	-9.62243
▁털	-9.62266
▁젤	-9.62364
▁맛집	-9.62435
▁정확히	-9.6249
▁퍼	-9.62496
▁가격	-9.62504
▁연락이	-9.6252
▁쪼	-9.62583
▁들어오	-9.62687
▁시장	-9.62903
습니다	-9.62924
▁화장	-9.62952
▁해보	-9.63005
▁합격	-9.63045
▁용돈	-9.63229
▁라	-9.63277
▁쉽게	-9.63316
▁얘는	-9.6333
밥	-9.63336
겠다고	-9.63338
지를	-9.63383
▁거라	-9.63426
▁사서	-9.63465
▁불러	-9.63521
▁대학원	-9.63543
▁바뀌	-9.63566
냐면	-9.63677
▁있었지	-9.63685
▁평소에	-9.63697
하긴	-9.63716
▁원하는	-9.63731
▁강의	-9.63732
▁그러게	-9.63956
▁않지	-9.63984
▁말라고	-9.64019
▁서울대	-9.64023
▁가봤어	-9.64042
▁나보다	-9.64046
▁기간	-9.64112
▁보험	-9.64137
▁친구는	-9.642
▁나왔는데	-9.64303
▁몰	-9.64332
▁좋아서	-9.64402
▁얘기할	-9.64493
▁테	-9.64506
▁인스타	-9.64506
▁넣	-9.64514
킹	-9.64516
▁직장	-9.64591
▁왠지	-9.64711
▁국가	-9.64753
▁운	-9.64767
▁헬스장	-9.64787
▁많았	-9.64921
▁상관없	-9.65054
▁합	-9.65102
▁홍	-9.65119
▁여자가	-9.65291
▁데도	-9.65293
겠지만	-9.65358
▁타는	-9.65361
▁봤잖아	-9.65384
▁거리	-9.65414
▁할라고	-9.65446
▁과외	-9.65489
▁써야	-9.65611
▁집중	-9.65625
볼	-9.65644
▁안경	-9.65691
▁날에	-9.65747
▁사촌	-9.65793
감이	-9.6585
▁그니깐	-9.65876
▁돼요	-9.65878
▁상담	-9.65882
▁떼	-9.65902
기를	-9.65908
▁싫은	-9.65924
▁처	-9.66036
▁싸게	-9.66089
▁이쪽	-9.66134
순	-9.6616
▁모아	-9.66216
▁애들한테	-9.66228
▁삼성	-9.66258
▁하나씩	-9.66258
▁먹는데	-9.66458
▁바꿔	-9.66466
▁갈래	-9.66519
▁거네	-9.66567
▁끊어	-9.66603
▁미세먼지	-9.66684
든데	-9.6688
테	-9.66884
▁합정	-9.66939
▁했었	-9.66946
▁멀리	-9.66948
▁들어갔	-9.67008
▁혼	-9.67022
겠	-9.67028
▁약속	-9.67074
▁작업	-9.67108
쓰	-9.67212
▁사주	-9.67264
▁사람한테	-9.67324
▁따라서	-9.67346
탕	-9.67373
▁목요일	-9.67374
▁목표	-9.67383
▁희	-9.67523
▁말할	-9.67554
▁그것만	-9.67576
커	-9.67604
▁내려	-9.67665
▁내려가	-9.67687
▁밀	-9.67796
▁느끼	-9.67877
십	-9.67891
▁예약	-9.67949
▁뉴스	-9.67977
외	-9.68022
▁아저씨	-9.68062
들한테	-9.68096
되고	-9.681
평	-9.68185
▁오천	-9.68199
▁봐봐	-9.68365
▁복학	-9.68374
▁가끔씩	-9.6838
▁나가고	-9.68436
▁좋아하는데	-9.68502
▁껴	-9.68559
력이	-9.68618
▁가자고	-9.68677
▁트	-9.68721
▁자신	-9.68789
▁자전거	-9.68922
▁계산	-9.68956
▁학과	-9.68961
거든요	-9.69013
▁국어	-9.69019
다매	-9.69087
녀	-9.69127
▁그분	-9.69147
▁층	-9.69194
▁되거든	-9.69203
▁검	-9.6921
▁무서운	-9.69313
▁당연하지	-9.69418
▁빨	-9.69475
▁해줘	-9.69547
▁안에서	-9.6955
▁일어나서	-9.69608
▁혼자서	-9.69614
▁하라고	-9.69657
▁언어	-9.69738
▁마셔	-9.69744
▁만들고	-9.69834
탄	-9.69957
▁나갔	-9.6998
▁학교를	-9.70039
▁오빠는	-9.70087
▁오랜만에	-9.70101
▁꿀	-9.7026
▁스타일이	-9.70278
정이	-9.70349
▁없었	-9.70487
▁충분히	-9.70498
▁반에	-9.70542
▁헐	-9.70551
▁니네	-9.70559
열	-9.70581
▁했으면	-9.70594
▁지나	-9.70618
▁중간	-9.70664
봉	-9.70676
▁검사	-9.70761
▁차가	-9.70809
튼	-9.70878
천원	-9.71016
▁찾	-9.71043
▁편입	-9.71051
▁레	-9.71092
▁똑같애	-9.7111
▁밖에서	-9.71122
▁돼가지고	-9.71204
▁나머지	-9.71214
▁고생	-9.7125
▁그랬거든	-9.71295
▁캐릭터	-9.71295
▁걸려	-9.71406
▁그러잖아	-9.71532
▁힘들지	-9.71597
▁해봤	-9.71602
▁많을	-9.71653
▁그때부터	-9.71719
▁오지	-9.7174
▁맞춰서	-9.71745
▁모르겠고	-9.71794
▁추가	-9.71825
▁예쁜	-9.71899
▁누나가	-9.72223
▁없나	-9.72362
▁번호	-9.72377
▁옛날에는	-9.7238
▁편집	-9.72393
▁소주	-9.7241
▁그땐	-9.72423
▁보이	-9.72493
▁스토리	-9.72507
▁팔아	-9.72543
▁신촌	-9.72698
▁광	-9.72749
▁선배	-9.72751
션	-9.7282
▁염색	-9.72915
▁곳이	-9.72917
▁이것도	-9.72928
대가	-9.72954
▁편하게	-9.72957
쁠	-9.73088
▁가만히	-9.73116
▁오면은	-9.73166
▁서른	-9.73196
▁겁나	-9.73223
▁자세	-9.73295
▁넘게	-9.73404
▁마지막에	-9.7372
▁과목	-9.73731
▁웃기	-9.73744
억	-9.74035
▁의사	-9.74108
▁멀어	-9.7418
▁거라서	-9.74201
▁미술	-9.74328
▁의미	-9.74335
▁그랬나	-9.74344
▁있는지	-9.74385
▁날짜	-9.74417
▁느	-9.74423
▁현실	-9.74448
▁나보고	-9.74473
▁걔한테	-9.7449
될	-9.74511
▁들어가면	-9.74531
올	-9.74539
▁가기로	-9.74658
▁난리	-9.74719
▁힘들었	-9.74751
▁클럽	-9.74762
블	-9.74867
▁표현	-9.74884
▁만큼	-9.74935
▁장학금	-9.74966
▁했더니	-9.75184
▁오늘은	-9.75198
머	-9.7523
▁짓	-9.75259
달라고	-9.75275
팔	-9.75298
▁연예인	-9.75314
▁할아버지	-9.75346
▁겨울에	-9.75409
▁기술	-9.75433
▁쌤이	-9.75469
꼬	-9.75518
▁못해	-9.75589
▁학교가	-9.75659
덕	-9.75783
▁이만	-9.75883
촌	-9.75947
별	-9.76082
보니까	-9.76091
▁기업	-9.76104
가주고	-9.76114
▁반대	-9.76184
했다고	-9.76187
곡	-9.76189
짜	-9.76194
▁봤다	-9.76218
▁다이어트	-9.7622
▁이따가	-9.76331
▁칠십	-9.76452
▁배워	-9.76534
▁그때도	-9.76587
▁큰일	-9.76611
▁됐지	-9.76659
▁쉬는	-9.76661
▁나오잖아	-9.76664
▁데리고	-9.76684
줘야	-9.76738
채	-9.76743
▁부모님이	-9.76847
▁영화가	-9.76865
▁않았나	-9.7704
▁죽을	-9.77152
▁전문	-9.77172
▁했다고	-9.77211
▁말했잖아	-9.7722
▁배가	-9.77253
▁친구도	-9.77264
▁콘서트	-9.77277
▁가방	-9.77378
▁보다가	-9.77405
셨어	-9.7745
▁거짓말	-9.7749
▁신고	-9.77502
▁얼굴이	-9.77584
▁돌아	-9.77752
▁있던데	-9.7779
봤자	-9.77823
▁쟤	-9.77901
악	-9.77946
▁팔십	-9.77955
▁취	-9.77985
▁여자애	-9.77994
▁있었고	-9.78033
▁일본어	-9.78091
수가	-9.781
▁카메라	-9.7813
논	-9.78152
▁받았어	-9.78196
▁되겠지	-9.78223
▁배운	-9.78228
있어	-9.78232
▁집을	-9.78248
▁만났	-9.78328
▁캐	-9.78438
▁가격이	-9.78446
힌	-9.7856
▁분명히	-9.78571
1	-9.78587
표	-9.78611
▁개인적으로	-9.78614
▁바지	-9.78623
▁아이까	-9.78684
였잖아	-9.78822
▁자유	-9.78937
▁옆	-9.78966
▁도서관	-9.78992
던가	-9.78997
영이	-9.79029
▁떨어졌	-9.7904
▁만화	-9.79102
진이	-9.79107
▁주로	-9.79118
▁취미	-9.79314
▁있기	-9.7932
▁인간	-9.79343
▁많다	-9.79407
▁스타	-9.79432
▁돈은	-9.79448
▁졸	-9.79455
▁곧	-9.79461
▁나오지	-9.79461
▁수요일	-9.79554
▁스키	-9.79568
▁원이	-9.79586
▁쓰레기	-9.79643
▁연극	-9.79666
▁재미가	-9.79673
▁어디로	-9.79717
▁남는	-9.79735
▁종류	-9.79849
▁좋긴	-9.7986
▁휴	-9.79883
▁만약	-9.79888
▁사용	-9.79934
랜	-9.79957
▁것들이	-9.80068
▁글쎄	-9.80081
려서	-9.80102
어야	-9.80104
▁엄마도	-9.8012
▁슬	-9.80149
▁아픈	-9.80201
▁사람들한테	-9.80212
따	-9.8026
▁걸리	-9.80262
▁싶긴	-9.80308
▁결과	-9.80313
▁편하	-9.80484
▁땅	-9.80492
▁시골	-9.80597
▁심해	-9.80603
▁무섭	-9.8066
인이	-9.8069
령	-9.80736
▁불편하	-9.80742
▁C	-9.80766
▁보네	-9.80826
▁먹어도	-9.80838
었다	-9.80873
▁화가	-9.80904
▁소개	-9.80909
값	-9.81047
▁꽃	-9.81077
▁빌려	-9.81122
렸어	-9.81126
▁먹기	-9.81136
▁해결	-9.8115
▁떡	-9.81268
▁모르니까	-9.81343
▁비슷하	-9.81392
츠	-9.81396
▁준비를	-9.81405
형이	-9.81642
▁영국	-9.81675
▁했대	-9.8168
이어서	-9.81683
▁해주고	-9.81809
▁똥	-9.81833
잡	-9.81912
▁나만	-9.81957
르고	-9.81965
▁명은	-9.81975
승	-9.82116
▁워	-9.82118
▁아니냐	-9.82179
▁처음부터	-9.82185
▁최고	-9.82223
▁남자가	-9.82232
▁한다는	-9.82234
▁본인	-9.82303
▁부분	-9.82493
▁웃겨	-9.82526
▁사진을	-9.82586
▁아닐	-9.82609
▁정해	-9.82613
서는	-9.82633
▁한국에서	-9.82662
족	-9.82691
▁이것저것	-9.82736
▁질문	-9.82771
이긴	-9.82779
▁만나면	-9.82829
▁괜찮다	-9.82919
이트	-9.82921
▁넷플릭스	-9.82961
▁않잖아	-9.82963
▁날씨	-9.83066
▁필요가	-9.83088
쳤	-9.83103
봤어	-9.83113
▁새벽에	-9.83115
▁찍는	-9.83186
▁입시	-9.8319
▁있으	-9.83194
▁길게	-9.83202
▁모르겠지만	-9.83211
▁풀어	-9.8325
▁남은	-9.83258
▁결정	-9.83261
팅	-9.83281
▁봐야지	-9.83352
▁해줄	-9.83404
▁최대한	-9.83464
왔	-9.83535
▁중국어	-9.83544
▁말라	-9.83591
▁왕	-9.83602
▁전부	-9.83617
▁이래가지고	-9.83626
▁칼	-9.83667
하자	-9.83749
▁개를	-9.83784
▁하나가	-9.83948
▁메뉴	-9.84095
▁화요일	-9.841
▁최	-9.84116
▁단어	-9.84117
▁일하고	-9.8421
▁쏘	-9.84248
▁일은	-9.84253
▁스키장	-9.84256
▁받아야	-9.84423
냥	-9.84541
▁돈으로	-9.84694
▁헤	-9.84846
▁어플	-9.84932
▁걔네들	-9.8494
▁경영	-9.84947
연이	-9.84954
2	-9.8498
▁개가	-9.85017
북	-9.85025
▁하시	-9.85035
▁쉬고	-9.85139
▁문과	-9.85151
▁부르	-9.85191
▁선수	-9.85291
▁이용	-9.85364
▁시대	-9.85414
▁아니지만	-9.85457
현이	-9.8546
▁들면	-9.85465
▁도시	-9.85569
▁이과	-9.85615
▁정돈	-9.85628
▁촬영	-9.85698
▁폰	-9.85765
▁가까운	-9.85831
▁봄	-9.8589
▁웹툰	-9.85929
▁되더라고	-9.85982
▁없대	-9.86033
▁된다는	-9.86087
능	-9.86088
돌	-9.86181
▁아우	-9.86189
▁상상	-9.86245
▁넓	-9.86263
▁술집	-9.86282
▁끝까지	-9.86306
았어	-9.86309
▁싹	-9.8638
▁느낀	-9.86396
▁네이버	-9.86398
▁거처럼	-9.86428
▁아빠는	-9.86444
▁물어봤	-9.86548
▁야구	-9.86618
▁서울에	-9.86628
▁차를	-9.86693
▁주문	-9.86838
▁출발	-9.8688
▁만에	-9.86884
▁폭	-9.86954
▁배울	-9.86961
▁만한	-9.86979
▁해봤어	-9.87067
▁젊은	-9.87095
▁모자	-9.87121
수록	-9.87125
자고	-9.87162
▁답	-9.87232
▁이모	-9.87245
▁나고	-9.8725
▁피아노	-9.8733
▁아빠한테	-9.87346
▁그때가	-9.87406
라니까	-9.87442
▁라인	-9.87451
▁환	-9.87492
▁쓰면	-9.87519
▁행사	-9.87576
▁쪽에서	-9.87581
▁끄	-9.87608
▁갑	-9.87666
▁갔거든	-9.87674
▁하셨	-9.87731
▁푸	-9.87737
▁왔잖아	-9.87875
▁집은	-9.87913
▁쓰지	-9.87963
▁맥	-9.88021
▁소리야	-9.88033
▁계약	-9.8804
들이랑	-9.88045
▁여성	-9.88178
움	-9.8823
▁계시	-9.88274
▁난다	-9.88287
▁곡	-9.88288
▁지고	-9.88315
▁심하	-9.88331
▁나쁘	-9.88336
▁호주	-9.88341
▁걱정이	-9.88358
탈	-9.88482
▁웬만하면	-9.88513
▁되냐	-9.88575
▁방금	-9.88609
▁붙어	-9.88622
송	-9.8863
▁요새는	-9.88645
▁전체	-9.88904
▁좋아하지	-9.88996
▁자연	-9.89083
사가	-9.89088
골	-9.8912
▁빠지	-9.89133
▁하나만	-9.89156
비가	-9.89177
▁명이서	-9.89178
닥	-9.89183
▁완전히	-9.89235
▁항공	-9.89239
▁추워	-9.89291
▁마리	-9.89297
패	-9.89436
삼	-9.89454
▁붙었	-9.89489
▁되겠네	-9.89491
▁송	-9.89495
▁자기도	-9.8952
▁끼고	-9.89551
▁졸업식	-9.89625
▁배고파	-9.89708
▁침대	-9.8971
었	-9.8973
▁먼	-9.8981
▁싫어하는	-9.89846
하더라고	-9.899
▁얘들	-9.89916
했나	-9.89951
활	-9.89965
▁유명하	-9.89969
찌	-9.90003
▁이백	-9.90065
▁야간	-9.90152
▁유투브	-9.9019
▁쉬운	-9.90232
째	-9.90253
▁대구	-9.90365
▁입을	-9.90395
▁떨어져	-9.90401
져서	-9.9041
규	-9.90419
빵	-9.90426
▁TV	-9.90433
▁이러면은	-9.90476
▁할라	-9.90481
▁그르	-9.90493
▁죽어	-9.90511
▁입어	-9.9054
▁들어야	-9.90618
▁한참	-9.90628
▁높아	-9.90675
▁알아보	-9.90767
▁뽑는	-9.90862
▁앉아서	-9.90889
▁모르는데	-9.90889
T	-9.90916
▁꼐속	-9.90919
▁가깝	-9.90937
▁없거든	-9.90985
▁될까	-9.90997
▁해본	-9.9102
▁읽고	-9.91162
▁확인	-9.91201
▁충격	-9.91263
▁가봤	-9.91309
▁사람들이랑	-9.91375
▁주제	-9.91407
얼	-9.91407
▁전화를	-9.91434
▁관계	-9.91488
▁하던	-9.91489
▁말해서	-9.91531
▁하나는	-9.91532
▁여자애들	-9.91567
▁생겼어	-9.91578
견	-9.91625
▁아니라고	-9.91667
▁끝나면	-9.91678
▁교양	-9.91678
분이	-9.91743
▁키로	-9.91823
▁많았어	-9.91927
▁목소리	-9.91963
▁돌려	-9.91987
페	-9.91993
▁놀아	-9.91996
▁일케	-9.92014
▁들어가고	-9.92069
▁무시	-9.92097
▁춤	-9.92098
▁받아서	-9.92145
▁모르겠네	-9.92145
▁이쁜	-9.92154
▁어딜	-9.92157
▁시험을	-9.92166
염	-9.92175
쪽	-9.92197
▁맞나	-9.92274
▁사면	-9.92278
▁브	-9.9228
듯이	-9.92424
▁배웠	-9.92432
▁하시는	-9.92449
▁노래방	-9.92551
하냐	-9.92553
빙	-9.9259
▁대체	-9.92628
▁오사카	-9.92639
▁렌즈	-9.92639
▁녹음	-9.92661
▁성공	-9.92862
▁관련	-9.93067
▁싸우	-9.93095
▁아빠랑	-9.93095
▁냈	-9.93098
었나	-9.93155
▁눈에	-9.9324
▁신기하다	-9.93246
▁나오는데	-9.93307
님이	-9.93323
▁데로	-9.93328
▁공부하고	-9.93359
▁쉽	-9.93377
▁싫다	-9.93504
▁해갖고	-9.93506
▁없네	-9.93518
▁났어	-9.93522
▁읽어	-9.93541
▁좋아해서	-9.93563
▁시키	-9.93576
▁훈련	-9.93612
▁둘이서	-9.93659
▁귀찮아	-9.93766
▁맞고	-9.93803
▁해요	-9.93844
짜리	-9.93884
▁알잖아	-9.93894
▁없어요	-9.93919
▁근무	-9.93987
▁그쪽으로	-9.93994
▁군인	-9.94019
▁했었거든	-9.94061
▁앉아	-9.94077
▁재밌었	-9.94113
▁거기에서	-9.94149
▁시부터	-9.94166
▁하러	-9.9422
▁배그	-9.94261
젠	-9.94314
▁유학	-9.9437
▁브랜드	-9.94391
▁결	-9.94402
▁뿌	-9.94457
레이	-9.94531
▁곱창	-9.94644
육	-9.94663
▁길이	-9.94669
▁계란	-9.94682
▁파티	-9.94704
이에요	-9.94716
결	-9.9472
▁도착	-9.94747
▁먹어서	-9.94875
▁스카이캐슬	-9.94894
▁썼어	-9.94894
▁PC	-9.94894
▁스스로	-9.94895
▁핫	-9.9494
▁폐	-9.9498
▁올라오	-9.94985
▁않았냐	-9.95021
▁대만	-9.95058
▁B	-9.95123
▁없었는데	-9.95137
짝	-9.95147
▁설명	-9.9519
▁모임	-9.95241
▁올라	-9.95246
록	-9.95298
▁전역	-9.95301
▁탔	-9.95353
여가지고	-9.95355
▁군데	-9.9538
▁키워	-9.95458
▁달라고	-9.95489
하거든	-9.95547
지면	-9.95553
▁삐	-9.95563
▁미안	-9.95566
▁극	-9.95617
▁치는	-9.95643
▁생각하	-9.95679
▁사실은	-9.95685
▁끝난	-9.95686
▁멋있	-9.9576
▁짤	-9.95866
달라	-9.95867
▁낼	-9.95869
▁먹으니까	-9.95874
▁편해	-9.95902
▁삼만	-9.95911
▁케이스	-9.95983
▁궁금해	-9.96117
▁주면	-9.96139
책	-9.96196
▁언니랑	-9.96212
▁얘기한	-9.96226
▁자체	-9.96281
▁모르겠	-9.96399
▁오백	-9.96414
범	-9.96488
▁거였어	-9.96519
▁중요하	-9.96528
▁공부하는	-9.96606
▁있잖아요	-9.96613
▁같아요	-9.96629
▁예뻐	-9.96695
▁해줬	-9.96719
▁다녀야	-9.96729
▁열두	-9.96754
베	-9.96799
▁동기	-9.96808
에다	-9.96853
▁교수	-9.96877
▁생각했는데	-9.96891
▁하는지	-9.96938
꾸	-9.96956
겠는데	-9.9713
났	-9.97193
느냐	-9.97201
▁만족	-9.97258
▁맞아요	-9.97297
▁외국인	-9.97298
벌	-9.97308
▁놔	-9.9741
▁예쁘	-9.97445
▁저렇게	-9.97462
▁적응	-9.97484
▁어린	-9.97524
▁됐다	-9.97593
▁정보	-9.9762
▁나면	-9.97623
▁맘	-9.97697
▁프랑스	-9.97722
▁않았는데	-9.97753
▁짱	-9.97777
▁게임이	-9.97791
▁다닌	-9.97837
할까	-9.97839
▁올리	-9.97857
▁만들었	-9.97872
▁가져가	-9.9791
▁댓글	-9.97983
였다	-9.98016
▁행	-9.98019
▁몰랐	-9.98137
을까	-9.98164
▁싶기도	-9.98313
▁과일	-9.9833
▁했었잖아	-9.98383
▁하겠어	-9.98395
▁고모	-9.98476
▁알려주	-9.98492
삭	-9.98506
▁홍콩	-9.98509
▁그분이	-9.98638
▁놀았	-9.98649
클	-9.98652
먼	-9.98655
▁가본	-9.98706
▁황	-9.98708
▁해봐야	-9.9872
▁아르바이트	-9.98771
▁벽	-9.98819
놨어	-9.98984
▁같거든	-9.98985
▁짝	-9.98993
▁어우	-9.99024
▁느껴	-9.99067
▁있구나	-9.99108
▁대학을	-9.99186
▁이제는	-9.9926
으니깐	-9.99319
▁벌어	-9.99364
▁기름	-9.99376
▁싶었어	-9.99379
▁코트	-9.99436
▁쩌번에	-9.99564
▁물어보고	-9.99663
▁가정	-9.99716
▁아래	-9.99725
▁할지	-9.99773
▁정치	-9.99782
▁설날	-9.99792
▁본인이	-9.99894
▁있네	-10.0001
▁들어와	-10.0002
▁김치	-10.0003
환	-10.0014
▁짜리	-10.0014
▁깔	-10.0017
▁오라고	-10.0022
장님	-10.0027
▁이러는데	-10.0028
▁발전	-10.0028
▁어트게	-10.0037
▁억	-10.0041
▁해놓고	-10.0044
▁키우	-10.0048
▁회사에서	-10.0052
▁상관	-10.0065
▁관련된	-10.0065
▁우유	-10.0072
P	-10.009
▁매장	-10.0092
▁쪽은	-10.0096
에선	-10.0106
▁바꿀	-10.0117
▁남아	-10.0122
▁부담	-10.013
▁나와가지고	-10.0137
▁연구	-10.0139
▁분야	-10.014
▁피부	-10.014
▁스포츠	-10.0144
▁그전에	-10.0158
민이	-10.0159
▁하든	-10.0161
▁생각에는	-10.0167
겠냐	-10.0171
▁매운	-10.0177
▁누구랑	-10.0182
▁낸	-10.0188
▁자는	-10.0193
▁뻔	-10.0207
치는	-10.0212
든지	-10.0217
▁보니깐	-10.0218
▁닫	-10.0219
▁했지만	-10.0225
▁내는	-10.0231
▁많더라고	-10.0231
▁무리	-10.0237
▁귀엽	-10.0242
▁상관이	-10.0243
▁한국에	-10.0247
▁힘들고	-10.0253
▁이번에는	-10.0259
▁구십	-10.026
▁몸에	-10.0262
▁비교	-10.0265
▁독일	-10.0265
▁작품	-10.0282
▁붙여	-10.0283
▁소설	-10.0287
▁갔었는데	-10.0296
▁좋아하잖아	-10.0296
▁꼴	-10.03
▁미래	-10.03
▁졸업하고	-10.0302
끔	-10.0304
▁터	-10.0306
▁거보다	-10.0311
▁얘기하	-10.0317
▁있음	-10.032
▁봉사	-10.0322
네요	-10.0324
광	-10.033
▁나아	-10.0331
▁도움이	-10.0334
▁맞을	-10.0335
▁십만	-10.034
▁들어온	-10.0344
▁없었던	-10.0348
▁일도	-10.035
아서	-10.0351
▁애는	-10.0354
▁올렸	-10.0367
▁석	-10.0371
깐	-10.0372
▁치즈	-10.0372
▁볼까	-10.0373
▁낙	-10.0377
▁면	-10.0386
▁북	-10.0388
▁편한	-10.0391
해가지구	-10.0396
▁했단	-10.0399
▁문제는	-10.04
▁뛰	-10.0403
▁이상해	-10.0405
▁없더라고	-10.0406
▁맛있었어	-10.0412
점이	-10.0416
▁생각한	-10.0416
▁동영상	-10.0418
려나	-10.0421
▁초밥	-10.0421
▁말씀	-10.043
▁다니면	-10.0431
▁몰랐는데	-10.0431
필	-10.0432
▁가가	-10.0433
극	-10.0435
▁단기	-10.0437
▁이랬어	-10.0446
▁피시방	-10.0446
▁한창	-10.0447
하네	-10.0454
▁해봤는데	-10.0456
▁전까지	-10.0457
▁각자	-10.0467
▁감정	-10.0469
▁이랬더니	-10.0474
▁인기	-10.0478
▁연결	-10.0479
▁언니도	-10.0484
딩	-10.0492
잖	-10.0495
▁대회	-10.0502
▁백화점	-10.0502
들끼리	-10.0509
하거나	-10.0515
▁삼백	-10.0519
▁때만	-10.0523
▁아유	-10.053
▁만들어서	-10.0533
▁시간도	-10.0534
기만	-10.0536
▁녹	-10.0537
▁장사	-10.0539
더라구	-10.0539
▁수업을	-10.0542
▁그런지	-10.0544
▁퇴근	-10.0559
었고	-10.0561
▁닭	-10.0561
▁성인	-10.0562
▁국내	-10.0568
▁물건	-10.0569
▁맞았	-10.0573
잔	-10.0573
▁신기하	-10.0577
▁빡	-10.0586
식이	-10.0591
독	-10.0599
▁얘기도	-10.0603
▁은근	-10.0615
▁걸린	-10.0617
▁있었다	-10.0618
5	-10.0618
▁알아보고	-10.0621
▁페	-10.0629
▁방법	-10.0636
▁나니까	-10.0639
▁넘었	-10.064
▁오케이	-10.0641
▁생각할	-10.0648
▁정시	-10.0649
득	-10.0649
▁하거나	-10.0653
▁포기	-10.0656
▁줘야	-10.0656
슨	-10.0657
▁윤	-10.0669
▁미안해	-10.0669
▁찍은	-10.0672
▁스터디	-10.0672
▁면허	-10.0672
▁날이	-10.0676
▁사람이랑	-10.0676
▁과학	-10.0679
▁입는	-10.0684
▁말하고	-10.0685
▁떨어진	-10.0689
▁사장님	-10.0696
▁찐	-10.0699
왕	-10.0701
▁수원	-10.0706
▁필요하	-10.0717
▁낳	-10.0725
하라고	-10.0727
▁도쿄	-10.0729
▁기능	-10.0734
▁틀	-10.074
▁보여주	-10.0742
▁빈	-10.0743
▁먹잖아	-10.0747
▁결혼을	-10.0747
▁인까	-10.0748
▁하네	-10.0751
▁집안	-10.0755
▁됐을	-10.0756
장을	-10.0764
▁행동	-10.0764
▁나두	-10.0766
▁종이	-10.077
▁켜	-10.0771
▁포장	-10.0775
하시는	-10.0777
▁애니메이션	-10.0787
둥	-10.0787
▁말고는	-10.079
죽	-10.0791
일이	-10.0793
▁나오니까	-10.0799
까지만	-10.0801
▁길어	-10.0811
▁군대에서	-10.0812
▁내야	-10.0813
찬	-10.0814
▁패	-10.0814
▁애기들	-10.0816
▁왔을	-10.0841
▁말이지	-10.0841
▁뭐냐면	-10.0845
▁버는	-10.0857
▁보잖아	-10.0861
▁그랬다	-10.0865
돈	-10.0869
▁샀는데	-10.0874
▁경우가	-10.0876
▁평일	-10.088
치가	-10.0884
▁들리	-10.0888
시까지	-10.0891
▁오후	-10.0891
▁전기	-10.0898
▁일정	-10.0907
셔서	-10.0912
▁아깝	-10.0917
할려고	-10.0921
▁통해서	-10.0921
어요	-10.0929
▁먹었지	-10.093
▁영화는	-10.0936
▁유행	-10.0944
▁싫어해	-10.0944
▁쓰리	-10.0946
봤는데	-10.0948
▁싶었	-10.0948
더라구요	-10.0951
▁어떡하지	-10.0952
▁구경	-10.0961
보는	-10.0963
▁아니에요	-10.0964
▁공익	-10.0965
▁진행	-10.0971
▁아직까지	-10.0973
▁개봉	-10.0974
▁마실	-10.0976
▁치면	-10.0977
▁어제도	-10.0981
이든	-10.0982
▁으응	-10.0993
▁틀어	-10.0993
해주	-10.0993
▁얘기하면	-10.0996
▁해야겠다	-10.1001
▁바꾸	-10.1009
든가	-10.1019
▁어디야	-10.1019
▁사과	-10.102
▁도와주	-10.102
리스	-10.1027
▁그래요	-10.104
▁직원	-10.1049
▁고등학생	-10.105
▁자리가	-10.1051
▁아쉽	-10.1052
다니	-10.1058
잉	-10.1058
주의	-10.1059
▁나간	-10.1066
도록	-10.1067
▁테니까	-10.1069
▁어깨	-10.1069
▁키가	-10.1074
▁긴	-10.1075
▁등록	-10.108
▁너의	-10.1084
익	-10.1085
▁배달	-10.1088
이었던	-10.1088
랐	-10.1091
▁이뻐	-10.1092
▁보냈	-10.1093
다는데	-10.1093
▁침	-10.1111
▁학원을	-10.1115
▁탁	-10.1126
▁건대	-10.1138
▁예술	-10.1144
D	-10.1149
▁유지	-10.1154
▁서울에서	-10.1159
▁타면	-10.1168
쩍	-10.1169
▁상대	-10.1171
▁생각하는데	-10.1175
▁원인가	-10.1175
▁업	-10.1179
▁타임	-10.118
▁역사	-10.1194
댔	-10.1199
▁서비스	-10.1199
별로	-10.1205
▁다르지	-10.1208
▁찾아보	-10.1209
▁기회	-10.121
▁홀	-10.1211
▁히	-10.1213
▁입장	-10.1215
▁부모	-10.1216
▁친하	-10.122
▁심한	-10.1225
닝	-10.1229
▁말에	-10.1237
쉬	-10.1241
겠구나	-10.1244
▁궁금한	-10.125
▁힘들다	-10.1258
▁엉	-10.1262
▁사이즈	-10.1263
▁실습	-10.1263
▁월세	-10.1266
▁방에	-10.1268
▁싶으면	-10.1271
▁맞네	-10.1274
▁있어도	-10.1276
▁엔	-10.1277
▁내내	-10.1284
▁그러던데	-10.1286
▁화장품	-10.1291
▁여기는	-10.1297
받고	-10.13
▁무료	-10.1302
▁죽는	-10.1305
랑은	-10.1309
▁가라	-10.1311
▁듣기	-10.1315
▁상관없어	-10.1321
▁영어를	-10.1321
변	-10.1323
▁거기다	-10.1323
▁들어왔	-10.1324
▁검색	-10.1325
▁좋겠	-10.1326
▁아빠도	-10.1329
던지	-10.1338
▁거면은	-10.1343
▁하도	-10.1343
기에는	-10.1349
▁있더라	-10.135
▁갈라	-10.1352
향	-10.1363
▁줬어	-10.1368
▁스카이	-10.1382
▁바꼈	-10.1388
▁옷이	-10.1388
▁오니까	-10.1388
▁갔었	-10.139
니다	-10.1391
▁분위기가	-10.1393
▁정해져	-10.1395
▁얘기는	-10.1395
▁튀	-10.1404
▁경우도	-10.1404
▁아직은	-10.1405
▁이상하게	-10.1409
t	-10.1412
▁귀여워	-10.1412
▁이르케	-10.1412
▁페이스북	-10.1412
▁준다	-10.1416
▁형이랑	-10.1426
▁쳤	-10.1433
누	-10.1434
▁그렇잖아	-10.1442
▁오버워치	-10.1443
▁알게	-10.1446
놔	-10.1449
▁것보다	-10.1457
더라도	-10.146
▁그렇게까지	-10.1478
▁공부할	-10.1483
▁널	-10.1484
▁모양	-10.1485
▁믿	-10.1485
팀	-10.1487
▁대단한	-10.1506
놔야	-10.1518
▁있구	-10.1521
▁기억에	-10.1523
댄	-10.1525
▁한단	-10.1531
▁기간이	-10.1532
▁좋잖아	-10.1536
▁느끼는	-10.1536
▁논술	-10.1538
▁뼈	-10.154
▁거구나	-10.1542
▁의대	-10.1543
▁아이가	-10.1543
▁기회가	-10.1544
▁형도	-10.1545
M	-10.1553
▁되기	-10.1555
▁사장님이	-10.1561
▁해줘야	-10.1564
▁비슷해	-10.1568
갑	-10.1571
▁생각해보면	-10.1577
▁남들	-10.1577
▁필	-10.1582
▁우리끼리	-10.159
에게	-10.1595
보면	-10.1603
▁오빠랑	-10.1605
▁온천	-10.1613
택	-10.1616
▁기차	-10.1624
렁	-10.1629
▁신기한	-10.163
▁바라	-10.163
▁남자애들	-10.1634
▁평생	-10.1635
▁여기가	-10.1639
▁정상	-10.164
▁실수	-10.1643
▁프	-10.1648
이었거든	-10.1651
▁느꼈	-10.1656
▁공장	-10.1657
▁우리한테	-10.1657
▁잤어	-10.1661
▁파스타	-10.1663
▁오래됐	-10.1673
▁걸어가	-10.1673
▁완	-10.1675
▁봉	-10.1677
▁현대	-10.168
▁익	-10.1683
▁루	-10.1683
▁햄버거	-10.1692
릭	-10.1692
▁힘들었어	-10.1693
했고	-10.1695
▁친구한테	-10.1705
▁열한	-10.1707
▁가져	-10.1711
▁산다	-10.1716
▁저런	-10.1721
▁팔고	-10.1723
▁유치원	-10.1724
상이	-10.1732
널	-10.1744
암	-10.1745
▁들으면	-10.1749
가꼬	-10.1751
▁겉	-10.1756
▁부대	-10.176
▁물어봤어	-10.1764
▁사이에	-10.1765
▁책이	-10.177
▁할래	-10.1771
▁분들	-10.178
▁강릉	-10.1789
▁따고	-10.1789
지니까	-10.1791
▁취소	-10.1791
▁빠르	-10.1791
▁어어	-10.1791
▁덴	-10.1794
▁오르	-10.1799
▁원씩	-10.1803
한대	-10.1803
였고	-10.1809
▁좋았던	-10.181
축	-10.1823
▁않아서	-10.1824
▁떨어지	-10.1827
▁생각나	-10.1828
▁전자	-10.183
경이	-10.1847
▁먹었잖아	-10.1851
▁모습	-10.1856
▁대학생	-10.1857
주면	-10.1859
▁조심	-10.1863
하다고	-10.1866
▁공간	-10.1874
▁마트	-10.188
▁맛있게	-10.188
▁예전에는	-10.1883
▁바껴	-10.1884
▁하구	-10.1886
▁꺼내	-10.1889
▁학교는	-10.1898
알	-10.1905
맨	-10.1908
▁섬	-10.1913
▁그랬을	-10.1916
▁은행	-10.1918
▁안되	-10.1927
▁한명	-10.1931
▁영화관	-10.1932
▁거냐	-10.1937
▁찍었	-10.194
▁코스	-10.1942
▁가보	-10.1945
▁물리	-10.1947
▁짧게	-10.1948
▁어저께	-10.1948
▁실패	-10.1951
▁신기해	-10.1952
▁나온다	-10.1954
례	-10.1959
▁향	-10.1965
▁필기	-10.1967
▁때려	-10.1974
▁왔지	-10.1974
▁두고	-10.1979
▁예전	-10.198
▁읽는	-10.1981
▁불편해	-10.1981
▁비용	-10.1986
▁등급	-10.1988
▁입학	-10.1989
▁박스	-10.199
▁한국인	-10.1992
▁몰르	-10.1994
▁든	-10.1996
▁날라	-10.2
▁결제	-10.2003
시켜	-10.2011
▁닦	-10.2015
▁끝났어	-10.2016
▁찬	-10.2025
사를	-10.2025
▁어쩌	-10.2029
일에	-10.203
밀	-10.2035
▁경우	-10.2037
▁오픈	-10.205
▁둘째	-10.205
스타	-10.2051
▁사람들을	-10.2052
▁맞는데	-10.2068
▁맞으면	-10.2068
C	-10.2073
흥	-10.2073
▁갖	-10.2078
▁빠른	-10.2082
▁얘네	-10.2083
▁체크	-10.2083
▁노래를	-10.2084
▁왜케	-10.2084
▁있었나	-10.2093
▁들려	-10.2093
▁싶을	-10.2102
숙	-10.2103
▁애를	-10.2103
▁일할	-10.2103
▁보게	-10.2104
▁냄새가	-10.2105
▁걸렸	-10.2107
S	-10.2107
▁소스	-10.2107
▁규	-10.2111
▁올랐	-10.2115
▁지났	-10.2124
▁착	-10.2125
줄게	-10.213
▁나네	-10.2137
▁돌아다니	-10.2138
▁비해서	-10.2139
▁하이	-10.214
▁가까이	-10.2142
핑	-10.2144
▁남자애	-10.2145
▁세상	-10.2147
▁거죠	-10.2157
석이	-10.2166
▁왜냐하면	-10.2168
▁않다	-10.2168
▁마카롱	-10.2178
▁도대체	-10.2178
▁부럽다	-10.2192
해주는	-10.2196
▁대단하다	-10.2197
▁베이	-10.2201
▁그케	-10.2203
▁빠졌	-10.2212
▁결국에는	-10.222
▁하드라고	-10.2221
▁장소	-10.2226
▁물어	-10.2232
▁전에는	-10.2237
▁않는데	-10.2239
져가지고	-10.2241
▁그이까	-10.2241
▁사이트	-10.2243
▁적당히	-10.2244
▁티켓	-10.2245
▁정확하게	-10.2246
▁실기	-10.2253
▁설마	-10.2254
해주고	-10.2256
▁키우고	-10.2259
빠	-10.2262
▁비싸지	-10.2267
▁년에	-10.2272
▁가면서	-10.2274
▁온다	-10.2277
▁재미없어	-10.2283
▁수업이	-10.2284
▁생각하지	-10.2284
▁그렇네	-10.2292
침	-10.2292
▁일본에	-10.2293
겼	-10.2295
▁물어볼	-10.2296
▁간에	-10.2297
▁끌고	-10.2304
프로	-10.2307
▁수시	-10.2309
m	-10.2311
▁꾸준히	-10.2311
▁태국	-10.2316
▁음식을	-10.2318
▁삼천	-10.2331
▁되는지	-10.2333
▁근육	-10.2338
▁아이돌	-10.2338
드려	-10.234
에요	-10.2341
대매	-10.2344
틴	-10.2345
▁점이	-10.2347
▁백만	-10.2347
▁인턴	-10.2348
▁플러스	-10.2348
▁센	-10.2353
▁마블	-10.2355
▁같으면	-10.2359
▁많아가지고	-10.2369
▁그래야지	-10.2369
쿠	-10.2378
스러운	-10.2379
▁나가야	-10.238
▁벌고	-10.2381
▁이어	-10.2382
▁먹었던	-10.2383
▁마스크	-10.2384
▁재료	-10.2385
▁쇼	-10.239
▁시급	-10.2392
▁경력	-10.2392
▁느낌이야	-10.2402
▁매니저	-10.2413
▁올라왔	-10.2413
▁최저	-10.2415
▁전주	-10.2415
▁사기	-10.2418
▁갈라고	-10.242
▁홍보	-10.2434
▁환경	-10.2443
볼까	-10.2452
▁느낌으로	-10.2452
▁생각해보니까	-10.2454
▁사귀	-10.2455
▁세대	-10.2462
▁했다가	-10.2465
선이	-10.2466
▁찾아서	-10.2478
찰	-10.2479
▁어떻게든	-10.2485
▁데를	-10.2487
▁숙	-10.2495
▁자연스럽게	-10.2515
▁겹치	-10.2516
받	-10.2516
▁프리	-10.2517
▁허리	-10.2517
▁잠이	-10.2518
▁현금	-10.2521
▁혜	-10.2524
▁가능하	-10.2527
버려	-10.2527
▁요가	-10.2531
▁우리나라에서	-10.2532
▁마시는	-10.2534
▁가든	-10.2543
▁걔를	-10.2546
둔	-10.2549
▁롯데	-10.2549
힐	-10.2549
▁하라	-10.2556
▁딸기	-10.2558
▁나가면	-10.2559
▁않으면	-10.2569
▁꿈이	-10.2576
렌	-10.2584
▁위치	-10.2584
▁초등학생	-10.2584
▁바뀐	-10.2584
▁돈까스	-10.2584
▁레벨	-10.2585
▁준비하고	-10.2586
▁보이고	-10.2591
▁축제	-10.2592
▁굴	-10.2593
▁듯	-10.2599
▁말까	-10.2606
▁우리랑	-10.2607
▁재밌지	-10.2608
▁들어오는	-10.2609
▁애매하	-10.2609
▁과정	-10.2609
한다는	-10.2614
▁먹으면서	-10.2616
▁주지	-10.2616
▁강원도	-10.2619
▁페이	-10.2621
▁깐	-10.2623
▁커플	-10.2623
식으로	-10.2631
구요	-10.2636
▁떨	-10.264
▁군대를	-10.2642
되지	-10.2644
▁작가	-10.2647
▁못하고	-10.265
▁일본은	-10.2651
▁답이	-10.2652
▁말했던	-10.2653
▁자랑	-10.2657
놀	-10.2658
▁항	-10.266
▁흐	-10.2662
▁어찌	-10.2668
▁사는데	-10.2671
▁궁금하	-10.2677
▁입장에서는	-10.2678
▁성적이	-10.2683
▁걔네들이	-10.2691
▁세상에	-10.2692
지지	-10.2693
▁나은	-10.2696
▁능력	-10.2697
▁북한	-10.2705
▁도전	-10.2706
▁크고	-10.2706
▁그렇겠지	-10.2707
▁별로야	-10.2713
▁피해	-10.2713
▁넣는	-10.2714
▁거기를	-10.2719
▁무릎	-10.2723
▁독서실	-10.2723
▁하늘	-10.2728
려면은	-10.273
▁18	-10.2731
하진	-10.2744
▁소리가	-10.2746
▁올린	-10.2749
▁씹	-10.2751
▁값	-10.2754
▁적어	-10.2758
▁날은	-10.2761
맥	-10.2761
▁탈출	-10.2762
▁이것	-10.2762
▁위주로	-10.2765
▁나왔잖아	-10.2769
▁통화	-10.2773
스가	-10.2785
▁모르잖아	-10.2785
▁공감	-10.2787
했으니까	-10.2788
▁60	-10.279
롭	-10.2792
▁뮤지컬	-10.2793
▁앨범	-10.2794
▁마찬가지	-10.2794
▁해외여행	-10.2794
▁아버님	-10.2795
▁풍	-10.2796
뜨	-10.28
손	-10.28
▁결혼식	-10.281
라면은	-10.2827
▁좋대	-10.2829
▁간대	-10.2832
▁마셨	-10.2839
킬	-10.2843
▁눈물	-10.2843
▁초반	-10.2846
▁책상	-10.2851
▁이후에	-10.2854
다며	-10.2855
▁힘들어서	-10.2857
▁갔었어	-10.2858
▁나무	-10.2868
▁친해	-10.2869
▁아들	-10.2871
▁후반	-10.2873
▁가진	-10.2876
▁못하는	-10.2876
▁의경	-10.2883
느	-10.2883
▁하기로	-10.2886
▁거기다가	-10.2893
▁앉아있	-10.29
▁할려	-10.2902
▁음식이	-10.2906
사람	-10.2906
▁끝내	-10.291
▁갈지	-10.2914
▁애들끼리	-10.292
▁써서	-10.2925
▁거기까지	-10.2927
▁답장	-10.2933
▁산책	-10.2939
새	-10.2943
▁회계	-10.2943
▁않으니까	-10.2952
▁고민이	-10.2956
▁그쪽에	-10.2962
▁과자	-10.2964
▁생각에	-10.2969
▁연대	-10.297
▁낮에	-10.2971
▁케이크	-10.2973
▁대박이다	-10.2975
▁방법이	-10.2979
▁몰래	-10.2981
▁제발	-10.2987
▁괜찮네	-10.2988
▁비슷하게	-10.2994
▁마음을	-10.2997
8	-10.3002
▁사건	-10.3002
▁다양한	-10.3008
▁롱	-10.301
▁인강	-10.3017
▁알어	-10.3018
▁아는데	-10.3025
▁헤어졌	-10.3028
▁할머니가	-10.3031
▁짧은	-10.3044
▁캐나다	-10.3044
▁평균	-10.3044
▁있겠지만	-10.3057
학원	-10.3058
▁빠진	-10.3065
▁핸드폰을	-10.3067
▁톡	-10.3069
▁뒤에서	-10.3074
▁놨	-10.3076
▁잠을	-10.3078
▁아이스크림	-10.308
▁열어	-10.308
▁즐기	-10.308
▁흰색	-10.308
▁감기	-10.3082
▁짤라	-10.3083
▁200	-10.3085
▁오는데	-10.3087
▁의자	-10.309
놨는데	-10.3094
▁대답	-10.3094
▁하겠	-10.3106
▁이때	-10.3113
▁효	-10.3119
▁오빠도	-10.3124
▁포함	-10.3127
더만	-10.313
▁셋	-10.3134
▁아저씨가	-10.3135
▁얘긴	-10.3138
훈	-10.3142
있고	-10.3145
▁동남아	-10.3153
▁테이블	-10.3153
▁자동차	-10.3153
▁가르쳐	-10.3157
했었어	-10.3159
▁볼려고	-10.3173
▁나왔던	-10.3176
▁춥	-10.3178
▁올리고	-10.3179
▁받으면	-10.3179
▁말하	-10.3179
▁있었을	-10.3183
▁초반에	-10.3183
▁견	-10.3186
▁당황	-10.3187
▁찍을	-10.3189
▁천천히	-10.3189
줬어	-10.3196
하나	-10.3198
▁살면서	-10.3198
▁친구들은	-10.3201
봐야	-10.3209
▁경기도	-10.3209
▁보여줬	-10.3215
가면서	-10.3219
▁다르게	-10.3221
▁애도	-10.3224
▁재밌다	-10.3225
o	-10.3226
▁시기	-10.3227
▁골목	-10.3228
▁터지	-10.3231
▁좋으니까	-10.3234
▁이미지	-10.3235
▁의미가	-10.3237
센	-10.3239
▁다르잖아	-10.3247
▁해라	-10.3248
이었잖아	-10.3248
▁물어보는	-10.3262
▁이태원	-10.3263
시면	-10.3263
▁잠깐만	-10.3268
▁까페	-10.3272
징	-10.3278
▁공항	-10.3279
다면	-10.3279
▁들었던	-10.3279
▁구워	-10.329
▁대표	-10.329
되면	-10.3292
▁걸릴	-10.3292
▁힘이	-10.3294
▁찾는	-10.3302
▁부탁	-10.3302
▁여수	-10.3308
▁땀	-10.3311
▁새우	-10.3312
풍	-10.3315
▁심리	-10.3319
▁부족	-10.3324
▁아휴	-10.3324
▁잘하고	-10.3335
▁와야	-10.3335
▁않았을까	-10.3339
▁맛없	-10.3341
▁영어로	-10.3345
▁소름	-10.3346
▁것들을	-10.3347
▁보내고	-10.3349
▁그려	-10.3358
▁가다가	-10.3361
▁남아있	-10.3362
▁증	-10.3363
했대	-10.3364
▁거다	-10.3365
▁말자	-10.3366
▁나왔을	-10.337
▁거란	-10.3371
▁봐가지고	-10.3373
▁죄	-10.3375
▁최근	-10.3375
▁행복	-10.3376
▁불렀	-10.3377
▁대전	-10.3378
화가	-10.3379
▁내려오	-10.3381
▁머리를	-10.3384
▁모를	-10.3393
▁쌀	-10.3395
▁시작하	-10.3397
▁개강	-10.34
▁적도	-10.3401
▁하나에	-10.3402
▁아버지가	-10.3406
▁추천해	-10.3407
▁아줌마	-10.3407
▁밴드	-10.3412
▁장기	-10.3413
▁연말	-10.3422
▁전부터	-10.3423
▁삼촌	-10.3425
▁퍼센트	-10.3428
▁누군가	-10.3429
▁회장	-10.3431
▁한식	-10.3433
▁시청	-10.3434
▁먹으면은	-10.3434
▁자체를	-10.3437
▁플레이	-10.3439
스럽	-10.3444
▁패키지	-10.3449
▁등록금	-10.3452
▁끝날	-10.3453
▁턱	-10.3458
▁끝나는	-10.3458
▁시험이	-10.3461
▁기초	-10.3461
▁할게	-10.3464
▁강사	-10.3464
▁착한	-10.3467
▁괜찮았어	-10.3473
▁처음엔	-10.3475
▁반수	-10.3478
▁좋아하거든	-10.3484
▁가까워	-10.3488
▁크지	-10.349
▁16	-10.3494
충	-10.3495
▁시간은	-10.3499
캐	-10.3507
▁지도	-10.3508
▁막내	-10.3509
성을	-10.3509
▁종일	-10.351
▁괜찮고	-10.3511
하던	-10.3513
벨	-10.3524
O	-10.3525
랍	-10.3525
▁의견	-10.3527
셨는데	-10.3529
▁평일에	-10.3529
이었	-10.3531
▁대해	-10.3534
시니까	-10.3539
▁공기	-10.3551
▁자식	-10.3557
▁가거나	-10.3557
▁먹을까	-10.356
▁일에	-10.3561
혈	-10.3563
릿	-10.3563
▁담임	-10.3566
▁준다고	-10.3567
▁썰	-10.3568
욕	-10.3583
▁외우	-10.3584
▁위로	-10.3585
틀	-10.3589
▁국물	-10.359
▁번은	-10.3596
▁300	-10.3599
장에	-10.3599
▁당시에	-10.36
▁챙기	-10.3602
▁평가	-10.3602
▁공기업	-10.3603
▁땡	-10.3605
▁종교	-10.3605
머리	-10.3605
▁넣었	-10.3606
▁공대	-10.3607
▁됐나	-10.3612
거지	-10.3612
하기도	-10.3615
▁되어	-10.3616
▁다음날	-10.3616
▁납	-10.3618
▁수준	-10.3627
▁버리고	-10.3636
▁버리	-10.3637
▁다행이	-10.3637
▁한국사	-10.3638
▁모델	-10.3641
▁착하	-10.3648
으라고	-10.365
떡	-10.365
▁선생님들	-10.3653
▁본다	-10.3656
▁실력	-10.366
▁겸	-10.3663
▁다운	-10.3663
▁하자고	-10.3667
▁생각했어	-10.3672
▁러시아	-10.3678
▁보헤미안	-10.3678
▁블랙	-10.3678
▁플	-10.3686
▁기준	-10.3691
▁아까워	-10.3693
▁좋겠는데	-10.3693
▁남편	-10.3701
▁채우	-10.3701
껄	-10.3702
끄	-10.3702
▁장르	-10.3705
▁최소	-10.3707
▁체육	-10.3711
▁것이	-10.3714
▁조용히	-10.3717
▁휴대폰	-10.3717
▁마인드	-10.3718
▁도망	-10.3721
▁빌리	-10.3722
▁살까	-10.3723
▁가나	-10.3723
▁중순	-10.3725
▁파마	-10.3725
▁단계	-10.3726
▁화나	-10.3729
▁보긴	-10.3732
▁당신	-10.3733
▁옛날부터	-10.374
▁겁	-10.3745
련	-10.3745
▁어머니가	-10.3747
▁꺼야	-10.3748
▁했어요	-10.3752
▁엄청나게	-10.3757
▁피곤하	-10.3757
▁빨간	-10.3759
▁펴	-10.376
▁한국어	-10.3764
▁휘	-10.3765
▁작아	-10.3767
▁처리	-10.3774
▁크기	-10.3779
s	-10.378
돼서	-10.378
▁준비하는	-10.3782
▁인상	-10.379
▁귀찮아서	-10.3791
항	-10.3791
▁계획을	-10.3794
▁날씨가	-10.3795
▁대기업	-10.3795
▁생각해서	-10.3799
▁보낸	-10.3799
없	-10.3817
▁슈	-10.382
또	-10.382
쌤	-10.382
▁좋아하니까	-10.3822
▁어땠어	-10.3822
우면	-10.3825
▁무대	-10.3826
▁아니라서	-10.3832
▁원을	-10.3838
▁초코	-10.384
▁지갑	-10.3844
생이	-10.3845
하겠다	-10.3845
▁대해서는	-10.3845
▁감독	-10.3851
▁그랬었어	-10.3853
▁랩	-10.3864
▁기다려	-10.3864
▁찍어서	-10.3865
▁전날	-10.387
같은	-10.3873
▁몰라서	-10.3874
우니까	-10.3875
▁종강	-10.3875
일걸	-10.3878
▁셋이	-10.388
▁뽀	-10.3882
▁그쪽에서	-10.3883
▁멍	-10.3894
▁악기	-10.3894
▁먹을래	-10.3898
▁뭐랄까	-10.39
▁주인	-10.3901
이었지	-10.3902
▁오라	-10.3908
▁올리는	-10.391
▁협	-10.3912
▁미용실	-10.3915
▁요즘엔	-10.3917
▁기본적으로	-10.3922
▁먹어야지	-10.3923
▁그중에	-10.3925
▁괜찮다고	-10.3933
취	-10.3933
▁여유	-10.3939
▁대화를	-10.3946
▁농	-10.395
▁지나고	-10.3951
▁삼겹살	-10.3952
▁렌트	-10.3952
럽	-10.3952
▁물어본	-10.3953
▁역할	-10.3959
▁갈아	-10.3961
▁그렇기	-10.3964
▁아니었	-10.3966
▁키우는	-10.3967
▁잡는	-10.3971
▁상태에서	-10.3971
시장	-10.3976
▁많다고	-10.3978
▁어쩌다	-10.3979
▁된단	-10.3982
빈	-10.3989
▁위험하	-10.3989
럭	-10.399
I	-10.3991
%	-10.3991
▁분명	-10.3994
▁아니까	-10.3996
▁그럴까	-10.4006
▁언니한테	-10.4007
마는	-10.4009
▁알바가	-10.4009
▁가르	-10.4013
▁때문이	-10.4014
풀	-10.4021
▁먹다가	-10.4025
▁다른데	-10.4026
▁있냐고	-10.4027
▁없냐	-10.4038
드리	-10.4046
▁국민	-10.4049
▁됐잖아	-10.4049
▁와인	-10.4055
▁기타	-10.4058
▁신청을	-10.406
접	-10.406
척	-10.406
▁스타벅스	-10.4071
▁옮기	-10.4071
욱	-10.4071
▁음식점	-10.4074
▁70	-10.4076
스크	-10.4089
▁오늘도	-10.409
픽	-10.4092
▁후에	-10.4097
▁어리	-10.4097
R	-10.4111
e	-10.4111
▁중학생	-10.4111
▁살면	-10.4114
▁않게	-10.4115
▁체력	-10.4118
▁사람마다	-10.4118
▁알았지	-10.4119
한텐	-10.412
역에서	-10.4132
이냐	-10.4133
▁대출	-10.4133
▁뜬	-10.4137
▁어머	-10.4139
▁에스	-10.4141
▁시작한	-10.4147
▁빡세	-10.4148
▁어딨어	-10.4152
▁자소서	-10.4152
으면서	-10.4152
▁디게	-10.4153
▁보낼	-10.4157
▁돼지	-10.4159
▁들어오면	-10.4161
▁경쟁	-10.4162
▁연어	-10.4168
▁일본에서	-10.4169
었단	-10.4171
▁으음	-10.4172
▁탑	-10.4177
▁운영	-10.4181
▁이름을	-10.4183
▁많거든	-10.4191
잇	-10.4192
틱	-10.4192
▁뺄	-10.4192
▁가수	-10.4194
▁해보자	-10.4195
▁17	-10.4199
▁이젠	-10.42
주가	-10.4201
▁주변에서	-10.4207
▁원짜리	-10.4209
년에	-10.4215
하신	-10.4219
▁통학	-10.422
했네	-10.4223
존	-10.4224
▁학생들	-10.4228
▁추운	-10.423
▁이만큼	-10.423
▁후기	-10.4231
n	-10.4233
▁썼는데	-10.4233
▁넷	-10.4233
▁간호사	-10.4243
▁개씩	-10.4243
▁끊었	-10.4244
▁효과	-10.4251
▁야채	-10.4253
▁들어갔는데	-10.4258
▁노력을	-10.426
▁말대로	-10.4269
▁바꿨	-10.4273
▁거였는데	-10.4273
▁80	-10.4273
▁눌러	-10.4274
▁올라갔	-10.4275
▁사러	-10.4275
▁새해	-10.4276
▁보내주	-10.4276
▁누구지	-10.4278
보자	-10.4289
▁남았어	-10.4295
▁돌리	-10.4296
▁보이지	-10.43
▁보드	-10.43
k	-10.4314
▁S	-10.432
▁제품	-10.4326
▁주인공	-10.433
▁쓰는데	-10.4333
▁핸	-10.434
▁학기에	-10.4341
▁입장에서	-10.4341
▁같더라	-10.4343
▁기다리	-10.4346
▁갚	-10.4348
▁손님	-10.4349
▁알려줘	-10.4351
▁스케줄	-10.4356
▁마이크	-10.4358
▁치료	-10.4362
▁갔으면	-10.4368
▁틀리	-10.4372
▁25	-10.4372
▁좋았는데	-10.4385
착	-10.4386
▁대신에	-10.4389
랄	-10.4391
▁생각이야	-10.4392
▁지난	-10.4393
▁엑스	-10.4397
▁그러냐	-10.4398
▁장면	-10.4398
▁담에	-10.44
▁이기	-10.4407
▁모아서	-10.4409
시지	-10.4411
▁해준	-10.4416
▁봐요	-10.4416
합니다	-10.4418
▁학생회	-10.4419
▁지우	-10.4419
▁먹었다	-10.4427
▁길에	-10.4434
▁뿌리	-10.4436
▁옮겨	-10.4438
응	-10.4441
▁이렇	-10.4441
▁했네	-10.4449
▁서류	-10.4452
▁생겨	-10.4454
▁그러더라	-10.4454
▁들어보니까	-10.4455
뿐만	-10.4456
▁바빠	-10.4461
▁밥도	-10.4462
▁교정	-10.4465
▁않아요	-10.4469
▁아이디	-10.4472
롱	-10.4478
▁나와야	-10.4478
▁시리즈	-10.448
▁가냐	-10.4488
▁싸고	-10.4492
▁게네	-10.4494
었으면	-10.4496
▁사가지고	-10.4498
었을	-10.45
▁만났는데	-10.4503
▁누군지	-10.4505
▁컴	-10.4514
▁주사	-10.4515
▁오바	-10.4517
▁지하	-10.452
▁움직이	-10.4533
▁컵	-10.4535
▁좋아할	-10.4539
버린	-10.4541
시다	-10.4545
▁가가지구	-10.455
▁이동	-10.4552
었다고	-10.4553
▁누구한테	-10.4553
▁솔	-10.4555
▁뜨는	-10.4557
▁싫고	-10.4564
▁택배	-10.4564
▁안전	-10.4566
셔가지고	-10.4568
▁챙겨주	-10.457
▁집도	-10.4572
휴	-10.4575
▁바꾸고	-10.4576
려가지고	-10.4578
관이	-10.4585
▁이번엔	-10.4587
빈이	-10.4588
▁시쯤	-10.4592
▁물어보면	-10.4603
▁재밌는데	-10.4604
▁낮은	-10.4606
▁늦어	-10.4606
▁쌓이	-10.4606
▁짠	-10.4615
▁카레	-10.4615
▁깔아	-10.4616
▁긍	-10.4627
소리	-10.4633
였으면	-10.4634
▁놀라	-10.4637
▁액	-10.4645
밍	-10.4648
▁깊게	-10.4649
▁시작하는	-10.465
▁기획	-10.465
▁나의	-10.4651
▁과가	-10.4651
▁화면	-10.4658
▁속이	-10.4663
▁수영장	-10.4664
▁너에	-10.4666
▁있을걸	-10.4667
▁상처	-10.4669
▁잡았	-10.4673
▁중요하지	-10.4679
▁무서워서	-10.4681
▁애들을	-10.4683
▁했었지	-10.4687
▁필라테스	-10.4691
짐	-10.4692
▁학원에서	-10.4696
▁영업	-10.47
훈이	-10.4703
▁겨	-10.4709
▁좋아요	-10.4712
▁뜻	-10.4713
▁물어봤는데	-10.4713
▁친구를	-10.4717
▁나가지고	-10.4729
▁앤	-10.473
▁방향	-10.4732
A	-10.4736
▁신나	-10.4737
▁친구들도	-10.4737
▁읽었	-10.4739
▁19	-10.474
▁부르는	-10.475
▁일상	-10.4752
▁부분에	-10.4756
▁먹어봤어	-10.4757
▁양이	-10.4767
▁구해	-10.4772
▁찾고	-10.4773
렀	-10.4773
▁말했어	-10.4774
▁채워	-10.4776
▁하나를	-10.4776
▁pc	-10.4777
▁운전면허	-10.4777
뱅	-10.4777
▁앞머리	-10.4778
▁니는	-10.4782
버스	-10.4786
▁연습을	-10.4786
▁걔네들은	-10.4786
▁일산	-10.4787
▁들었거든	-10.4789
▁뚜	-10.4802
▁분들이	-10.4802
▁판단	-10.4802
▁드리	-10.4807
▁방이	-10.4808
▁표정	-10.481
▁걸리는	-10.4812
철	-10.4817
▁카카오	-10.482
▁랩소디	-10.482
▁왼쪽	-10.482
▁다행히	-10.482
▁고쳐	-10.4822
▁계절	-10.4822
▁세금	-10.4823
▁노래가	-10.4823
▁세워	-10.4825
▁인형	-10.4829
▁등산	-10.4833
▁살아야	-10.4835
▁유리	-10.4836
물이	-10.4838
▁싸웠	-10.4839
▁처음으로	-10.4841
▁도움	-10.4849
귀	-10.485
하더라	-10.4857
▁아아	-10.4857
▁튀김	-10.4863
▁개발	-10.4863
▁화학	-10.4865
▁생기고	-10.4868
▁여자애가	-10.4873
▁시키고	-10.4874
▁조절	-10.4876
▁사람이야	-10.488
람	-10.4884
▁500	-10.4889
정도	-10.4891
▁엘	-10.4891
▁주는데	-10.4893
준다	-10.4894
▁물이	-10.4895
▁감동	-10.4899
▁눈썹	-10.4907
▁은근히	-10.491
▁새끼	-10.4911
놈	-10.4911
윤	-10.4911
▁따라가	-10.4912
▁싶어가지고	-10.4913
▁먹게	-10.4913
▁알았거든	-10.4916
▁시킨	-10.4921
▁되네	-10.4921
량이	-10.4923
▁껄	-10.4924
▁쫄	-10.4927
▁간식	-10.4939
▁해볼까	-10.494
▁따야	-10.4941
▁매력	-10.4942
▁보조	-10.4942
▁하신	-10.4944
했었는데	-10.4946
▁마시면	-10.495
▁샤워	-10.4952
▁자기네	-10.4953
▁만두	-10.496
▁죽었	-10.4962
▁필수	-10.4963
▁여기까지	-10.4966
▁단톡방	-10.4968
▁발음	-10.497
▁하튼	-10.4971
▁폴	-10.4972
▁얘기했어	-10.4979
▁어른들	-10.4979
▁별거	-10.4983
▁어디지	-10.4987
▁고정	-10.4988
▁거길	-10.4988
▁일어났	-10.4989
▁문제야	-10.4989
▁명씩	-10.4991
N	-10.4994
▁갤럭시	-10.4994
▁그랬대	-10.4994
▁불편한	-10.4994
▁웬만한	-10.4995
황	-10.4995
병원	-10.4997
▁원에	-10.5
▁생길	-10.5002
▁덥	-10.5007
▁쓰잖아	-10.5011
▁우와	-10.5012
▁조금씩	-10.5012
▁했는지	-10.5012
▁위한	-10.5012
▁얘기했잖아	-10.502
▁기억은	-10.5021
▁자신이	-10.5022
▁좋더라고	-10.5023
▁실력이	-10.5028
▁돼야	-10.5032
▁놀다가	-10.5034
▁샐러드	-10.5038
▁누워있	-10.504
▁살지	-10.5041
▁인도	-10.5041
▁블	-10.5043
하느라	-10.5044
▁힘드니까	-10.5044
▁추억	-10.5045
려는	-10.5045
▁팀이	-10.505
▁고르	-10.5052
▁이야기를	-10.5055
▁현지	-10.5059
▁예매	-10.5059
▁스페인	-10.5063
웃	-10.5065
▁될걸	-10.5069
▁생기는	-10.507
낼	-10.5075
▁남자들	-10.5077
▁들어와서	-10.508
▁첫날	-10.5082
찜	-10.5082
▁예상	-10.5085
두고	-10.5086
▁잡혀	-10.5088
▁크림	-10.5088
여행	-10.5101
▁사람에	-10.5105
▁호선	-10.5108
▁말아	-10.5109
▁적어도	-10.5109
▁회사가	-10.5114
▁마신	-10.5115
▁했냐	-10.5122
▁생명	-10.5122
측	-10.5126
▁당연한	-10.5127
하기가	-10.5128
▁삼수	-10.5129
▁일본이	-10.5129
동이	-10.513
▁알바생	-10.5131
권이	-10.5132
▁페북	-10.5134
했으면	-10.5141
▁나오면은	-10.5149
▁입구	-10.515
▁부천	-10.515
▁마지막으로	-10.5151
▁타인	-10.5157
▁다행이다	-10.5159
▁모여서	-10.5161
4	-10.5165
▁알려	-10.5168
▁만났을	-10.517
▁낚시	-10.5171
▁흔들	-10.5171
▁실제	-10.5178
▁맛있는데	-10.518
허	-10.5181
▁지수	-10.5182
느라	-10.5185
▁오기	-10.5189
▁넘기	-10.5194
▁올라와	-10.5197
▁그쵸	-10.5199
▁재밌겠다	-10.52
▁핸드폰으로	-10.5203
▁끝이	-10.5213
▁빨간색	-10.5218
▁뺀	-10.5218
▁금액	-10.522
▁시작했	-10.5223
▁점수가	-10.5223
▁음료수	-10.5224
었으니까	-10.5227
▁산업	-10.5229
▁회의	-10.523
준이	-10.5231
▁많으면	-10.5237
▁꽂	-10.5242
▁망했	-10.5246
▁풀리	-10.5251
▁있니	-10.5258
▁놀랬어	-10.5261
램	-10.5261
▁실험	-10.5263
▁애매해	-10.5264
▁도로	-10.5264
▁영상을	-10.5265
▁자라	-10.5265
해요	-10.5267
c	-10.5273
▁세트	-10.5282
드는	-10.529
▁와가지구	-10.5303
균	-10.5306
▁장비	-10.5307
▁궁	-10.5307
▁왔거든	-10.5308
▁심하게	-10.5308
며는	-10.5309
▁더워	-10.531
▁그믄	-10.5322
셨어요	-10.5323
▁찾아보고	-10.5324
호선	-10.5325
▁적금	-10.5328
▁말고도	-10.5329
▁어디가	-10.533
▁올라가는	-10.533
▁우리나라가	-10.5332
▁시킬	-10.5336
▁빠지는	-10.5339
▁이유는	-10.5343
▁사다	-10.5349
쳐서	-10.5351
▁당일	-10.5352
▁웬	-10.5352
▁홍대에서	-10.5353
▁많대	-10.5359
▁요금	-10.5362
▁사람인	-10.5368
진다	-10.5379
▁다낭	-10.538
턴	-10.538
▁찾아가	-10.5382
▁마감	-10.5388
▁골라	-10.5394
이구나	-10.5398
▁설거지	-10.5399
주세요	-10.54
▁학점이	-10.5403
▁긴장	-10.5407
들어	-10.5409
▁헌	-10.5409
▁관광	-10.5411
▁건축	-10.5416
자리	-10.542
▁반응	-10.5424
▁한강	-10.5425
▁우리나라는	-10.5426
월달	-10.5427
역에	-10.5429
▁귤	-10.5429
▁여유가	-10.5431
▁말만	-10.5432
▁정도에	-10.5433
▁생각하거든	-10.5442
▁계획이	-10.5444
▁목사님	-10.5445
▁우승	-10.5449
▁팔천	-10.5451
▁붙으면	-10.5452
▁괜찮았	-10.5455
▁서서	-10.5459
▁얘기하지	-10.5462
▁쓰니까	-10.5462
▁짜르	-10.5466
등급	-10.5467
▁없지만	-10.5474
▁이런데	-10.5475
▁쪘	-10.5481
▁볼링	-10.5483
▁구매	-10.5484
▁발라	-10.5484
▁배경	-10.5485
6	-10.5489
▁씻고	-10.549
▁유튜버	-10.549
▁예능	-10.5495
▁현재	-10.5497
집이	-10.55
▁인자	-10.5509
▁오전	-10.5511
▁붙은	-10.5527
▁땐가	-10.553
▁할려면	-10.553
▁겨울이	-10.553
▁동생이랑	-10.5535
i	-10.5536
룩	-10.5536
▁슬슬	-10.5538
▁색깔이	-10.5538
▁선배들	-10.5539
▁경험이	-10.5543
▁탁구	-10.5545
▁상품	-10.5549
▁가족이	-10.5549
▁예비	-10.5549
▁들더라고	-10.555
분에	-10.5551
▁말로는	-10.5556
▁있어야지	-10.5557
▁없긴	-10.5559
▁싸우고	-10.5561
▁책임	-10.5566
▁받았는데	-10.5573
▁병원에	-10.5573
▁칸	-10.5575
▁있어가지구	-10.5577
▁대기	-10.5579
▁물을	-10.5579
▁기다리고	-10.5579
▁귀여운	-10.5583
▁째	-10.5583
럼	-10.5585
딱	-10.5588
▁길거리	-10.559
값이	-10.5591
▁단체	-10.5591
▁만났어	-10.56
▁지구	-10.56
▁나머지는	-10.5602
교육	-10.5602
▁깜	-10.5603
▁대단하	-10.5605
▁몰아	-10.5611
▁말하지	-10.5612
▁거겠지	-10.5615
▁느꼈어	-10.5629
▁LG	-10.5629
▁여기저기	-10.5629
▁얼만데	-10.5629
▁가봤는데	-10.5631
▁쭐	-10.5633
낸	-10.5633
▁간단하게	-10.5634
▁자세히	-10.5634
▁되냐고	-10.5635
▁나왔다	-10.5638
▁이거지	-10.5639
▁기억을	-10.5639
▁거리가	-10.5641
린다	-10.5642
▁생활을	-10.5644
준다고	-10.5646
라나	-10.5648
▁어떠	-10.5648
▁자기한테	-10.5654
▁나빠	-10.5659
▁데이트	-10.5659
▁목소리가	-10.5665
▁헤어지	-10.567
▁누구야	-10.567
▁이름은	-10.5674
엽	-10.5675
▁좋네	-10.5676
▁메이플	-10.5676
받는	-10.5677
▁계열	-10.5678
▁델	-10.5682
▁결국엔	-10.5683
▁지나면	-10.5685
▁감성	-10.5685
혁	-10.5687
▁학번	-10.5703
▁아프고	-10.5705
▁있었으면	-10.5705
▁빅	-10.5706
▁신랑	-10.5707
객	-10.5717
률	-10.5722
▁스펙	-10.5724
▁캐슬	-10.5725
▁제한	-10.5725
▁탈색	-10.5728
▁오잖아	-10.5731
▁엠	-10.5736
▁그만두	-10.5739
▁통장	-10.574
▁알아야	-10.5745
드리고	-10.5746
▁13	-10.5746
▁시키는	-10.5747
▁그룹	-10.5748
월달에	-10.5749
▁게임은	-10.5751
▁알바도	-10.5753
▁위험	-10.5759
▁빼야	-10.5764
▁해볼	-10.5766
▁이번에도	-10.577
▁채널	-10.5772
▁들어가면은	-10.5773
▁도와	-10.578
▁잡히	-10.578
▁키울	-10.5781
▁시간표	-10.5787
▁얘기하니까	-10.5788
▁눈을	-10.579
▁전화가	-10.5797
▁재밌었는데	-10.5802
▁지켜	-10.5804
▁어머님	-10.5806
▁손해	-10.5806
▁하니깐	-10.5809
▁힘들잖아	-10.5812
▁전세	-10.5812
▁모두	-10.5814
▁키웠	-10.5818
▁원피스	-10.5818
살이	-10.5821
▁버티	-10.5824
카드	-10.5825
▁완벽한	-10.5826
▁하진	-10.5827
▁반찬	-10.5828
▁들어가야	-10.5832
▁싫어서	-10.5838
▁바보	-10.584
▁썩	-10.5842
▁운이	-10.5843
▁아마도	-10.5845
▁그러겠지	-10.585
닌	-10.585
▁바르	-10.5853
▁당구	-10.5853
▁지인	-10.5853
차가	-10.5854
▁가리	-10.5855
▁모으	-10.5857
d	-10.5866
▁상당히	-10.5866
▁쩨일	-10.5866
▁범죄	-10.5866
▁부러워	-10.5867
예요	-10.5883
▁상태로	-10.5884
▁교통비	-10.5885
▁연수	-10.5886
▁얘들이	-10.5886
키로	-10.5886
▁설명을	-10.5889
▁싫다고	-10.5891
▁공사	-10.5895
▁F	-10.5897
▁초대	-10.5905
스터	-10.5905
▁어른	-10.5907
▁나면은	-10.5913
▁놓는	-10.5914
▁필리핀	-10.5914
▁체험	-10.5915
▁걸어서	-10.5915
▁김밥	-10.5916
▁스트레스받	-10.5917
▁속초	-10.5918
시부터	-10.5919
▁비밀	-10.5921
▁아이고	-10.5922
한테도	-10.5923
▁정도만	-10.5923
▁맛있지	-10.5925
▁보거든	-10.5925
▁빨래	-10.5927
▁상대방	-10.5928
▁없어졌	-10.5931
환이	-10.5934
▁싫었	-10.5936
큐	-10.5938
▁감자	-10.594
맛	-10.5941
▁어렵지	-10.5942
▁문제지	-10.5942
▁축	-10.5948
▁그래두	-10.5949
▁구조	-10.5951
▁시절	-10.5954
▁할걸	-10.5956
섭	-10.5959
▁없었고	-10.5961
뚝	-10.5963
▁롯데월드	-10.5963
▁보증금	-10.5963
▁샀다	-10.5963
▁이벤트	-10.5963
▁없으면은	-10.5967
▁함께	-10.5968
답	-10.5974
▁쪼금씩	-10.5978
▁신기했어	-10.5978
▁과연	-10.5982
▁내신	-10.5999
▁기준이	-10.6
▁끌	-10.6004
대요	-10.6005
▁소리를	-10.6006
겐	-10.6011
▁하이튼	-10.6012
▁끝이야	-10.6014
▁의지	-10.6016
▁종류가	-10.6017
▁놈	-10.6018
▁시켰	-10.6022
▁없다는	-10.6025
▁귀신	-10.6025
받았	-10.6026
실에	-10.6027
▁하필	-10.6028
▁확정	-10.6033
▁중앙	-10.6035
▁하셔	-10.6035
었대	-10.6035
▁먹자고	-10.604
▁현장	-10.6042
▁싶었던	-10.6043
▁여기에	-10.6044
▁떨어지는	-10.6046
▁봤냐	-10.605
▁모여	-10.6052
▁인식	-10.6057
▁된다면	-10.6057
벼	-10.606
쾌	-10.606
▁멜론	-10.606
▁소개팅	-10.6061
았는데	-10.6061
▁연주	-10.6061
▁친해지	-10.6063
▁찾았	-10.6063
▁들어올	-10.6069
생활	-10.607
줬는데	-10.6078
▁동생도	-10.6078
▁초에	-10.6081
웨이	-10.6081
졌다	-10.6081
짓	-10.6087
▁반복	-10.6088
▁잡을	-10.6092
▁교통	-10.6093
▁보일	-10.6095
▁간단	-10.6101
p	-10.6109
▁첫째	-10.6109
로운	-10.6109
▁혼나	-10.6113
버리니까	-10.6116
▁언제까지	-10.6118
▁힘든데	-10.6119
▁느껴지	-10.612
▁충전	-10.612
▁보기엔	-10.6124
였을	-10.6125
줘서	-10.6132
▁전시	-10.6135
▁아웃	-10.6135
톤	-10.6136
▁말투	-10.6138
와서	-10.6139
▁명절	-10.6139
▁흥미	-10.6142
▁하냐고	-10.6144
▁알겠다	-10.6149
▁가야겠다	-10.6151
▁콘	-10.6153
▁나온다고	-10.6153
▁탐	-10.6156
▁사람인데	-10.6157
▁동생은	-10.6158
▁냉장고	-10.6158
▁애매한	-10.6159
▁산다고	-10.6161
▁왔었	-10.6162
다거나	-10.6164
▁가슴	-10.6166
▁이대	-10.6174
▁붓	-10.6175
▁해봤자	-10.6179
비를	-10.6179
옷	-10.6186
▁홍대에	-10.6186
둘	-10.6186
솔	-10.6187
방에	-10.6189
▁좋아한다	-10.619
▁공원	-10.619
▁힘들다고	-10.619
율	-10.6191
▁개념	-10.6195
▁나왔지	-10.6196
옥	-10.6198
제가	-10.6205
▁빛	-10.6206
▁데려가	-10.6209
▁엇	-10.6209
▁그르케	-10.6209
▁싸움	-10.6213
▁24	-10.6216
▁14	-10.6217
역이	-10.6217
▁손이	-10.6219
적이고	-10.622
▁의외로	-10.6221
▁원이면	-10.6222
▁가라고	-10.6225
▁명동	-10.6226
▁그런거	-10.6229
▁분에	-10.6235
엄	-10.6237
제를	-10.6247
▁글을	-10.6249
▁라멘	-10.625
▁들어가기	-10.6254
줌	-10.6257
▁어딘지	-10.6258
▁양념	-10.6259
▁독립	-10.626
▁집으로	-10.626
▁치마	-10.626
▁뻥	-10.6261
▁자퇴	-10.6263
▁회사에	-10.6263
▁왔다고	-10.6266
▁공강	-10.6269
▁받는데	-10.6274
▁얘기하다가	-10.6274
▁본다고	-10.6276
▁주방	-10.6281
▁그동안	-10.6281
▁순위	-10.6285
▁참여	-10.6292
▁수준이	-10.6293
▁들지	-10.63
▁속도	-10.6302
▁가능	-10.6305
▁다녔어	-10.6307
▁아싸	-10.6308
▁펜션	-10.6308
▁패션	-10.6309
▁마이	-10.6313
▁딱딱	-10.632
▁가족들	-10.6322
▁홈	-10.6323
7	-10.6323
▁카톡으로	-10.6326
▁그깐	-10.633
랜드	-10.6332
▁예쁘게	-10.6332
▁싶다는	-10.6333
▁생각했을	-10.6334
▁회화	-10.6336
▁피곤해	-10.6336
굴	-10.6337
▁떠나	-10.6337
효	-10.6339
▁넘어서	-10.634
▁취향	-10.6341
▁부럽	-10.6342
▁빠지고	-10.6342
▁해놨	-10.6346
▁컷	-10.6346
▁얘기했던	-10.6348
▁빼고는	-10.6353
▁보인다	-10.6357
랭	-10.6358
L	-10.6358
r	-10.6358
▁닮았	-10.6358
▁라이	-10.6358
▁데이터	-10.6359
▁떨어질	-10.6361
▁쉬워	-10.6366
▁센터	-10.6367
▁외모	-10.637
▁봤고	-10.637
트리	-10.6372
▁샤	-10.6386
▁어울리	-10.6386
▁생각했던	-10.639
▁끈	-10.639
▁모르게	-10.6399
▁잠실	-10.6407
▁찢어	-10.6409
줬으면	-10.6412
으론	-10.6413
▁원이야	-10.6414
▁음악을	-10.6417
▁떨어지고	-10.6419
영화	-10.642
▁정부	-10.6423
듯	-10.6426
▁그러니깐	-10.6426
▁간지	-10.6429
▁살기	-10.643
▁M	-10.643
입니다	-10.6437
액	-10.6437
▁있겠네	-10.6439
▁나갔어	-10.6444
▁갈색	-10.6449
▁일로	-10.645
▁교사	-10.6453
▁가거든	-10.6454
겹	-10.6456
▁쌀국수	-10.6459
▁오피스텔	-10.6459
▁어뜨케	-10.6459
▁답답해	-10.6459
렸는데	-10.646
▁존재	-10.646
▁밤새	-10.646
▁담당	-10.6466
▁보호	-10.6466
▁카페에서	-10.6467
▁그때까지	-10.6469
스테	-10.6472
▁못한	-10.6474
▁됐고	-10.6477
▁동기들	-10.648
▁가까	-10.648
▁보니	-10.6481
▁빨라	-10.6487
▁치면은	-10.649
▁줄게	-10.6491
▁짝은	-10.6492
쳤어	-10.6492
▁파트	-10.6493
▁간다는	-10.6495
▁물어보니까	-10.6496
▁묵	-10.65
먹고	-10.6505
웅	-10.6508
▁블로그	-10.651
▁운동은	-10.6512
▁놀래	-10.6513
▁교복	-10.6515
된다	-10.6516
▁확실하게	-10.6517
▁드는데	-10.6519
▁리그	-10.6521
▁육만	-10.6523
▁가입	-10.6525
▁보이는데	-10.6531
▁식사	-10.6534
▁손님이	-10.6542
동에	-10.6543
엠	-10.6546
▁과거	-10.655
▁화를	-10.6557
▁달려	-10.6558
라매	-10.656
▁붙어있	-10.656
▁컨	-10.6561
▁늦었	-10.6561
▁갔다고	-10.6562
다기보다는	-10.6562
▁잘했어	-10.6566
▁없애	-10.6568
▁의식	-10.657
▁창문	-10.6571
갖구	-10.6572
부턴	-10.6576
▁담배를	-10.6579
▁보기에는	-10.658
▁맛있었	-10.6581
▁끓	-10.6585
▁편이야	-10.6586
▁응원	-10.6588
폰	-10.6588
▁참고	-10.6607
렉	-10.6613
▁아쿠아맨	-10.6613
▁사무실	-10.6613
▁쪼꼼	-10.6613
▁생각엔	-10.6618
쪽에	-10.6628
▁스포	-10.663
▁정도가	-10.6632
▁아파서	-10.6636
▁손을	-10.6637
▁만나기로	-10.664
▁정도면은	-10.6644
▁시설	-10.6645
혼	-10.6648
▁나왔거든	-10.6649
▁보내는	-10.6652
▁여자들	-10.6652
▁연애를	-10.6656
켓	-10.6657
▁쥐	-10.6661
▁알기로는	-10.6662
▁사실상	-10.6664
칙	-10.6664
▁SNS	-10.6665
▁힙합	-10.6665
▁포인트	-10.6665
▁됐다고	-10.6665
▁유명해	-10.6666
▁쳐다보	-10.6667
▁마라	-10.6668
▁인스타에	-10.6675
▁그랬었는데	-10.6676
▁맛있다고	-10.6678
이션	-10.6683
▁봐야겠다	-10.6687
▁경비	-10.6691
하구	-10.6691
▁현역	-10.6691
▁시작할	-10.6693
▁싫은데	-10.6694
▁이러잖아	-10.6695
▁말해줬	-10.6696
▁많았는데	-10.6699
▁자체는	-10.67
완	-10.6704
▁살려고	-10.6706
▁갔대	-10.6707
▁커서	-10.671
▁패스	-10.6711
▁욕심	-10.6712
▁주제를	-10.6714
▁많긴	-10.6715
▁바쁜	-10.6717
▁이마트	-10.6717
▁밀어	-10.6726
▁곳에	-10.6731
▁어색하	-10.6731
▁단지	-10.6743
▁밥은	-10.6745
▁풀고	-10.6748
▁묶	-10.6749
▁요기	-10.6749
▁그중에서	-10.6752
▁지식	-10.6752
▁맵	-10.6756
덜	-10.6757
하겠지	-10.6761
▁아프리카	-10.6769
▁쿠폰	-10.6769
▁이어폰	-10.677
▁먹으	-10.6771
▁너처럼	-10.6772
▁업무	-10.6773
▁판매	-10.6779
▁길을	-10.6781
▁조교	-10.6784
린데	-10.6785
▁띠	-10.6786
▁사천	-10.6793
▁노트	-10.6801
▁고려	-10.6801
▁가시	-10.6805
싱	-10.6809
켰	-10.6813
둬	-10.6821
▁나눠서	-10.6822
▁스테이크	-10.6822
▁해리포터	-10.6822
촉	-10.6822
▁복수	-10.6823
▁냉동	-10.6825
▁중국인	-10.6825
▁흥	-10.6826
▁재수강	-10.6827
▁같앴어	-10.6829
▁후배	-10.6835
▁전문대	-10.6839
▁마치	-10.6839
▁뜨고	-10.6841
▁드러	-10.6845
▁했었던	-10.6845
▁매달	-10.6851
▁먹었을	-10.6853
▁온다고	-10.6854
▁관리를	-10.6855
▁팩	-10.6857
몽	-10.6864
▁친척	-10.6868
이었고	-10.6868
뒀	-10.6874
룰	-10.6875
라든지	-10.6876
▁출석	-10.6884
▁기본적인	-10.6887
▁탔어	-10.6891
▁빡세게	-10.6891
▁공유	-10.6895
▁떠나서	-10.6898
해줘	-10.6899
▁미드	-10.6904
▁물어봐야	-10.691
▁c	-10.6915
▁나누	-10.6916
벽	-10.6916
▁먹는다	-10.6917
▁좋으	-10.6918
▁모르겠어요	-10.6918
▁되겠	-10.6925
▁찜질방	-10.6928
▁바퀴	-10.6929
▁어이없	-10.6929
▁올라온	-10.693
▁뇌	-10.693
▁버렸	-10.6931
▁있다면	-10.694
▁말로	-10.6942
▁베이스	-10.6947
▁들어갔어	-10.6948
▁제작	-10.695
▁딸이	-10.6953
봐야겠다	-10.6954
▁주위에	-10.6954
▁부부	-10.6958
▁때쯤	-10.6961
앤	-10.6972
▁갈려	-10.698
칭	-10.6981
▁읽을	-10.6981
▁언젠가	-10.6981
▁마무리	-10.6981
▁쿠팡	-10.6981
▁뭐든	-10.6984
▁찔	-10.6987
▁수입	-10.6994
▁만나야	-10.6998
▁조카	-10.7001
▁싸운	-10.7003
▁제사	-10.7006
▁못할	-10.7006
▁봤다고	-10.7011
▁끓여	-10.7011
▁필요해	-10.7014
▁어디에	-10.7016
▁밑	-10.7019
▁언니들	-10.7021
▁몸을	-10.7021
▁다르고	-10.7022
께서	-10.7023
중에	-10.7025
▁넓어	-10.7025
▁대리	-10.7027
▁배고프	-10.703
▁멤버	-10.7035
▁힘들게	-10.7036
▁재밌고	-10.704
▁받지	-10.704
▁여행은	-10.7044
▁공격	-10.7045
▁생각으로	-10.705
▁이빨	-10.7051
▁오른쪽	-10.7053
▁찾아봐	-10.7055
▁누워서	-10.7057
▁가이드	-10.7059
▁사겼	-10.706
▁경우에	-10.7067
긴데	-10.7068
볼려고	-10.7069
▁누워	-10.707
▁염	-10.7074
잘	-10.708
▁언제부터	-10.7083
센터	-10.7085
▁먹었거든	-10.7086
▁알아봐	-10.7086
▁덕	-10.7087
▁시작하면	-10.7088
▁에버랜드	-10.7089
▁노량진	-10.7089
▁내려갔	-10.7091
▁커버	-10.7095
▁들었을	-10.7096
▁별론	-10.7097
▁올라오는	-10.7104
▁레드	-10.7105
▁쩌	-10.7106
▁계단	-10.7112
▁덮	-10.7118
▁사만	-10.7118
▁어울리는	-10.7118
▁보고서	-10.7119
▁지키	-10.7121
▁가구	-10.7121
▁알았다	-10.7123
▁똑	-10.7124
들에	-10.7125
▁들어가지고	-10.7128
▁비자	-10.7131
▁전쟁	-10.7132
▁차려	-10.7132
되어	-10.7137
▁남자들이	-10.7137
▁좋으면	-10.7142
▁컨텐츠	-10.7143
하던데	-10.7146
▁나름대로	-10.7149
▁만점	-10.7149
▁서빙	-10.7152
자들	-10.7155
▁그럴걸	-10.7155
▁동네에	-10.7157
▁하니	-10.7161
학교	-10.7161
▁오전에	-10.7163
▁통일	-10.7169
▁별로였어	-10.7171
▁스트레스를	-10.7171
드라구	-10.7171
▁싸우는	-10.7174
▁이러다가	-10.7174
▁걔네도	-10.7177
▁잡아야	-10.7181
▁전날에	-10.7181
렸다	-10.7183
▁말하기	-10.7197
▁흠	-10.7197
▁아니구나	-10.7197
▁됐네	-10.7197
▁기독교	-10.7198
▁따뜻한	-10.7198
▁고마워	-10.7198
▁느낄	-10.7198
▁기다렸	-10.7202
린다고	-10.7203
▁온대	-10.7205
▁행정	-10.7209
▁연락해	-10.7211
▁약을	-10.7213
▁받아가지고	-10.7214
▁제대	-10.7216
▁은까	-10.7217
▁오래된	-10.7217
▁다니다가	-10.7219
▁아무거나	-10.7222
▁퇴	-10.7223
▁짬	-10.7226
▁두세	-10.7229
▁팀플	-10.7231
▁떨어졌어	-10.7233
룸	-10.7241
▁천만	-10.7243
▁먹어보고	-10.7244
▁않다고	-10.7248
▁사귄	-10.7254
▁레슨	-10.7254
▁넣을	-10.7258
▁땡기	-10.7258
내는	-10.726
▁피고	-10.7262
점을	-10.7264
▁매번	-10.7265
▁사백	-10.7268
▁어땠	-10.727
▁전화해	-10.7271
▁지내고	-10.7272
▁까먹	-10.7274
▁스파	-10.7274
▁일자리	-10.7285
▁형님	-10.7285
▁부를	-10.7286
▁효과가	-10.729
▁얻어	-10.7293
▁없으	-10.7294
▁듣는데	-10.7294
▁거냐고	-10.7301
▁갔었거든	-10.7306
▁맥도날드	-10.7308
▁주제가	-10.7309
▁어렵다	-10.7309
▁말아야	-10.731
▁살인	-10.7313
▁가요	-10.7314
▁쓰기	-10.7319
▁출신	-10.7319
▁하나하나	-10.7321
▁놀랐어	-10.7328
▁만들어야	-10.733
▁품	-10.7337
졌는데	-10.7337
▁노인	-10.7344
▁주잖아	-10.735
궁	-10.7361
▁느끼고	-10.7362
▁손으로	-10.7362
▁끊기	-10.7364
▁몸무게	-10.7364
▁문젠	-10.7368
▁들어보	-10.7371
▁결말	-10.7371
버리면	-10.7374
▁싱	-10.7375
▁입맛	-10.7377
▁일어나는	-10.7379
▁가위	-10.7385
▁먹는다고	-10.7386
▁굽	-10.7391
▁그랬었	-10.7392
▁윗	-10.7393
▁가겠다	-10.7396
스토	-10.7399
▁소문	-10.74
9	-10.7401
▁아프다	-10.7405
▁골드	-10.7406
싸	-10.7409
▁우리나라에	-10.741
▁부르고	-10.741
▁가사	-10.7417
뻔	-10.7419
댕	-10.7419
▁얘기했는데	-10.7419
▁끊고	-10.742
▁오토바이	-10.742
▁목이	-10.742
▁하드라	-10.742
▁올라갈	-10.7423
▁막걸리	-10.7423
▁업체	-10.7423
▁고객	-10.7426
▁써도	-10.7427
내고	-10.7428
▁볼라고	-10.7428
▁b	-10.7428
▁몰랐지	-10.743
▁면접을	-10.743
것도	-10.7431
▁케이	-10.7437
학점	-10.7437
▁주택	-10.7438
▁부자	-10.7438
▁오티	-10.7441
▁든다	-10.7441
▁신입생	-10.745
▁바꿔야	-10.7452
▁냈어	-10.7454
▁찾을	-10.747
▁나온대	-10.7473
라던지	-10.7475
▁재작년	-10.7476
▁사니까	-10.7478
▁김에	-10.7479
▁알람	-10.7481
▁필요할	-10.7483
부를	-10.7488
▁사진이	-10.7497
▁안양	-10.7498
▁쉬어	-10.7504
▁해주면	-10.7508
▁있을지	-10.7508
▁지각	-10.751
겠대	-10.7514
▁재밌긴	-10.7519
▁너네는	-10.7526
▁우주	-10.7527
▁부분에서	-10.7528
▁요리를	-10.753
▁찾아봐야	-10.7532
▁흘러	-10.7532
어져	-10.7534
▁것들은	-10.7535
호가	-10.755
였으니까	-10.7551
▁실내	-10.7555
▁아이들	-10.7558
▁준비할	-10.7558
▁상수	-10.7559
▁부족하	-10.7565
▁해줬어	-10.7571
한단	-10.7575
▁배워야	-10.7576
▁알바하고	-10.7577
▁다르니까	-10.7577
▁들었지	-10.7578
▁너네가	-10.758
▁사면은	-10.7587
▁쌓아	-10.7589
▁피씨방	-10.7589
▁따뜻하	-10.759
▁벌어서	-10.759
김	-10.759
▁변화	-10.7591
▁또래	-10.7596
▁딜	-10.7599
다리	-10.7603
▁형들	-10.7603
▁드라마가	-10.7605
▁됐든	-10.7605
▁최대	-10.761
▁가르치는	-10.761
▁선호	-10.7611
▁해준다	-10.7613
▁격	-10.7613
▁통과	-10.7617
▁잉	-10.7624
하라	-10.7626
▁선생님들이	-10.7626
▁0	-10.7633
▁능력이	-10.7633
▁자신감	-10.7633
▁들으면서	-10.7635
컬	-10.7641
▁간장	-10.7642
▁인기가	-10.7643
▁치과	-10.7644
눌	-10.7644
▁알바할	-10.7646
▁그랬구나	-10.7646
▁스마트폰	-10.7646
▁답답하	-10.7646
▁멀쩡	-10.7647
탐	-10.7649
▁소고기	-10.7651
▁모른	-10.7656
▁썸	-10.766
▁인성	-10.766
▁예약을	-10.7661
▁공군	-10.7662
▁갔으니까	-10.7665
▁없어가지구	-10.7666
▁떨어지면	-10.7675
▁싶거든	-10.7676
▁틀린	-10.768
▁갓	-10.7685
▁어떡하냐	-10.7685
▁계정	-10.7689
▁봤나	-10.769
냈	-10.769
▁쿠	-10.77
▁졸려	-10.7702
춰	-10.7702
▁생기면	-10.7703
▁걷는	-10.7704
▁모의고사	-10.7704
▁숫자	-10.7704
▁그만뒀	-10.7704
▁뻔했	-10.7708
▁내려가서	-10.7714
▁닿	-10.7714
▁영양	-10.7716
▁가봐	-10.7716
▁다니는데	-10.7717
▁차는	-10.7717
▁하기도	-10.7719
▁빠질	-10.772
▁봤었	-10.7722
▁그분은	-10.7727
▁위에서	-10.7727
▁구할	-10.7732
일까	-10.7739
▁헬	-10.7739
▁하려고	-10.7746
▁않더라고	-10.775
▁오른	-10.7754
되니까	-10.7754
▁교대	-10.7757
▁찍으면	-10.7758
▁뷔페	-10.7762
▁섞어	-10.7762
▁검은색	-10.7762
▁소개시켜	-10.7763
잠	-10.7766
▁재능	-10.7768
▁허락	-10.7768
▁따는	-10.777
▁수강	-10.7772
▁잘못된	-10.7772
▁죽은	-10.7773
▁아니거든	-10.7781
▁하더라도	-10.7783
▁찾아봤	-10.7785
▁막히	-10.7785
▁선생님한테	-10.7797
▁살다	-10.7798
▁보라고	-10.7798
▁사장	-10.78
▁누나는	-10.78
▁학원에	-10.7801
▁설치	-10.7803
▁불안	-10.7806
▁시키면	-10.7814
▁검색해	-10.7814
▁맞다고	-10.7816
▁먼지	-10.7818
▁여자는	-10.7819
▁음료	-10.782
▁케익	-10.7821
▁주차	-10.7822
▁맘대로	-10.7822
▁사줬	-10.7824
▁벌어야	-10.7825
묘	-10.7825
B	-10.7825
▁절반	-10.7827
▁여튼	-10.7829
▁나라에서	-10.7829
▁화내	-10.7832
▁담아	-10.7835
▁엥	-10.7835
▁뽑을	-10.784
▁해보면	-10.784
▁좋더라	-10.784
▁s	-10.7841
▁한글	-10.7848
▁편하지	-10.7857
▁입었	-10.7858
▁이상은	-10.7859
▁첨	-10.7866
▁전공이	-10.7871
▁애랑	-10.7872
▁맛은	-10.7876
▁아니더라도	-10.788
▁다이소	-10.7882
콘	-10.7885
▁팔았	-10.7886
▁됐었	-10.7887
▁팍	-10.789
▁했다는	-10.7891
▁게스트	-10.7892
▁예배	-10.7893
▁알바하는	-10.7893
라기보다는	-10.7898
▁곰	-10.7907
것	-10.7912
▁떨어	-10.7914
▁먹방	-10.7915
▁얘도	-10.7915
▁드시	-10.7917
▁근처에서	-10.7917
▁비싸고	-10.7919
▁소화	-10.7923
▁사줘	-10.7928
▁성형	-10.7928
텔	-10.7932
등이	-10.7933
▁곳은	-10.7934
춘	-10.7934
▁방을	-10.7936
▁후쿠오카	-10.7937
▁지난번에	-10.7937
▁확실한	-10.7937
▁미니	-10.7937
▁슈퍼	-10.7938
▁바꾼	-10.7939
▁고대	-10.7945
▁맛있다	-10.7947
▁갔고	-10.7951
▁사이가	-10.7951
▁콜	-10.7952
▁올해는	-10.7955
▁보여줘	-10.7957
▁않어	-10.7962
겠죠	-10.7963
▁세일	-10.7974
▁평소	-10.7974
▁망한	-10.798
▁순수	-10.799
▁인테리어	-10.7996
▁특이한	-10.7997
자로	-10.7999
▁왕복	-10.8
▁입으면	-10.8002
▁얘기했었	-10.8002
▁생각하니까	-10.8009
▁늘어	-10.8011
▁지네	-10.8014
▁결론	-10.8015
▁갈수록	-10.8018
▁자료	-10.8021
▁들어본	-10.8021
험	-10.8022
▁운전을	-10.8023
▁지점	-10.8027
▁다니잖아	-10.803
▁정도야	-10.8033
▁빌	-10.8036
▁투어	-10.8037
▁해보니까	-10.8038
▁무섭다	-10.8042
▁고장	-10.8043
▁가르치	-10.8043
▁예정	-10.8045
▁한잔	-10.805
▁연기를	-10.8051
▁직업이	-10.8052
▁체력이	-10.8054
▁오빠한테	-10.8055
▁낮아	-10.8056
▁영등포	-10.8056
▁이탈리아	-10.8056
▁깨끗하	-10.8056
▁불구하고	-10.8056
▁억지로	-10.8056
▁나왔었	-10.8057
조차	-10.8057
▁여자들이	-10.8058
몬	-10.806
▁쓴다	-10.806
▁갔었잖아	-10.8062
▁걸까	-10.8065
칸	-10.8065
▁돌아오	-10.8066
▁의무	-10.8066
▁압	-10.8067
▁지원이	-10.8068
▁기구	-10.8068
▁없었거든	-10.8069
▁됐으니까	-10.807
▁사진도	-10.8072
▁전형	-10.8073
▁퇴사	-10.8076
▁드라마를	-10.8081
▁왜냐	-10.8089
▁같으니까	-10.8091
▁남자는	-10.8095
▁중반	-10.8097
보면은	-10.8102
빤	-10.8104
▁고급	-10.8107
▁부산에	-10.8109
벅	-10.8116
▁교환학생	-10.8116
듀	-10.8116
▁PT	-10.8116
▁그저께	-10.8116
▁치우	-10.8118
퇴	-10.8119
▁단순	-10.812
▁골프	-10.8123
▁공부해야	-10.8128
▁동갑	-10.8128
버리고	-10.8136
▁신림	-10.8139
▁다르다	-10.8143
▁없었지	-10.8144
▁귀찮은	-10.8146
▁바닥	-10.8148
▁제목	-10.8151
▁생선	-10.8155
▁문제를	-10.8159
▁보내줬	-10.8161
▁생각난	-10.8165
▁먹다	-10.817
▁요번	-10.8172
▁비용이	-10.8174
▁족발	-10.8176
▁한마디	-10.8176
▁진지하게	-10.8176
▁타야	-10.8184
푸	-10.8188
털	-10.8188
▁좋아했어	-10.819
▁정신이	-10.8193
▁국제	-10.8193
라던가	-10.8196
▁생일이	-10.8205
▁잡아서	-10.8212
▁잘생겼	-10.8214
▁제목이	-10.8215
▁D	-10.8216
해갖고	-10.8219
▁감정이	-10.8222
▁라식	-10.823
▁잠시	-10.8231
▁않지만	-10.8233
방에서	-10.8235
▁방에서	-10.8235
겠더라고	-10.8236
▁썼다	-10.8237
▁인스타그램	-10.8237
▁공부는	-10.8237
▁결국에	-10.8238
▁했었고	-10.8239
▁숙박	-10.824
▁일식	-10.824
▁중요해	-10.8246
▁자르	-10.8249
▁적성	-10.8253
▁하기가	-10.8253
▁셀	-10.8254
▁약속이	-10.8261
▁형한테	-10.8261
▁경주	-10.8263
▁따지면	-10.8264
▁핵	-10.8274
▁이걸로	-10.8274
기엔	-10.8275
▁상황에서	-10.8276
▁주인공이	-10.8277
▁만나러	-10.8277
▁갔나	-10.8282
▁갠	-10.8284
▁버려	-10.8287
▁급식	-10.8292
▁긋	-10.8292
▁쓰면은	-10.8296
듬	-10.8296
팡	-10.8297
▁수강신청	-10.8297
▁초록색	-10.8297
▁한양대	-10.8298
▁휴학을	-10.8303
▁없더라	-10.8304
▁혜화	-10.8306
▁맞은	-10.8313
▁된다니까	-10.8315
▁운동하는	-10.8318
▁왔으니까	-10.8318
봐야지	-10.832
▁한쪽	-10.8322
▁들어봤어	-10.8324
▁돼가지구	-10.8327
▁나가기	-10.8329
▁단점	-10.833
▁비율	-10.8331
▁먹긴	-10.8332
▁때매	-10.8336
▁대상	-10.8337
▁자긴	-10.8342
검	-10.8345
▁하겠다고	-10.8351
쇠	-10.8359
▁캐리어	-10.8359
▁잘생긴	-10.8359
▁다니니까	-10.8359
탁	-10.8362
▁탓	-10.8363
▁전과	-10.8363
▁많더라	-10.8367
▁지워	-10.8369
▁그러진	-10.837
다던가	-10.837
해보고	-10.8371
▁얼굴에	-10.8373
싶	-10.8374
▁시스템	-10.8378
할라고	-10.8387
▁문을	-10.8391
▁조리	-10.8392
▁싫었어	-10.8392
▁선택을	-10.8398
▁90	-10.8399
▁학사	-10.84
▁맛있고	-10.8401
▁걸리고	-10.8403
▁원장	-10.8406
▁하겠지만	-10.8407
▁뽑았	-10.8415
▁달라지	-10.8417
E	-10.8421
깡	-10.8421
씬	-10.8421
▁CGV	-10.8421
▁패턴	-10.8421
▁어린이집	-10.8423
보지	-10.8426
▁먹어봤	-10.8429
▁양말	-10.8429
▁천안	-10.8433
▁모른다	-10.8433
빌	-10.8437
팩	-10.8437
▁제출	-10.844
▁보이잖아	-10.8442
바닥	-10.8442
▁선배가	-10.8443
▁지어	-10.8444
▁쓰게	-10.8445
큼	-10.8447
▁얼굴을	-10.8448
▁뿐	-10.8449
▁캔	-10.8452
▁대개	-10.8453
▁그쪽이	-10.8453
▁자기네들	-10.8456
▁비싸잖아	-10.8458
▁가봐야	-10.8462
▁꿈을	-10.8472
▁인터넷으로	-10.8473
▁둘러	-10.8475
▁재밌더라고	-10.8475
▁나이에	-10.8476
▁갈게	-10.8482
▁김치찌개	-10.8483
▁깎아	-10.8483
▁배드민턴	-10.8483
▁드럼	-10.8484
▁들어오고	-10.8487
▁펜	-10.849
▁모습이	-10.8491
▁강아지가	-10.8495
▁편지	-10.8495
▁진로	-10.8495
▁외박	-10.8498
▁관련해서	-10.8498
▁아니래	-10.8503
버렸어	-10.8505
▁피파	-10.8505
▁의심	-10.8507
▁많던데	-10.8507
▁있었단	-10.8512
▁코드	-10.8514
텐	-10.8516
▁어디든	-10.8518
▁믿어	-10.8521
▁칠천	-10.8524
▁얘기했지	-10.8524
▁이십만	-10.8528
▁재밌다고	-10.8529
▁축하	-10.8533
▁수익	-10.8542
됐어	-10.8544
밴	-10.8545
덤	-10.8545
밭	-10.8545
▁태권도	-10.8545
▁하우스	-10.8545
▁짬뽕	-10.8545
▁온라인	-10.8545
▁볶음밥	-10.8545
▁뛰는	-10.8546
▁나갔다	-10.8549
하기로	-10.8549
▁푸는	-10.855
▁갠가	-10.8553
몰	-10.8562
용으로	-10.8565
▁구글	-10.857
으로써	-10.8572
▁보여주고	-10.8573
▁부모님한테	-10.8574
▁확인해	-10.8581
▁셋이서	-10.8585
▁인증	-10.8587
▁얘네들	-10.8587
▁망고	-10.859
▁글로	-10.8592
▁누르	-10.8593
▁면제	-10.8594
▁가평	-10.8597
▁입장이	-10.8599
▁나오거든	-10.86
들만	-10.8601
▁칠만	-10.8602
▁자리를	-10.8604
▁차별	-10.8604
▁근로	-10.8605
▁들으니까	-10.8605
툭	-10.8608
▁부동산	-10.8608
▁익숙해	-10.8608
▁승무원	-10.8608
▁말인지	-10.8608
▁컴활	-10.8609
돌이	-10.8609
진다고	-10.8613
▁자면	-10.8615
▁얘기하는데	-10.8615
▁토론	-10.8616
▁까먹었어	-10.8628
이지만	-10.863
▁부른	-10.8633
▁갈려면	-10.8642
▁들렸	-10.8644
▁데꼬	-10.865
▁없던데	-10.8653
▁습	-10.8653
▁페이지	-10.8654
▁대형	-10.8655
▁영화관에서	-10.866
슈	-10.8662
▁목적	-10.8664
▁해보는	-10.8667
▁뜯어	-10.8671
▁삶을	-10.8671
▁여태까지	-10.8671
▁고구마	-10.8672
▁이력서	-10.8672
▁아이템	-10.868
▁맨유	-10.8682
▁합쳐서	-10.8686
▁싶어요	-10.869
▁구하는	-10.8691
생들	-10.8694
▁손에	-10.8708
▁아이디어	-10.8709
▁가능한	-10.8709
▁학생이	-10.8712
▁헤어	-10.8718
▁형제	-10.8719
▁말했지	-10.8724
▁헤어지고	-10.8724
▁됐으면	-10.8727
시더라고	-10.873
▁모습을	-10.8733
멘	-10.8734
▁이사를	-10.8735
▁오랫동안	-10.8735
껏	-10.8735
샷	-10.8735
▁생각나는	-10.8736
▁심심하	-10.8737
▁닭발	-10.8738
▁가족끼리	-10.8739
▁시내	-10.874
▁광주	-10.8741
▁아깝다	-10.8744
▁전체적으로	-10.8745
▁시작해	-10.8749
▁단발	-10.875
▁보통은	-10.8754
▁먹겠	-10.8756
▁공포	-10.8757
폭	-10.8757
a	-10.8757
끈	-10.8757
엘	-10.8758
곳	-10.8758
몇	-10.8758
▁구백	-10.8762
▁이겨	-10.8763
▁진상	-10.8763
▁않니	-10.8766
▁구하고	-10.8767
▁않거든	-10.8769
▁느낌을	-10.877
▁징	-10.8772
▁같았	-10.8774
▁대본	-10.878
▁없었잖아	-10.8782
▁누나랑	-10.8783
▁매주	-10.8784
▁존	-10.8785
▁이쁘게	-10.8785
▁느껴져	-10.8786
없이	-10.8789
▁기가	-10.879
▁붙을	-10.8791
▁말해주	-10.8791
▁정말로	-10.8795
▁엄청난	-10.8798
▁콜라	-10.8798
낀	-10.8799
▁조심해야	-10.8799
▁도저히	-10.8799
▁마케팅	-10.8799
▁프로젝트	-10.8799
핏	-10.8799
▁엽떡	-10.8799
▁것보다는	-10.8799
▁준대	-10.8801
▁종합	-10.8803
▁쭈	-10.8805
▁못했어	-10.8807
▁붙는	-10.8811
▁만나기	-10.8811
▁울산	-10.8815
탑	-10.8823
▁개념이	-10.8823
▁없어진	-10.8824
▁봤어요	-10.8831
▁붙고	-10.8832
받아	-10.8835
받을	-10.8844
▁알아봤	-10.8846
▁바꼈어	-10.885
▁부분은	-10.8858
▁맡기	-10.8864
▁타이밍	-10.8864
▁활용	-10.8864
▁계절학기	-10.8865
▁게다가	-10.887
▁차단	-10.8872
▁버리는	-10.8876
▁찾아봤는데	-10.8879
▁맛있겠다	-10.888
▁빠졌어	-10.889
▁않겠지	-10.889
이었으니까	-10.8894
▁있거나	-10.8895
▁싶으면은	-10.8896
시험	-10.8898
▁사주고	-10.89
▁성장	-10.8901
났어	-10.8901
▁내일은	-10.8902
시쯤	-10.8903
▁선수들	-10.8904
▁순서	-10.8908
▁계획은	-10.891
▁건물이	-10.8912
▁인원	-10.8914
▁너보다	-10.8916
▁주니까	-10.8917
템	-10.892
▁이불	-10.8927
g	-10.8928
▁끊을	-10.8929
▁에어팟	-10.8929
▁귀걸이	-10.8929
▁빌려서	-10.8929
▁주제로	-10.8929
▁흑	-10.893
▁같네	-10.8931
▁뽑고	-10.8931
▁물고기	-10.8934
▁시간씩	-10.8934
▁발견	-10.8934
▁전공을	-10.8934
▁사귀고	-10.8936
▁병원에서	-10.8941
▁애니	-10.8942
▁느낌은	-10.8942
▁던져	-10.8947
했었잖아	-10.895
▁버린	-10.8952
▁청년	-10.8953
▁보진	-10.8953
샤	-10.8955
▁줬는데	-10.8955
▁만나지	-10.8956
▁마셨어	-10.8957
▁정해진	-10.8958
▁그렇대	-10.8958
▁주세요	-10.8964
▁감사	-10.8975
▁하길래	-10.8977
▁탕	-10.8979
했냐	-10.8981
▁반지	-10.8988
▁추워서	-10.8989
▁되더라	-10.8989
라든가	-10.899
V	-10.8994
▁인터뷰	-10.8994
텀	-10.8994
▁가볍게	-10.8994
▁아쉬워	-10.8994
▁결혼할	-10.8994
▁얘기하면서	-10.8996
▁부분들	-10.8998
▁일이야	-10.8998
▁느낌인	-10.9002
▁오후에	-10.9003
▁했겠지	-10.9003
▁설명해	-10.9007
▁같다는	-10.9008
증이	-10.9009
▁동네에서	-10.9012
▁자격증을	-10.9012
▁조사	-10.9013
▁콩	-10.9013
▁욕먹	-10.9013
▁말랐	-10.9015
▁조건	-10.9017
▁맞잖아	-10.9017
▁사랑니	-10.9021
느라고	-10.9021
▁뉴	-10.9021
▁운동하고	-10.9027
더래	-10.9028
▁남편이	-10.9034
▁확률이	-10.9036
▁죽고	-10.9036
▁없겠지	-10.9037
▁범	-10.904
▁봤으면	-10.9042
▁들어봐	-10.9042
▁글고	-10.9043
▁들여	-10.9044
▁얘랑	-10.9053
흘	-10.9055
▁공학	-10.9055
▁하루종일	-10.906
▁어트케	-10.906
▁혜택	-10.9061
으루	-10.9061
▁겨우	-10.9065
▁에어	-10.9066
▁쩜	-10.9068
▁태워	-10.9069
쳐가지고	-10.9071
▁좋아가지고	-10.9072
▁부평	-10.9073
▁한계	-10.9073
▁왔대	-10.9077
▁이거야	-10.9077
▁바닥에	-10.908
▁편하고	-10.908
▁구두	-10.9081
▁올라가서	-10.9083
▁내용을	-10.9098
▁부정	-10.9102
▁인물	-10.9103
▁되는구나	-10.9115
▁쪄	-10.9121
▁슬프	-10.9124
▁시작해서	-10.9125
▁가보자	-10.9125
팝	-10.9126
▁칵테일	-10.9126
▁바깥	-10.9126
▁엉덩이	-10.9126
▁경희대	-10.9126
▁가운데	-10.9126
▁시계	-10.913
▁복지	-10.9138
▁버릴	-10.9139
▁공부해	-10.914
▁보냈어	-10.9143
▁옛날엔	-10.9144
▁정도밖에	-10.9144
했다가	-10.9147
▁늘어나	-10.9149
▁기양	-10.9154
▁몇십	-10.916
했단	-10.9165
▁방식	-10.9166
▁있드라고	-10.9168
▁꽂아	-10.9168
함이	-10.9169
▁a	-10.9169
▁그러드라고	-10.9173
▁티가	-10.9175
▁하드	-10.9179
▁지르	-10.9181
▁종로	-10.9181
▁펌	-10.9186
셔야	-10.919
월까지	-10.9191
껀	-10.9193
▁바뀔	-10.9193
400	-10.9195
해준	-10.9196
▁걱정되	-10.9198
▁배고프다	-10.9199
▁있으니깐	-10.9202
▁남녀	-10.9203
▁쎈	-10.9207
▁감당	-10.9209
▁추석	-10.921
▁일인가	-10.9212
▁연관	-10.9223
다던지	-10.9226
▁연장	-10.9228
▁회식	-10.9231
▁나가지	-10.9233
▁중국에서	-10.9241
▁움직이는	-10.9242
▁편의점에서	-10.9243
▁끌어	-10.9246
▁만나자	-10.9247
▁넓은	-10.9249
▁어떡하	-10.9252
▁끝에	-10.9256
▁아쉬운	-10.926
▁손가락	-10.926
▁경쟁률	-10.926
▁주위	-10.926
▁타면은	-10.9261
▁그분들	-10.9261
▁복싱	-10.9261
▁흐름	-10.9261
▁슬퍼	-10.9262
▁도시락	-10.9263
왔어	-10.9263
▁상관없이	-10.9263
▁인싸	-10.9264
▁그렇지만	-10.9265
▁이미지가	-10.9265
▁다니지	-10.9266
▁맞았어	-10.9266
▁행동을	-10.9272
▁육군	-10.9274
▁제주	-10.9274
▁계신	-10.9274
▁그렇죠	-10.9275
심이	-10.9276
▁터졌	-10.9276
준대	-10.9276
▁얼마야	-10.9276
▁마냥	-10.9278
▁약속을	-10.9279
▁단위	-10.928
▁다니기	-10.9281
▁21	-10.9284
▁봤었는데	-10.9287
▁넘는	-10.9289
▁올릴	-10.9291
▁자체도	-10.9293
해져	-10.9295
▁이론	-10.9296
▁알려줬	-10.9298
▁단톡	-10.9303
▁학생들이	-10.9304
▁걸리지	-10.9307
▁쓰던	-10.9308
▁파일	-10.9308
▁맞게	-10.9312
▁남았는데	-10.9313
▁사전	-10.9315
▁낫다	-10.9319
▁이겼	-10.9321
▁친하게	-10.9324
U	-10.9327
▁칭찬	-10.9327
▁토트넘	-10.9327
▁하얀	-10.9332
▁속에	-10.9332
▁옷은	-10.9335
▁한국말	-10.9337
▁가겠지	-10.9338
▁벤	-10.9339
▁쌩	-10.9339
▁회복	-10.9339
▁아니냐고	-10.9342
▁믿고	-10.9343
▁자격	-10.935
▁맞추	-10.9353
▁헤어진	-10.9357
▁흰	-10.9364
▁고기를	-10.9366
▁보였어	-10.9366
▁잘못한	-10.9371
▁반대로	-10.9375
하셔	-10.9376
▁손님들	-10.9377
념	-10.9381
▁할라면	-10.9381
▁벗	-10.9382
▁그만두고	-10.9383
▁고민이야	-10.9387
스럽게	-10.9387
▁파주	-10.9388
▁봤었어	-10.9392
▁맡아	-10.9395
▁멘탈	-10.9395
▁밝은	-10.9395
▁이랬었	-10.9395
닉	-10.9395
▁컨셉	-10.9395
먹는	-10.9395
▁에너지	-10.9396
▁났다	-10.9396
▁알아듣	-10.9396
▁그만둔	-10.9396
▁망했어	-10.9397
▁춤추	-10.9398
▁맻	-10.9399
▁번역	-10.9403
▁많으	-10.9403
▁배송	-10.9404
▁속으로	-10.9404
▁실망	-10.9404
▁지냈	-10.9405
▁통계	-10.9406
▁우동	-10.9411
▁타입	-10.9414
▁확신	-10.9416
▁애플	-10.9419
▁싸워	-10.942
▁만져	-10.9425
▁소재	-10.9426
▁알려주고	-10.9428
▁비싸다	-10.9429
▁떠들	-10.9435
려다가	-10.9436
▁매년	-10.9441
▁어떨	-10.9446
▁이길	-10.9447
버리는	-10.9449
▁냉면	-10.9452
▁공간이	-10.9454
▁메인	-10.9454
▁외국인들	-10.9456
▁됐거든	-10.946
릉	-10.9462
▁케어	-10.9462
틈	-10.9464
▁안타깝	-10.9464
▁돈가스	-10.9468
▁않네	-10.9468
▁훈련소	-10.947
▁쪽을	-10.9472
▁논문	-10.9477
▁돌아가는	-10.9479
일날	-10.948
▁말했는데	-10.948
▁참치	-10.9482
▁껌	-10.9483
▁친구들한테	-10.9484
▁달아	-10.9492
톡	-10.9498
▁스케	-10.9499
▁스시	-10.9503
▁해달라고	-10.9503
▁카트	-10.9504
▁싸지	-10.9515
▁안되는	-10.9522
▁열정	-10.9522
▁미용	-10.9525
▁사자	-10.9526
▁건너	-10.9531
분들	-10.9531
멜	-10.9533
▁트위터	-10.9533
▁와이파이	-10.9533
▁최종	-10.9536
▁없단	-10.9536
▁쿠키	-10.9536
▁어울려	-10.9537
▁바뀌는	-10.9538
▁살려	-10.9539
▁봤더니	-10.954
▁인맥	-10.954
▁터져	-10.954
▁가려	-10.954
▁중독	-10.9543
▁오빤	-10.9546
▁드라마는	-10.9555
▁향수	-10.9555
▁쩌기	-10.9559
▁기억해	-10.9564
▁활동을	-10.9566
▁생각하면은	-10.9567
▁어디까지	-10.9569
▁하기에는	-10.9572
▁웃겼	-10.9582
▁아직까지는	-10.9585
▁팔만	-10.9589
▁그러구	-10.9594
▁샀잖아	-10.9602
▁꼰대	-10.9602
▁조만간	-10.9602
▁계좌	-10.9603
이었다	-10.9603
▁교환	-10.9605
▁뭘로	-10.9609
▁나간다	-10.9609
▁입은	-10.961
켜	-10.9615
▁편은	-10.9623
▁외가	-10.9624
▁형식	-10.9626
▁아니어도	-10.9627
▁다행이네	-10.9629
▁배우면	-10.9635
▁당시	-10.9635
▁마약	-10.964
▁요거	-10.964
▁멋있어	-10.9645
▁밑에서	-10.9646
▁상관없는데	-10.9647
이라든지	-10.965
▁한다면	-10.965
▁소비	-10.9655
었구나	-10.9656
▁수정	-10.9656
▁자존심	-10.9672
▁어려울	-10.9672
▁유튜브에	-10.9674
봤거든	-10.9675
건데	-10.9677
▁곳에서	-10.9679
▁봐주	-10.968
▁휴학하고	-10.9681
▁불법	-10.9683
▁원룸	-10.9685
▁면이	-10.9688
▁서울로	-10.9689
▁연출	-10.969
섯	-10.969
▁웃겼어	-10.9694
으신	-10.97
혜	-10.9705
▁뜻이	-10.9705
▁그래픽	-10.9705
▁준비해	-10.9708
▁뭐냐면은	-10.9709
홀	-10.9713
▁넘어가는	-10.9718
▁꽁	-10.972
▁사야지	-10.972
▁인터넷에	-10.9724
▁뿌려	-10.9724
▁생겼는데	-10.9727
▁신문	-10.9727
▁경력이	-10.9735
▁인원이	-10.9739
▁사람의	-10.974
▁찾아보면	-10.9741
▁다녔던	-10.9743
▁왔었어	-10.9743
▁여의도	-10.9744
▁특별히	-10.9744
▁후라이	-10.9745
▁스킨	-10.9746
▁블루	-10.9746
▁과에	-10.9747
▁공식	-10.9748
▁말해야	-10.9755
▁알아봐야	-10.9762
▁재밌었던	-10.9763
▁울고	-10.9765
▁알겠지	-10.9765
▁쌍	-10.9768
▁점심에	-10.9785
▁남성	-10.9785
▁외부	-10.9786
▁고민하고	-10.9789
▁요일	-10.9793
▁힘들겠다	-10.9794
▁하는구나	-10.9812
딘	-10.9812
덩	-10.9813
탱	-10.9814
▁그랬으면	-10.9814
쇄	-10.9814
칩	-10.9814
▁테니스	-10.9814
▁낭비	-10.9814
▁달리	-10.9824
▁조명	-10.9829
▁타서	-10.9829
▁욕심이	-10.9835
▁웃고	-10.9838
된다고	-10.984
▁급하게	-10.984
▁광명	-10.9844
▁목동	-10.9845
▁습관	-10.9847
▁오셨	-10.9848
뻐	-10.985
▁모르겠는	-10.9851
▁듣지	-10.9852
▁반응이	-10.9854
줄까	-10.9864
▁살라고	-10.9866
▁앗	-10.9872
자들이	-10.9876
븐	-10.9877
▁아저씨들	-10.9878
▁누구나	-10.988
▁여름방학	-10.9885
▁짧아	-10.9885
▁포토샵	-10.9885
띵	-10.9885
▁의정부	-10.9885
▁상하차	-10.9885
▁사투리	-10.9885
▁짓을	-10.9888
▁통금	-10.9897
▁환경이	-10.9898
▁회원	-10.9901
▁밑으로	-10.9905
▁앙	-10.9906
▁돌고	-10.9913
▁원인데	-10.9923
▁넣어서	-10.9928
뿐이	-10.9936
▁고양이가	-10.9937
▁아니였어	-10.9939
▁빼는	-10.9946
▁입대	-10.9946
▁잡으면	-10.9948
▁가격도	-10.9949
▁중에서도	-10.995
▁보내준	-10.9954
즐	-10.9956
땜	-10.9956
▁읽으면	-10.9957
▁기말고사	-10.9957
▁저렴하	-10.9958
▁땡겨	-10.9959
▁로망	-10.9959
▁부리	-10.996
▁포스터	-10.9961
▁입어야	-10.9963
▁얘를	-10.9964
▁지금부터	-10.997
▁부러	-10.9972
▁그쪽은	-10.9972
▁알기로	-10.9979
▁그릇	-10.998
해놓고	-10.9981
▁외국에서	-10.9982
▁선배들이	-10.9982
▁혹	-10.9985
▁상관없지	-10.9991
▁생겨서	-10.9995
▁예서	-10.9999
▁한동안	-10.9999
▁합정역	-11.0003
폐	-11.0004
냐면은	-11.0004
쇼	-11.0005
▁오면서	-11.0015
▁대놓고	-11.0018
▁분석	-11.0019
겠니	-11.002
▁비싸게	-11.0022
▁카톡을	-11.0024
▁시급이	-11.0025
▁미치	-11.0028
▁다녔는데	-11.0029
▁아메리카노	-11.003
▁됐던	-11.0037
▁연봉	-11.004
▁과목이	-11.0041
▁기록	-11.0041
▁양심	-11.0043
▁하던가	-11.0051
▁바꾸는	-11.0055
▁모르지만	-11.0056
▁중심	-11.0057
▁빠르게	-11.0058
▁남자들은	-11.006
▁주먹	-11.0061
▁어색해	-11.0062
900	-11.0064
▁빽	-11.0072
▁볼게	-11.0077
떼	-11.0078
띠	-11.0079
셋	-11.0079
▁꼽	-11.0083
▁전라도	-11.0091
▁오래됐어	-11.0092
▁틀려	-11.0093
참	-11.0094
▁사장이	-11.0094
▁기숙	-11.0095
스러워	-11.0102
▁볼래	-11.0102
▁놓은	-11.0102
▁시끄럽	-11.0102
▁미디어	-11.0102
▁나오더라고	-11.0103
▁액션	-11.0103
▁어떡할	-11.0105
▁테스트	-11.0106
▁틀렸	-11.0109
▁문법	-11.0109
▁넘겨	-11.011
▁들면은	-11.0111
▁자기들	-11.0115
▁먹구	-11.0128
▁나라가	-11.0131
▁사라지	-11.0132
▁아까운	-11.0133
▁무용	-11.0137
▁육천	-11.0141
▁깨지	-11.0141
▁몰랐네	-11.0143
▁주일	-11.0151
깔	-11.0153
졸	-11.0154
▁대사	-11.0154
▁무서웠	-11.0158
▁수시로	-11.016
▁시원	-11.0161
▁적게	-11.0162
▁노원	-11.0167
▁다리가	-11.017
▁뜬금없	-11.0176
빗	-11.0176
▁풋살	-11.0176
▁예고편	-11.0176
▁재미있	-11.0177
▁파는데	-11.0178
▁알다시피	-11.0179
▁갈아타	-11.018
▁코딩	-11.018
▁놀면	-11.0181
▁창업	-11.0184
▁결과가	-11.0185
▁저장	-11.0187
▁지옥	-11.0189
▁미안하	-11.019
▁와중에	-11.0192
이라던가	-11.0193
봐서	-11.0193
▁왔던	-11.0194
▁아줌마들	-11.0198
늘	-11.0199
▁취향이	-11.0202
▁냉	-11.0203
▁그렇더라고	-11.0214
앙	-11.022
▁위해	-11.0227
▁고파	-11.0227
붙	-11.0229
▁보여서	-11.0231
▁직장인	-11.0237
케이	-11.0242
▁착해	-11.0248
▁그랬고	-11.025
▁이랬거든	-11.025
▁이랬지	-11.025
▁출퇴근	-11.025
▁퀄리티	-11.025
▁홈페이지	-11.025
▁어딘데	-11.025
▁작가가	-11.025
▁일어날	-11.025
▁자리에서	-11.0252
▁들어가니까	-11.0254
▁물가가	-11.0259
▁술자리	-11.0259
▁들어가지	-11.0262
▁이쪽으로	-11.0263
▁축구를	-11.0263
▁스무살	-11.0263
▁수당	-11.0267
▁신촌에	-11.0268
▁용산	-11.0268
▁무서웠어	-11.0268
▁사이에서	-11.027
▁할아버지가	-11.0271
▁그것보다	-11.0272
▁쓴다고	-11.0278
▁나왔다고	-11.0281
▁탔는데	-11.0285
▁만나가지고	-11.0289
있잖아	-11.0289
▁대여	-11.0289
▁극장	-11.0296
킨	-11.0296
▁멀지	-11.03
확	-11.03
겁	-11.0301
▁찾기	-11.0303
헌	-11.0304
▁이후	-11.0308
▁기억나는	-11.0313
▁없어져	-11.0313
▁졸업할	-11.0317
꾼	-11.0322
▁tv	-11.0325
▁토마토	-11.0325
▁힐링	-11.0325
▁우리보다	-11.0325
▁MT	-11.0325
▁예비군	-11.0326
▁살다가	-11.033
▁입술	-11.0337
▁육백	-11.0339
▁남겨	-11.0342
▁내려서	-11.0344
▁있었으니까	-11.0346
▁드니까	-11.0348
▁걸렸어	-11.035
으러	-11.0353
▁크니까	-11.0354
▁없을걸	-11.036
▁성당	-11.0362
▁보상	-11.0367
▁똑같지	-11.0371
▁결혼하	-11.0374
▁전역하고	-11.0376
▁대게	-11.038
▁나오기	-11.0386
▁느껴지는	-11.0387
▁캠	-11.0391
해줄	-11.0392
▁받으	-11.0392
쪽으로	-11.0395
▁연말에	-11.0397
▁오케	-11.0399
시키	-11.0399
▁대통령	-11.04
룬	-11.04
▁OT	-11.04
▁댄스	-11.04
▁심각하	-11.0401
▁잡은	-11.0402
▁이득	-11.0403
▁넘어갔	-11.0404
▁대해선	-11.0406
▁얘네가	-11.0406
▁들었다	-11.0408
▁가져오	-11.0408
▁양식	-11.0409
리아	-11.0409
▁어쩌고	-11.0413
▁밖으로	-11.0413
▁최소한	-11.0426
▁부서	-11.0428
▁싸울	-11.0428
▁재수를	-11.043
▁일하면서	-11.0431
▁23	-11.0434
▁전달	-11.0438
▁없어졌어	-11.0447
▁찝	-11.0448
▁넣으면	-11.0451
▁교수가	-11.0452
▁신기하네	-11.0455
▁지내는	-11.0456
콜	-11.0458
휘	-11.0458
▁들어보면	-11.0459
넨	-11.0467
였구나	-11.0467
▁반까지	-11.0473
▁멋있다	-11.0474
▁다녔었	-11.0476
▁소식	-11.0476
▁스튜디오	-11.0476
▁유투버	-11.0476
냬	-11.0476
숲	-11.0476
▁만들기	-11.0476
▁슬픈	-11.0476
▁필름	-11.0478
▁프로필	-11.0478
▁나에게	-11.048
▁내용은	-11.0484
▁미팅	-11.0485
▁면에서	-11.0487
▁참아	-11.0487
▁회색	-11.0488
▁자극	-11.0489
▁주민	-11.049
▁추울	-11.049
▁안녕	-11.0491
▁동창	-11.0492
▁앤데	-11.0495
▁근육이	-11.0499
했는지	-11.0501
▁지원해	-11.0509
▁미루	-11.0511
▁조회	-11.0511
▁취한	-11.0513
▁큐	-11.0515
▁알려준	-11.0515
▁쓸데없는	-11.0516
▁설정	-11.0517
▁만들면	-11.0524
▁백수	-11.0524
▁하세요	-11.0526
▁노동	-11.0531
▁핀	-11.0534
압	-11.0535
▁결국은	-11.0543
▁않았던	-11.0545
▁받아들이	-11.0545
▁묘	-11.0545
했었거든	-11.0548
▁진심	-11.0548
▁그렇구	-11.0549
층에	-11.0551
엑	-11.0551
▁대한민국	-11.0552
▁메이크업	-11.0552
텍	-11.0552
▁바닷가	-11.0552
▁오디션	-11.0552
▁무거운	-11.0552
▁사귈	-11.0552
▁중간고사	-11.0552
▁짜장면	-11.0552
▁하얀색	-11.0553
▁라이브	-11.0553
▁분들은	-11.0559
▁일본인	-11.0559
▁있습니다	-11.056
800	-11.0563
▁버스를	-11.0565
▁내려가는	-11.0567
▁일반인	-11.0567
▁지리	-11.0567
▁저녁을	-11.0575
▁뛰고	-11.0581
▁동의	-11.0581
▁텐	-11.0592
▁쪼그만	-11.0596
▁상태가	-11.0613
▁준비해야	-11.0613
▁리더	-11.0613
밤	-11.0614
▁아줌마가	-11.0615
▁강아지를	-11.0619
▁있었다고	-11.0626
▁하래	-11.0626
▁마이너스	-11.0629
▁파란색	-11.0629
뇨	-11.0629
▁도어락	-11.0629
▁뷰티	-11.0629
▁룸메	-11.0629
▁붙잡	-11.0632
▁직원들	-11.0632
여가지구	-11.0634
볼게	-11.0635
▁깔끔하게	-11.0637
▁가꼬	-11.0637
▁세븐	-11.0637
리면서	-11.064
▁말았	-11.0642
▁가능성이	-11.0647
▁동시에	-11.0648
▁학점을	-11.0653
▁하실	-11.0654
▁여자들은	-11.0655
▁가족들이랑	-11.0658
▁행복한	-11.0658
▁해달라	-11.0659
▁전화해서	-11.0661
사님	-11.0664
▁선생님은	-11.0671
받은	-11.0672
▁용인	-11.0672
▁샘	-11.0673
▁위험한	-11.0673
▁알아본	-11.0673
분들이	-11.0678
▁사오	-11.0678
▁운동화	-11.068
▁정도까지	-11.068
▁자리에	-11.0689
▁오키	-11.0691
▁특별	-11.0694
▁궁금해서	-11.0699
▁생활비	-11.07
▁무한리필	-11.0706
▁예체능	-11.0706
▁이랬잖아	-11.0706
▁일러스트	-11.0706
▁정거장	-11.0706
▁삭제	-11.0707
▁리뷰	-11.0708
▁올라간	-11.0713
▁커지	-11.0713
▁잉까	-11.0714
▁마취	-11.0718
▁특별한	-11.072
▁성향	-11.072
▁금요일에	-11.0726
▁넣은	-11.0729
▁돌아왔	-11.0729
▁보여주는	-11.073
▁동양	-11.0731
▁층에	-11.0732
▁청소년	-11.0733
▁먹던	-11.0737
▁작업실	-11.0743
▁세부	-11.0747
해봐	-11.0748
▁괴	-11.0755
달래	-11.0758
▁가져와	-11.0758
▁원주	-11.0759
▁혼났	-11.0759
▁놀랐	-11.0764
▁많네	-11.0764
▁좋아했는데	-11.0765
▁내려가면	-11.0765
▁아껴	-11.0765
딜	-11.0767
▁그건데	-11.0769
▁왔으면	-11.0769
▁무료로	-11.077
G	-11.0771
▁써가지고	-11.0777
▁많았던	-11.0777
▁싶대	-11.0779
▁본사	-11.078
▁그러거든	-11.078
▁못하겠	-11.0781
▁디저트	-11.0784
▁아쉬웠	-11.0784
▁안녕하세요	-11.0785
▁카카오톡	-11.0785
▁일어난	-11.0785
▁일어나면	-11.0785
▁계셔	-11.0791
▁월부터	-11.0792
▁요런	-11.0792
▁들어간다	-11.0793
▁받았다	-11.0796
▁속에서	-11.0796
▁없었다	-11.0797
▁보던	-11.0803
잔데	-11.0803
▁했으면은	-11.0806
▁일어났는데	-11.0806
▁곱	-11.0806
▁일정이	-11.0808
▁않는다	-11.0809
▁봤으니까	-11.081
▁연예인들	-11.081
▁부담이	-11.0813
▁교회에서	-11.0816
▁했구나	-11.0818
▁보자고	-11.082
▁도움을	-11.082
▁뻔했어	-11.0829
▁보여준	-11.083
▁그때쯤	-11.083
▁없구나	-11.0831
▁입원	-11.0831
▁중인데	-11.0833
▁해석	-11.0833
▁표정이	-11.0837
▁있으면서	-11.0844
▁일어나야	-11.0848
▁빌려주	-11.085
▁바꾸면	-11.0851
b	-11.0852
눈	-11.0852
▁이러지	-11.0854
▁비싼데	-11.0856
뽕	-11.0863
▁엑셀	-11.0863
▁포트폴리오	-11.0863
▁춘천	-11.0863
▁보라색	-11.0863
▁해산물	-11.0863
▁비쌀	-11.0864
▁다다음	-11.0865
▁일날	-11.0866
▁엠티	-11.0866
▁찍으	-11.0868
▁모집	-11.0873
▁샵	-11.0874
▁생각하기	-11.0877
▁하시고	-11.0878
▁짜고	-11.088
▁예의	-11.0881
▁심했	-11.0887
적이지	-11.0889
낭	-11.0894
▁쪼끔씩	-11.0899
▁애야	-11.09
▁화장을	-11.0904
▁그르니까	-11.0904
▁과정이	-11.0906
▁더럽	-11.0908
겠는	-11.0908
▁미세먼지가	-11.0908
▁풀려	-11.0911
▁편할	-11.0917
하니	-11.0918
▁프사	-11.0918
▁좌	-11.0919
▁간단한	-11.0923
▁귀가	-11.093
샵	-11.0932
펜	-11.0932
칼	-11.0932
▁빠지면	-11.0934
▁분당	-11.0934
원인가	-11.0937
▁이모가	-11.0938
숭	-11.0942
▁뜨거운	-11.0943
쥬	-11.0943
▁아무렇지	-11.0943
▁핑계	-11.0943
▁그애서	-11.0944
▁면세점	-11.0945
▁빵빵	-11.0946
▁어떨까	-11.0949
▁외워	-11.095
▁22	-11.095
▁글씨	-11.0951
▁토끼	-11.0952
▁설계	-11.0952
▁명인가	-11.0956
▁짜증나	-11.0958
▁벌레	-11.096
▁질려	-11.096
었었	-11.0961
▁얼음	-11.0961
▁끝나면은	-11.0963
하려고	-11.0963
▁공통	-11.0965
▁달라서	-11.0979
▁낄	-11.0979
▁달부터	-11.0983
▁가능해	-11.0986
▁터치	-11.0988
▁갈비	-11.0989
적이야	-11.099
▁그래가꼬	-11.099
▁고수	-11.1003
▁망해	-11.1005
▁부분을	-11.1009
▁몬	-11.101
교시	-11.101
▁붙었어	-11.101
▁친했	-11.1012
혹	-11.1013
▁그래가지	-11.1013
▁성향이	-11.1015
▁크다	-11.1018
식당	-11.1021
▁연락하는	-11.1022
▁페미니즘	-11.1023
▁오징어	-11.1023
▁마라탕	-11.1024
▁미안하다	-11.1024
▁왜냠	-11.1024
▁저쪽	-11.1025
▁환불	-11.1025
▁성대	-11.1026
▁맛있대	-11.1027
▁과대	-11.1028
▁공지	-11.1028
▁남자애가	-11.1028
▁국립	-11.1028
▁고치	-11.1031
▁상영	-11.1034
▁찼	-11.1034
▁지나서	-11.1035
▁해주지	-11.1035
▁토스	-11.1036
▁검은	-11.1037
▁않으	-11.1038
월부터	-11.104
▁카드를	-11.1046
▁되니깐	-11.1058
머니	-11.1069
▁선물을	-11.1081
▁보안	-11.1083
했어요	-11.1087
▁받잖아	-11.1092
▁비해	-11.1092
해지는	-11.1093
▁생리	-11.1094
맹	-11.1095
▁기자	-11.1098
즘	-11.1102
뷰	-11.1102
▁끄지	-11.1103
▁그랬단	-11.1103
▁리버풀	-11.1103
▁인간관계	-11.1103
깃	-11.1103
▁앉았	-11.1103
▁여드름	-11.1103
▁허벅지	-11.1103
▁불쌍해	-11.1103
▁티켓팅	-11.1104
▁청주	-11.1105
▁범위	-11.1105
▁사료	-11.1107
▁초딩	-11.1109
▁먹어보	-11.1109
▁내려갈	-11.1109
일인가	-11.1113
▁매직	-11.1116
▁웃음	-11.1116
▁조각	-11.1121
▁조직	-11.113
▁웃어	-11.1135
▁말하니까	-11.1144
▁피부가	-11.1146
▁아쉽다	-11.1152
▁사람들끼리	-11.1155
▁분리	-11.1157
▁아니었나	-11.116
▁접수	-11.1162
▁워낙에	-11.1165
▁인해서	-11.1166
렇	-11.1166
▁귀엽다	-11.1181
▁고깃집	-11.1184
▁샀거든	-11.1184
쉐	-11.1184
앵	-11.1184
▁규칙	-11.1185
▁줘야지	-11.1185
▁언닌	-11.1186
▁걸리면	-11.1194
▁미국에서	-11.1194
▁불러서	-11.12
▁운동할	-11.1202
▁같기는	-11.1203
▁약해	-11.1204
었냐	-11.1206
▁푹	-11.1206
▁생각해봐	-11.1208
▁구분	-11.1213
▁특수	-11.1214
▁나한텐	-11.1215
▁갔었지	-11.1228
▁다행인	-11.1229
▁보내야	-11.1233
▁걸려서	-11.1235
▁알려줄	-11.124
▁벌었	-11.1244
그래	-11.1246
▁커피를	-11.1248
▁이상형	-11.125
▁여권	-11.1252
▁났는데	-11.1253
▁와야지	-11.1254
▁불쌍하	-11.1255
▁다니던	-11.1258
▁선임	-11.126
▁반반	-11.1261
▁쫓아	-11.1266
▁흔히	-11.1266
쉰	-11.1266
얄	-11.1266
▁모바일	-11.1266
▁바나나	-11.1267
▁멋있는	-11.1268
▁강요	-11.1268
▁겹쳐	-11.1269
▁알겠습니다	-11.127
▁국밥	-11.1271
▁1000	-11.1272
▁원작	-11.1278
▁저게	-11.1282
▁개인적인	-11.1285
었네	-11.1286
▁만났던	-11.1287
▁요소	-11.1292
▁센치	-11.1293
▁자막	-11.1297
▁구하기	-11.1297
▁학비	-11.1297
▁좋아해가지고	-11.1298
려구	-11.1298
▁울었	-11.13
▁시쯤에	-11.1307
▁받으니까	-11.131
▁자기들이	-11.1312
▁먹으라고	-11.1313
▁찍어야	-11.1315
▁솔로	-11.1315
▁상황을	-11.132
▁힘드	-11.133
▁신입	-11.1332
▁정확	-11.1335
맞	-11.1345
떠	-11.1346
▁입사	-11.1346
렴	-11.1347
▁푼	-11.1349
렬	-11.1349
▁뒤집어	-11.1349
▁그잉까	-11.1349
▁조건이	-11.1351
▁압박	-11.1352
▁가져갈	-11.1353
▁설탕	-11.1353
으니	-11.1354
▁시기가	-11.1358
▁재밌잖아	-11.1359
▁친해질	-11.1359
▁학교생활	-11.136
▁바꿔서	-11.1362
▁새터	-11.1366
▁친해졌	-11.1369
버릴	-11.1369
▁키운	-11.1369
▁오신	-11.1374
▁고프	-11.1381
▁빼면	-11.1385
▁찾아보니까	-11.1386
▁겨울에는	-11.1386
▁톤	-11.1386
▁인식이	-11.1387
▁고통	-11.1391
▁들어봤	-11.1394
▁크잖아	-11.1402
▁완성	-11.1404
▁인당	-11.1404
▁느리	-11.1406
▁교회를	-11.1408
▁보이긴	-11.1412
▁인터넷에서	-11.1425
▁어린이	-11.1425
▁얘기하자	-11.1427
주시는	-11.1428
▁선생	-11.1431
렛	-11.1432
u	-11.1432
▁다녔잖아	-11.1432
▁머리카락	-11.1432
▁썼던	-11.1432
▁불가능	-11.1432
▁무제한	-11.1433
▁판타지	-11.1433
▁로봇	-11.1433
▁덮밥	-11.1433
졌잖아	-11.1435
▁투표	-11.1437
▁몰르겠어	-11.1437
▁뭐든지	-11.1438
▁반년	-11.1443
▁냄새나	-11.1445
▁맞긴	-11.1445
▁과장	-11.1447
▁밖	-11.1447
▁정책	-11.1448
▁몽	-11.1449
▁증명	-11.1449
▁훅	-11.1455
▁궁금하다	-11.1457
▁먹어봤는데	-11.1457
▁치워	-11.1461
▁기르	-11.1464
▁기준으로	-11.1464
▁흥미가	-11.1465
▁있기는	-11.1466
▁먹거나	-11.1473
▁극한	-11.1476
▁영향을	-11.1477
▁내려와	-11.1478
▁같대	-11.1479
웨	-11.148
▁세상이	-11.1483
▁행복하	-11.1486
▁보기로	-11.1488
▁애한테	-11.1489
▁그러나	-11.15
▁까먹고	-11.15
▁몇백	-11.1501
▁시켜서	-11.1507
▁바르고	-11.1509
▁되어있	-11.1511
넷	-11.1516
젤	-11.1516
퉁	-11.1516
▁닭갈비	-11.1516
▁말했듯이	-11.1516
▁주휴수당	-11.1516
▁못생겼	-11.1516
▁박물관	-11.1516
▁알기론	-11.1517
▁농담	-11.1518
▁미뤄	-11.1519
▁위치가	-11.152
▁받기	-11.152
▁배워서	-11.1523
▁마늘	-11.1524
▁넘어갈	-11.1524
▁마음대로	-11.1524
▁감각	-11.1524
▁예쁘다	-11.1527
▁그러기	-11.1529
텐데	-11.153
▁알겠	-11.153
▁구석	-11.1532
▁저한테	-11.1536
▁돼야지	-11.1536
▁강남에	-11.1538
▁사겨	-11.1538
▁기다려야	-11.1538
▁두부	-11.1539
▁따지고	-11.154
▁버렸어	-11.1542
▁걔네랑	-11.1542
▁먹어본	-11.1545
▁무게	-11.1545
▁더운	-11.1548
▁어머님이	-11.1548
▁부담스럽	-11.1549
▁포차	-11.1553
▁예쁘고	-11.1556
▁전통	-11.1558
▁150	-11.1558
▁취하	-11.1558
▁벌면	-11.1561
▁가져왔	-11.1562
▁연습실	-11.1562
율이	-11.1562
▁성우	-11.1571
▁시켜주	-11.1574
▁믿는	-11.1577
▁괜찮으면	-11.158
▁쿨	-11.1586
▁받았지	-11.1592
▁놀자	-11.1593
▁그러시	-11.1599
▁때리고	-11.1599
즉	-11.1601
튜	-11.1601
l	-11.1601
옹	-11.1601
▁놀이기구	-11.1601
▁트레이너	-11.1601
협	-11.1601
컨	-11.1602
짱	-11.1602
▁셀카	-11.1603
▁고데기	-11.1605
▁돌아다니는	-11.1609
▁맹	-11.161
▁니랑	-11.1614
▁있길래	-11.1615
▁현실적으로	-11.1616
써	-11.1617
▁주부터	-11.1619
▁마음은	-11.1619
▁목적이	-11.1622
쟁	-11.1622
▁31	-11.1625
▁팔백	-11.1626
▁비싸서	-11.1627
▁요구	-11.1627
▁특정	-11.1627
▁그랬다고	-11.1628
▁얘긴데	-11.1628
▁여긴	-11.1637
▁좋아졌	-11.1638
▁큰데	-11.1639
▁망원	-11.1641
▁들었었	-11.1644
▁바빠서	-11.1646
▁재수할	-11.1648
▁구천	-11.165
▁달달	-11.165
▁감독이	-11.1651
▁뜰	-11.1655
▁중대	-11.1656
▁해봐서	-11.1658
▁배려	-11.1659
▁아프지	-11.1662
▁혹시나	-11.1663
▁대답을	-11.1664
▁느낌인데	-11.1671
▁당시에는	-11.1671
▁일어났어	-11.1674
▁친해져	-11.1679
▁있거든요	-11.1683
졌다고	-11.1683
▁오십만	-11.1684
▁추리	-11.1686
헛	-11.1687
f	-11.1687
▁초콜릿	-11.1687
뻘	-11.1687
▁슬라임	-11.1687
▁뭐였더라	-11.1687
▁배터리	-11.1687
▁다녀서	-11.1687
뜻	-11.1688
▁부분도	-11.1689
▁희망	-11.1691
▁감고	-11.1699
▁120	-11.17
▁괜찮게	-11.1705
▁열차	-11.1706
▁올리면	-11.1709
▁괜찮았는데	-11.1711
600	-11.1713
▁버전	-11.1713
었는지	-11.1714
렸지	-11.1716
▁구해야	-11.1719
▁생물	-11.1724
▁올라와서	-11.1731
▁서버	-11.1735
▁숙제	-11.1738
▁좋아했던	-11.1739
▁출구	-11.1742
▁치킨집	-11.1742
▁등급이	-11.1742
▁X	-11.1752
혁이	-11.1753
▁모으고	-11.1756
▁이상하다	-11.1757
▁조선	-11.1757
▁체대	-11.1759
▁보이니까	-11.1761
▁보장	-11.1764
▁준비한	-11.1765
▁떨어져서	-11.1766
▁식단	-11.1768
빛	-11.1772
▁나눠져	-11.1773
▁당첨	-11.1774
▁이득이	-11.1775
▁캠프	-11.1775
똥	-11.1777
롤	-11.1777
▁스킬	-11.1781
▁생각났어	-11.1781
▁여대	-11.1787
▁강한	-11.1797
▁육회	-11.1804
▁기다리는	-11.1809
▁만들었어	-11.1809
▁않았고	-11.1814
이었을	-11.1814
▁이슈	-11.1815
▁없기	-11.1819
▁밀리	-11.1821
▁글자	-11.1826
▁재밌대	-11.1831
▁행복해	-11.1836
▁있었대	-11.184
▁관계가	-11.1841
▁고용	-11.1846
▁박사	-11.1846
▁찾아야	-11.1847
▁받으러	-11.1847
▁페북에	-11.1847
▁느낌이었어	-11.1855
▁이해할	-11.1858
옴	-11.186
x	-11.186
▁로맨스	-11.186
▁샌드위치	-11.186
▁양꼬치	-11.186
므	-11.186
쑥	-11.186
▁아이패드	-11.186
▁다이어리	-11.186
▁흡연	-11.186
▁더러워	-11.186
▁청바지	-11.186
▁버거킹	-11.186
▁쇼핑몰	-11.1861
▁흘리	-11.1864
▁들어가잖아	-11.1865
▁먹을려고	-11.1867
▁G	-11.1874
▁포함해서	-11.1874
▁꽁짜로	-11.1875
▁심장	-11.1876
▁배우들	-11.1876
▁28	-11.1878
▁말해봐	-11.188
▁설날에	-11.1882
▁슬기	-11.1884
해야겠다	-11.1885
▁유튜브를	-11.1887
▁깔고	-11.1898
▁소금	-11.19
▁순대	-11.1904
▁돌아와	-11.191
▁배웠어	-11.1911
사항	-11.1913
▁맛있긴	-11.1917
▁옆으로	-11.1919
쟁이	-11.192
▁관광지	-11.1925
▁특성	-11.193
▁얘기해서	-11.1932
▁시집	-11.1934
▁확실하	-11.1937
▁넘어가면	-11.1939
▁하트	-11.194
옵	-11.1948
▁변호사	-11.1948
▁노잼	-11.1949
▁예뻤	-11.195
▁꾸며	-11.1952
딴	-11.1955
▁금요일날	-11.1956
▁지혜	-11.1958
▁맛있더라	-11.196
▁성경	-11.196
▁듣다	-11.1962
▁멀미	-11.1963
▁벗어나	-11.1967
▁올라가고	-11.1973
▁바에는	-11.1983
▁서양	-11.1983
▁있죠	-11.1984
▁소린	-11.199
▁올라오고	-11.1992
▁맞추는	-11.1996
범이	-11.1996
▁지문	-11.1999
▁울었어	-11.2001
▁혹은	-11.2001
▁가봐서	-11.2001
▁매우	-11.2002
▁정보를	-11.2004
▁만나자고	-11.2006
▁전국	-11.2007
▁써있	-11.2007
했더니	-11.201
▁쌓여	-11.2015
▁받는다	-11.2018
▁시력	-11.2019
▁생각인데	-11.2022
▁어디냐	-11.2024
▁들어왔어	-11.2025
▁넘으면	-11.2033
▁극한직업	-11.2036
▁뉴질랜드	-11.2036
▁롯데리아	-11.2036
▁간호학과	-11.2037
▁손톱	-11.2037
▁솔직하게	-11.2039
▁허리가	-11.2043
캠	-11.2044
긋	-11.2044
섬	-11.2044
▁다양하게	-11.2046
▁외출	-11.2047
▁했었나	-11.2048
▁정확한	-11.205
▁환전	-11.2051
▁받으면은	-11.2065
있었	-11.2069
▁사라졌	-11.207
볼라고	-11.2073
▁묶어	-11.2076
▁휴지	-11.2082
▁습관이	-11.2087
▁현수	-11.209
▁나갔는데	-11.2091
▁데려다	-11.2096
였대	-11.2102
▁약정	-11.2109
▁비슷한데	-11.2113
즌	-11.2117
J	-11.2124
▁셔틀	-11.2125
▁높게	-11.2125
▁썼었	-11.2125
▁움직여	-11.2125
꽈	-11.2125
▁구체적으로	-11.2125
▁스크린	-11.2125
▁히어로	-11.2125
▁마사지	-11.2128
▁망했다	-11.2128
▁믿을	-11.2129
▁뱀	-11.2132
▁김포	-11.2132
▁피부과	-11.2141
▁정기	-11.2141
▁발달	-11.2143
▁결혼하고	-11.2155
▁먹어가지고	-11.216
▁직원이	-11.216
▁싶었거든	-11.2162
▁당연하	-11.217
▁의지가	-11.2171
▁디스	-11.2171
하자마자	-11.2174
▁시켜야	-11.2175
▁아침부터	-11.2178
▁시각	-11.2181
하세요	-11.2183
▁통역	-11.2189
▁태어나	-11.2194
▁모이는	-11.2199
▁유튜브로	-11.2207
▁지하철에서	-11.2213
▁캠퍼스	-11.2215
▁수련회	-11.2215
▁하라는	-11.2216
▁좋았을	-11.2223
▁친군데	-11.2224
▁사줄	-11.2225
좌	-11.2226
▁잠만	-11.2228
▁빨개	-11.2229
▁방탄	-11.223
▁좌석	-11.2231
▁붙이고	-11.2232
▁타투	-11.2235
▁양파	-11.2237
방송	-11.2239
▁불교	-11.2259
▁일어나고	-11.2268
▁응응	-11.2269
▁들으면은	-11.2269
▁있겠어	-11.2275
▁생겼다	-11.2277
▁걱정이야	-11.2279
하시고	-11.2294
▁고맙	-11.2296
▁카드로	-11.2297
쿵	-11.2306
폼	-11.2306
H	-11.2306
▁자유롭게	-11.2306
▁스위스	-11.2306
▁셔츠	-11.2306
▁빡빡	-11.2307
▁태어났	-11.2307
▁SK	-11.2307
▁전시회	-11.231
▁바뀌고	-11.2312
말로	-11.2315
▁엄만	-11.2317
되면은	-11.2318
이라던지	-11.2319
▁졸리	-11.2319
춤	-11.232
▁그러믄	-11.2321
▁칠백	-11.2321
으까	-11.2325
▁놀았어	-11.2327
▁학회	-11.2328
▁폭력	-11.233
댄데	-11.2338
▁욕하고	-11.2343
▁교수님한테	-11.2344
▁놀리	-11.2346
게임	-11.2346
▁어렵고	-11.2347
▁외국어	-11.2348
▁환자	-11.2349
▁대우	-11.2358
놔서	-11.2364
▁쌤들	-11.2371
▁향이	-11.2371
▁강남에서	-11.2374
▁교시	-11.2375
▁특이하	-11.238
▁시작하고	-11.2384
▁야근	-11.2384
▁아니어서	-11.2393
▁양주	-11.2395
▁시끄러	-11.2396
▁감자튀김	-11.2398
▁인공지능	-11.2398
▁후드티	-11.2398
녜	-11.2398
▁모니터	-11.2398
▁해운대	-11.2399
▁괌	-11.2399
▁가성비	-11.2399
▁누굴	-11.2399
▁심심해	-11.24
▁젖	-11.2401
▁줄어들	-11.2401
▁가져갔	-11.2401
▁사건이	-11.2401
▁오뎅	-11.2401
▁타러	-11.2408
▁손목	-11.2408
▁들어갔다	-11.241
▁27	-11.2412
▁메모	-11.2413
▁해봤지	-11.2413
겠고	-11.2414
▁해주시	-11.2414
▁몰려	-11.2415
▁벌금	-11.2418
보험	-11.2418
▁도박	-11.2421
▁장점	-11.2421
▁봄에	-11.2424
▁했음	-11.2426
▁어디였지	-11.2431
▁니트	-11.2432
▁유튜브에서	-11.2432
▁컴퓨터로	-11.2452
▁골라서	-11.2453
▁읽었어	-11.2453
▁역할을	-11.2453
▁많어	-11.2463
볼래	-11.2468
하자고	-11.247
▁걸리는데	-11.2473
▁에프	-11.2474
▁만나면은	-11.2478
댁	-11.2482
▁후보	-11.2485
▁교실	-11.249
윈	-11.2491
똘	-11.2491
▁메가박스	-11.2491
▁쌍둥이	-11.2491
▁즐겨	-11.2491
▁동대문	-11.2491
▁재밌더라	-11.2491
▁잔소리	-11.2493
▁언덕	-11.2494
▁컵라면	-11.2496
▁장갑	-11.2498
▁식품	-11.2503
▁많나	-11.2503
▁똑같은데	-11.2503
쿨	-11.2504
▁방법을	-11.2511
▁체질	-11.2514
▁존나	-11.2521
▁피티	-11.2523
▁빌라	-11.2531
▁나쁘게	-11.2541
언니	-11.2541
▁정장	-11.2544
▁비슷하지	-11.2544
▁확인을	-11.2545
▁구경하고	-11.2546
▁먹었다고	-11.2556
▁의외	-11.2565
▁부모님들	-11.2573
▁마디	-11.2581
잼	-11.2582
▁웨딩	-11.2584
▁겪어	-11.2584
▁봉사활동	-11.2584
▁빨리빨리	-11.2584
▁신서유기	-11.2584
▁탕수육	-11.2584
탭	-11.2584
▁대한항공	-11.2584
▁엊그제	-11.2584
▁이랬다	-11.2584
▁랜덤	-11.2584
▁공짜로	-11.2584
▁쪼끄만	-11.2584
▁몽골	-11.2585
▁덩치	-11.2585
▁버릇	-11.2585
▁로또	-11.2585
▁구멍	-11.2589
▁쌍수	-11.2591
▁보컬	-11.2593
▁써야지	-11.2594
▁토요일날	-11.2596
▁교수님들	-11.2597
▁후임	-11.2598
▁점심시간	-11.26
▁마침	-11.2601
묵	-11.2603
쓸	-11.2603
▁파리	-11.2605
▁좋겠고	-11.2608
▁말씀을	-11.2609
▁낫겠다	-11.261
▁이만한	-11.2614
▁하겠네	-11.2621
▁맛있었는데	-11.2621
▁액정	-11.2623
▁올라가면	-11.2625
▁대비	-11.2628
▁명품	-11.2629
▁미래에	-11.263
▁전교	-11.2632
▁야외	-11.2635
▁방문	-11.2639
▁동생한테	-11.2641
▁년생	-11.2644
▁취미로	-11.2644
▁벗어	-11.2646
▁힘들대	-11.2657
▁당했	-11.2658
▁사이다	-11.2659
▁취업할	-11.2661
▁맛있더라고	-11.2663
▁포기하고	-11.2669
▁추억이	-11.2669
흡	-11.2677
▁질리	-11.2678
랫	-11.2678
▁브레이크	-11.2678
▁어벤저스	-11.2678
▁잤는데	-11.2678
▁배고픈	-11.2678
▁메리트	-11.2679
▁즐길	-11.2679
▁비속어	-11.2679
▁체인점	-11.2679
▁가능성	-11.2679
▁경상도	-11.2679
라운드	-11.2679
▁단순히	-11.2682
▁또다시	-11.2682
▁가봤지	-11.2683
▁작곡	-11.2683
▁뿐이지	-11.2685
▁어쨌	-11.2686
회사	-11.2689
▁선배님	-11.2695
▁번째로	-11.2695
▁나이대	-11.2697
▁나가면은	-11.2698
▁이모부	-11.27
▁실버	-11.2703
▁들어있는	-11.2703
▁뿔	-11.2708
▁낳고	-11.271
▁검정	-11.271
▁가격은	-11.2711
▁생각했거든	-11.2712
▁정작	-11.2728
▁반말	-11.2736
▁구독	-11.2754
▁간호	-11.2757
▁아시아	-11.2759
▁저러	-11.2765
▁많진	-11.2771
▁하시는데	-11.2771
대학교	-11.2772
▁도깨비	-11.2774
▁좋거든	-11.2774
쁨	-11.2774
섰	-11.2774
펀	-11.2774
▁사무직	-11.2774
▁떠오르	-11.2774
▁따뜻해	-11.2774
▁번쯤은	-11.2774
▁수학여행	-11.2776
▁워킹	-11.2777
▁개꿀	-11.2778
▁무겁	-11.2778
▁기간에	-11.2778
▁맞출	-11.2786
▁고맙다	-11.2786
핀	-11.2796
컷	-11.2796
랩	-11.2796
튀	-11.2796
얘	-11.2796
▁왔어요	-11.2798
▁학식	-11.2799
▁맞춰야	-11.2807
▁싶으니까	-11.2812
▁기말	-11.2817
게끔	-11.2819
▁심리학	-11.282
▁석사	-11.283
받아서	-11.2831
▁때문인	-11.2831
▁싶단	-11.2841
▁장면이	-11.2843
▁중요하다고	-11.2844
▁완벽	-11.285
슴	-11.2854
▁너네랑	-11.2858
▁따르	-11.286
▁새내기	-11.287
▁께속	-11.287
▁신도림	-11.287
▁칼로리	-11.287
▁존중	-11.2872
▁돌리고	-11.2873
하듯이	-11.2875
▁많아가지구	-11.2877
▁궁금했	-11.2878
▁단체로	-11.2881
▁않았지만	-11.2885
▁26	-11.2886
▁고향	-11.2888
▁생겨가지고	-11.2891
▁양쪽	-11.2891
X	-11.2893
▁시켰는데	-11.2894
홍	-11.2894
▁했더라	-11.2895
▁쌤한테	-11.2905
▁먹음	-11.2912
▁쩔	-11.2916
▁모래	-11.2917
▁음향	-11.2926
▁남산	-11.2936
▁까먹었	-11.2939
▁결론은	-11.294
▁왔냐	-11.2942
▁돌아가셨	-11.2944
▁힘들더라고	-11.2959
▁가족들이	-11.2959
▁부족한	-11.2962
셨던	-11.2965
▁맡겨	-11.2967
▁찜닭	-11.2967
▁오키나와	-11.2967
▁프라이	-11.2967
▁냅두	-11.2968
▁스케이트	-11.2968
▁아주머니	-11.2968
▁맥북	-11.2969
▁끝나서	-11.2969
▁친절하	-11.297
▁갈걸	-11.2971
▁연휴	-11.2974
▁소속	-11.2975
▁서점	-11.2977
▁가족이랑	-11.2979
▁효율	-11.298
▁자다가	-11.2981
▁최신	-11.2982
▁마련	-11.2982
▁탄산	-11.2983
▁가격대	-11.2985
▁상사	-11.2985
▁현타	-11.2986
▁의문	-11.2987
▁코인	-11.2989
▁보였	-11.299
님들	-11.2992
큰	-11.2993
▁살아야지	-11.2999
▁덴데	-11.3
▁동작	-11.3001
▁것두	-11.3002
▁봤대	-11.3005
▁같았어	-11.3018
공원	-11.3025
▁간판	-11.303
▁무섭지	-11.303
▁있겠	-11.303
▁물어봤거든	-11.3032
▁자식이	-11.3033
▁찾아볼	-11.3035
▁어어어	-11.3036
시키고	-11.3043
▁친해지고	-11.3048
▁주소	-11.3053
▁고양	-11.3054
놔가지고	-11.3059
▁많았잖아	-11.306
맛이	-11.3061
▁터진	-11.3063
▁롱패딩	-11.3065
▁아팠어	-11.3065
▁프로그래밍	-11.3065
스러웠	-11.3065
▁헌혈	-11.3066
▁아시안	-11.3066
▁나타나	-11.3067
▁돼지고기	-11.3067
▁쪼꼬	-11.3068
▁중요하다	-11.307
▁믿음	-11.3073
▁집값	-11.3075
▁도착하	-11.3084
몸	-11.3093
▁상근	-11.3095
▁빼서	-11.3095
▁괜찮겠다	-11.3098
▁철학	-11.3105
▁쓸데없	-11.3111
▁용기	-11.3113
버리면은	-11.3116
▁학부	-11.3117
▁싶더라고	-11.3126
▁신체	-11.3126
▁공항에서	-11.3129
▁많단	-11.3132
▁나와가지구	-11.3133
▁갔네	-11.3141
▁몰랐거든	-11.3148
▁살았는데	-11.3155
관리	-11.3156
보세요	-11.3159
Y	-11.3164
▁바퀴벌레	-11.3164
▁캡틴	-11.3164
▁한꺼번에	-11.3164
솜	-11.3164
펐	-11.3164
▁웃으면서	-11.3166
▁팔리	-11.3166
▁착각	-11.3167
▁필요하지	-11.3171
▁나뉘	-11.3172
▁취급	-11.3173
▁매트	-11.3174
▁죽었어	-11.3175
▁전철	-11.3176
▁주머니	-11.3177
▁취했	-11.3177
▁보여줄게	-11.3177
시키는	-11.3181
▁정했어	-11.3182
줄려고	-11.3184
▁친구들끼리	-11.3192
괴	-11.3194
똑	-11.3194
▁시위	-11.3194
특	-11.3194
▁공주	-11.3196
▁결혼한	-11.3199
▁이래가지구	-11.3201
▁구독자	-11.3203
▁없음	-11.3205
떨	-11.3212
▁여보	-11.3219
▁타자	-11.3226
▁사준다	-11.3234
▁얘기해야	-11.3236
▁발생	-11.3237
▁부장	-11.3242
▁나오겠지	-11.3243
▁좋았지	-11.3244
▁무역	-11.3246
▁시점	-11.3254
▁영향이	-11.3255
▁살았어	-11.3256
▁부르면	-11.3259
▁돌아오는	-11.3263
멈	-11.3264
앨	-11.3264
룡	-11.3264
▁드래곤	-11.3264
▁공모전	-11.3264
▁엑소	-11.3264
▁수수료	-11.3264
▁어울릴	-11.3264
▁나가니까	-11.3265
▁만화책	-11.3266
▁좋겠네	-11.3268
▁외롭	-11.3268
▁그담에	-11.3268
▁알아볼	-11.3269
▁낫다고	-11.3269
▁이왕	-11.3271
▁접근	-11.3271
▁끝내고	-11.3273
▁어색한	-11.3273
▁발목	-11.3278
▁대중	-11.3284
▁언제쯤	-11.3292
▁됐냐	-11.3292
농	-11.3296
쭉	-11.3296
▁생산	-11.3297
▁신기했	-11.3297
▁알아봤는데	-11.3301
▁봉지	-11.3311
▁택시비	-11.3318
▁임원	-11.3321
▁주차장	-11.3325
▁할려면은	-11.3332
▁남았네	-11.3334
▁알바하면서	-11.3336
▁못하겠어	-11.3336
▁좋을까	-11.3339
▁비싸니까	-11.334
▁쓰면서	-11.334
▁말해줘	-11.3342
▁마시면서	-11.3349
▁내용이야	-11.3349
▁세탁기	-11.3356
▁쌍꺼풀	-11.3365
▁중간중간	-11.3365
훌	-11.3365
kg	-11.3365
▁어딘가	-11.3366
▁같단	-11.3367
▁먹거든	-11.3368
빨	-11.3368
▁편견	-11.3372
▁그렇군	-11.3375
▁마음으로	-11.3375
▁마스터	-11.3378
▁아닐걸	-11.3378
▁채워야	-11.3379
▁느꼈던	-11.3382
▁기냥	-11.3384
▁니한테	-11.3385
▁세탁	-11.3388
▁먹기로	-11.339
▁지루하	-11.3391
▁갈라면	-11.3395
▁살아있	-11.3397
▁놀아야	-11.3399
▁연금	-11.3405
▁정신없	-11.3407
▁개그	-11.3409
▁오버	-11.3411
였단	-11.3423
동안	-11.3435
▁십오	-11.3436
▁많겠지	-11.3442
▁후배들	-11.3453
▁없던	-11.3454
▁찍었어	-11.3455
▁무엇	-11.3461
▁접시	-11.3462
▁시나리오	-11.3467
▁코엑스	-11.3467
퓨	-11.3467
▁와이프	-11.3468
▁검정색	-11.3468
▁인하대	-11.347
▁고집	-11.3471
▁미련	-11.3475
▁체계	-11.3476
▁호랑이	-11.3477
▁수영복	-11.3478
▁외워야	-11.3478
▁돌아다니면서	-11.3479
▁바쁠	-11.348
▁느낌인지	-11.3483
▁몰랐다	-11.3485
▁외대	-11.3485
▁되겠어	-11.3487
▁나왔으니까	-11.3494
▁아프다고	-11.3496
▁고등	-11.3498
▁논리	-11.3498
▁고런	-11.3501
F	-11.3503
▁계셨	-11.3504
▁그랬었거든	-11.351
▁괜찮더라고	-11.3524
▁됐대	-11.3537
▁받으면서	-11.3538
▁시작했어	-11.3539
▁시켰어	-11.3539
▁먹어봐	-11.3541
▁공개	-11.3543
검사	-11.3545
▁위험해	-11.3545
▁포스	-11.3549
▁이것만	-11.3557
겠더라	-11.356
▁남아서	-11.3563
▁기관	-11.3569
▁그랬으니까	-11.357
곽	-11.357
늬	-11.357
빔	-11.357
쓱	-11.357
▁최저시급	-11.357
▁칼국수	-11.357
▁혈압	-11.357
▁실질적으로	-11.357
▁KTX	-11.357
▁나빴	-11.357
▁마주치	-11.3572
▁분위	-11.3573
▁미안한데	-11.3573
▁버튼	-11.3575
▁김장	-11.3575
▁해주니까	-11.3582
▁당근	-11.3583
▁토플	-11.3583
▁예전부터	-11.3586
▁연세	-11.3587
▁대박이지	-11.3587
▁명지대	-11.3588
운동	-11.359
렵	-11.3591
▁나왔대	-11.3597
▁자식들	-11.3597
▁복전	-11.3606
▁보거나	-11.3608
삐	-11.3609
▁반쯤	-11.3612
▁비싸긴	-11.3612
▁출장	-11.3613
▁부모님이랑	-11.3616
▁게네들	-11.3625
▁누나한테	-11.3625
▁벗고	-11.3629
▁길러	-11.3637
▁끊었어	-11.3644
▁걸려가지고	-11.3644
▁웃기다	-11.3646
▁들어보면은	-11.3646
▁모아야	-11.3663
▁괜찮긴	-11.3664
▁졸업하면	-11.3664
▁약한	-11.3665
굿	-11.3674
▁서브웨이	-11.3674
▁스쿠터	-11.3674
▁월드컵	-11.3674
▁죄송합니다	-11.3674
돔	-11.3674
▁오렌지	-11.3675
▁어두운	-11.3675
▁감사합니다	-11.3675
▁신뢰	-11.3677
▁갈아입	-11.3677
▁하와이	-11.3678
▁관한	-11.3681
▁누군데	-11.3682
▁알바몬	-11.3683
▁말모이	-11.3683
▁해봤거든	-11.3684
▁늘었	-11.3684
▁호감	-11.3685
▁굴러	-11.3686
▁편인데	-11.3689
▁발언	-11.3689
▁일일이	-11.3689
▁가봤거든	-11.3691
▁조언	-11.3695
▁갸	-11.3697
▁받아주	-11.3704
▁합쳐	-11.3707
▁먹냐	-11.3707
분이면	-11.3712
▁친해진	-11.3714
▁장점이	-11.3715
핸	-11.3715
▁영하	-11.3717
▁없어지고	-11.372
▁박아	-11.3721
▁문학	-11.3722
▁잠수	-11.3726
▁코치	-11.3728
▁적용	-11.3732
▁걸리니까	-11.3732
▁중앙대	-11.3735
겠습니다	-11.3743
▁찾으면	-11.3746
▁따지면은	-11.3749
▁독감	-11.375
▁짱구	-11.3756
▁드렸	-11.376
▁들으	-11.3762
▁장난감	-11.3767
▁몇천	-11.3776
쩐	-11.3778
팟	-11.3779
닷	-11.378
겄	-11.378
y	-11.378
▁올리브영	-11.378
▁젊었	-11.378
젓	-11.378
▁너무너무	-11.378
▁가치관	-11.378
▁사우나	-11.378
▁중식	-11.3781
▁경영학과	-11.3784
▁끌려	-11.3787
▁조립	-11.38
럴	-11.3811
전공	-11.3813
다시피	-11.3818
놨거든	-11.3818
▁애교	-11.3822
▁냈는데	-11.3831
▁그랬었잖아	-11.3837
이어가지구	-11.3849
▁톡방	-11.3861
▁뒤쪽	-11.3861
픈	-11.3869
▁춥지	-11.387
▁쓰다가	-11.3873
티브	-11.3878
▁최고야	-11.3883
냅	-11.3885
▁건강검진	-11.3886
▁그랬냐	-11.3886
▁왤케	-11.3886
▁헷갈리	-11.3886
텅	-11.3886
▁IT	-11.3886
▁부작용	-11.3886
▁여동생	-11.3886
▁활발	-11.3886
▁당일치기	-11.3886
▁에어컨	-11.3886
▁보드게임	-11.3886
▁노란색	-11.3887
▁괜찮았던	-11.3887
▁맞춘	-11.3889
그러	-11.3891
▁헤어질	-11.3893
▁독학	-11.39
▁코코	-11.3902
▁마당	-11.3902
▁지난주	-11.3911
▁얻어먹	-11.3916
▁만났다	-11.3919
▁죽음	-11.392
▁받는다고	-11.3924
▁확률	-11.3928
샘	-11.3931
뚜	-11.3931
▁나왔나	-11.3931
▁아픈데	-11.3939
▁남미	-11.3963
▁방식이	-11.3968
▁동갑이	-11.3982
▁비행	-11.3985
왔던	-11.3987
▁닭강정	-11.3993
▁어쩌고저쩌고	-11.3993
▁무거워	-11.3994
▁팝콘	-11.3994
▁아울렛	-11.3994
▁함부로	-11.3994
▁유일하게	-11.3994
▁대단해	-11.3994
▁서강대	-11.3994
▁뿌듯	-11.3995
▁쩐에	-11.3995
▁쿠션	-11.3995
▁퇴직금	-11.3995
▁빡센	-11.3995
▁도둑	-11.3995
▁환승	-11.3996
▁사회생활	-11.3996
▁추우니까	-11.3997
하니깐	-11.3999
▁필터	-11.4
▁끝나니까	-11.4001
▁끝나자마자	-11.4001
▁걔넨	-11.4006
▁다니시	-11.4016
▁넣었어	-11.4017
▁친했던	-11.4018
▁있었구나	-11.4023
▁말았어	-11.4025
▁흑인	-11.4027
▁고개	-11.4029
▁인정해	-11.4032
뉴	-11.404
▁놀기	-11.4043
▁도와줄	-11.4045
저런	-11.4049
▁선생님이랑	-11.4055
▁보이더라고	-11.4056
▁독일어	-11.4059
▁충격적이	-11.4062
▁치우고	-11.4063
▁모았	-11.4066
▁알겠지만	-11.407
▁알리	-11.4079
▁메일	-11.4098
끗	-11.4102
▁벚꽃	-11.4102
▁삿포로	-11.4102
▁섞여	-11.4102
▁바빴	-11.4102
▁홈플러스	-11.4102
▁입장에선	-11.4104
▁민폐	-11.4104
▁뜨잖아	-11.4107
▁춥고	-11.4107
마저	-11.4109
▁받았잖아	-11.4112
▁지낼	-11.4123
▁첨에	-11.4123
▁빨아	-11.4129
▁임용	-11.413
▁형부	-11.4136
멍	-11.4147
▁민주	-11.415
꽃	-11.4152
팬	-11.4152
▁이때까지	-11.4153
해보자	-11.4153
▁제공	-11.4157
관데	-11.4158
▁싸웠어	-11.4164
▁아파가지고	-11.4166
▁아이씨	-11.4167
▁후원	-11.4174
▁젤리	-11.4176
▁하겠는데	-11.4179
▁해놨어	-11.4179
였는지	-11.4182
▁이러더라고	-11.4187
▁그랬었지	-11.4191
▁받았던	-11.4192
▁플레	-11.4195
▁정시로	-11.4198
뻤	-11.4209
▁핑크	-11.4211
굔	-11.4211
v	-11.4212
▁닌텐도	-11.4212
▁맨투맨	-11.4212
▁붕어빵	-11.4212
▁유니클로	-11.4212
▁훔쳐	-11.4212
툴	-11.4212
▁내일모레	-11.4212
▁우연히	-11.4212
▁연남동	-11.4212
▁저렴한	-11.4212
▁사회복지	-11.4212
▁해병대	-11.4213
▁덕분에	-11.4213
▁마약왕	-11.4213
▁DC	-11.4213
▁잡았어	-11.4213
▁동호회	-11.4214
▁트럭	-11.4214
▁레알	-11.4214
▁비슷	-11.4215
▁부러운	-11.4215
▁의료	-11.422
▁덕질	-11.4221
▁운전병	-11.4223
▁불안해	-11.4227
▁교재	-11.4227
▁장애인	-11.4229
▁천국	-11.4233
▁물류	-11.4241
였냐	-11.4262
▁나오던데	-11.4262
▁미세	-11.4264
덴	-11.4265
▁편한데	-11.4267
▁맞추고	-11.4274
▁헤어져	-11.4281
▁쓸려고	-11.4285
50	-11.4306
콤	-11.4322
▁얘기하다	-11.4322
▁KT	-11.4323
▁고속도로	-11.4323
▁끊으면	-11.4323
▁닭가슴살	-11.4323
▁샀었	-11.4323
▁옮길	-11.4323
▁컨디션	-11.4323
▁트러블	-11.4323
욜	-11.4323
▁가벼운	-11.4323
▁디지털	-11.4323
▁똑똑하	-11.4323
▁불편할	-11.4323
▁AI	-11.4325
▁않으까	-11.4332
▁빠져나가	-11.4334
▁읽어야	-11.4338
500	-11.4339
▁고딩	-11.4345
▁순간부터	-11.4359
▁좋아한다고	-11.4363
▁연계	-11.4364
▁달리기	-11.4364
▁그다음부터	-11.4365
만원씩	-11.4367
▁용량	-11.4369
▁노란	-11.4371
▁스페인어	-11.4372
▁맞으니까	-11.4375
끌	-11.4378
딸	-11.4378
▁정해야	-11.4381
▁얘한테	-11.4381
▁시스템이	-11.4401
시티	-11.4413
▁탄수화물	-11.4436
탠	-11.4436
▁보라카이	-11.4436
▁카운터	-11.4436
궈	-11.4436
얌	-11.4436
▁코미디	-11.4436
▁사소한	-11.4436
▁워홀	-11.4436
▁붙어서	-11.4437
▁스트레스받아	-11.4437
플레이	-11.4438
▁올라올	-11.4438
▁얘기해주	-11.4443
▁빼면은	-11.4447
▁통통	-11.4448
▁보내줘	-11.4449
▁통신	-11.4453
▁집착	-11.4454
▁지낸	-11.4456
▁전환	-11.4458
▁붙이는	-11.446
▁갚아	-11.446
▁먹겠어	-11.4467
▁발레	-11.4467
▁팀장	-11.4468
▁보냈는데	-11.4481
드래	-11.4482
으믄	-11.4484
▁범인	-11.449
▁빌렸	-11.449
곰	-11.4493
폴	-11.4493
총	-11.4493
▁차리고	-11.4493
▁싸가지	-11.4505
▁다양하	-11.4507
▁났었	-11.4509
릇	-11.4511
▁써주	-11.4518
▁오브	-11.4542
▁맛없어	-11.4543
▁돌려서	-11.4543
꿔	-11.4547
뮤	-11.4549
▁립스틱	-11.4549
▁비슷비슷	-11.4549
▁비행깃값	-11.4549
▁유니폼	-11.4549
▁잃어버렸	-11.4549
뛸	-11.4549
벳	-11.4549
▁돌아다녀	-11.4549
▁적당한	-11.455
▁복잡하	-11.455
▁장애	-11.4551
▁컴공	-11.4554
▁완벽하게	-11.4554
▁리얼	-11.4555
▁동생들	-11.4556
▁비슷할	-11.4559
▁됐는지	-11.456
▁학습	-11.456
▁알겠다고	-11.456
▁취준	-11.456
▁늘려	-11.4563
▁손절	-11.4567
▁짝아	-11.4569
▁아시아나	-11.4574
▁싶네	-11.4575
▁기억하는데	-11.4579
▁시민	-11.458
▁깨우	-11.4597
▁왔었는데	-11.4601
▁이럼	-11.4602
▁동호	-11.4612
▁대표님	-11.4613
▁식비	-11.4615
카페	-11.4635
▁놈이	-11.4635
▁버려야	-11.4641
▁꼬리	-11.4656
윙	-11.4661
뤄	-11.4661
K	-11.4664
▁ASMR	-11.4664
▁도로주행	-11.4664
▁며느리	-11.4664
▁비밀번호	-11.4664
▁올림픽	-11.4664
▁요렇게	-11.4664
겟	-11.4664
륙	-11.4664
퀸	-11.4664
▁멈추	-11.4664
▁스릴러	-11.4664
▁클래스	-11.4664
▁밀가루	-11.4664
▁쏟아	-11.4664
▁그만둘	-11.4665
▁어젠가	-11.4667
▁있게끔	-11.4669
▁규모	-11.4671
▁이전에	-11.4674
▁채용	-11.4679
▁전문적으로	-11.4684
▁최선	-11.4685
▁저축	-11.4686
▁끼워	-11.4686
▁앉아가지고	-11.4705
▁뜨면	-11.4715
▁문신	-11.4718
▁분양	-11.4721
▁마셨는데	-11.4722
▁합의	-11.4723
낄	-11.4726
깜	-11.4727
▁미안하다고	-11.4735
느니	-11.4737
▁대학생들	-11.4738
▁여우	-11.4756
▁교수님들이	-11.4756
▁얘기해봐	-11.4758
돼있는	-11.4759
▁만났잖아	-11.4767
보께	-11.4772
▁놓으면	-11.478
▁순댓국	-11.478
▁왕십리	-11.478
▁좋던데	-11.478
▁플라스틱	-11.478
▁하다못해	-11.478
▁헷갈려	-11.478
▁라오스	-11.478
▁CJ	-11.4781
▁바꿨어	-11.4783
▁결승	-11.4783
▁친군	-11.4785
▁먹으라	-11.4785
▁오래돼서	-11.4789
▁갔더니	-11.4792
▁태양	-11.4793
▁소득	-11.4795
▁루트	-11.4796
▁부페	-11.4799
▁했냐면	-11.4806
▁자기들끼리	-11.4808
▁문장	-11.481
▁그러더니	-11.4812
▁잘못됐	-11.4813
▁않기	-11.4816
▁빵집	-11.4817
▁살찌	-11.4821
▁작성	-11.4824
▁들어왔는데	-11.4827
▁35	-11.4828
▁치매	-11.4829
▁피곤해서	-11.4832
▁정돈데	-11.4835
납	-11.484
퍼센트	-11.4846
▁영향	-11.4853
▁방음	-11.4858
▁트레	-11.4858
▁박수	-11.489
▁솔직	-11.4895
냄	-11.4898
멸	-11.4898
힙	-11.4898
왓	-11.4898
▁부대찌개	-11.4898
댈	-11.4898
▁VR	-11.4898
▁겨울방학	-11.4898
▁매일매일	-11.4898
▁클래식	-11.4898
▁자존감	-11.4898
▁잔인한	-11.4898
▁넷이서	-11.4899
▁레몬	-11.4899
▁자유여행	-11.49
▁한국인들	-11.4901
▁준비해서	-11.4901
▁지나갔	-11.4903
▁극단적	-11.4904
▁종목	-11.4905
▁종종	-11.4908
▁써봤	-11.4908
▁주말마다	-11.4911
▁자율	-11.4913
▁방향으로	-11.4914
▁유독	-11.4914
▁조용하	-11.4914
▁녹차	-11.4915
▁무튼	-11.4917
▁베개	-11.4918
▁테마	-11.4927
▁배웠던	-11.4928
라곤	-11.4929
▁읽었는데	-11.4931
▁만남	-11.4938
▁민트	-11.4946
▁많았거든	-11.495
해줘야	-11.4951
쌍	-11.4966
뭐	-11.4967
▁버거	-11.4967
▁따져	-11.4981
▁되죠	-11.4981
▁불안한	-11.4988
▁최악	-11.4992
▁있드라	-11.5001
▁깔끔하	-11.5005
▁다닌다	-11.5006
라며	-11.5011
▁지은이	-11.5015
샌	-11.5015
▁귀여웠	-11.5017
▁높았	-11.5017
▁알레르기	-11.5017
됨	-11.5017
▁두꺼운	-11.5017
▁브라질	-11.5017
▁비타민	-11.5017
▁정주행	-11.5017
▁강제로	-11.5017
이어도	-11.5017
▁어쩐지	-11.5018
▁캠핑	-11.5018
▁가까우니까	-11.5018
▁찾으러	-11.5018
▁호수	-11.5019
▁계곡	-11.5022
▁베스트	-11.5024
▁파악	-11.5029
▁면회	-11.5029
▁얼른	-11.503
▁터질	-11.5036
▁요양	-11.5038
▁조합	-11.5039
▁장교	-11.5045
▁밀려	-11.5046
▁태어나서	-11.5047
▁파워	-11.5053
▁연세대	-11.5056
▁민증	-11.5065
▁지켜보	-11.5067
▁당구장	-11.5075
고등학교	-11.5089
▁책임감	-11.509
▁까먹었다	-11.5115
▁갔었던	-11.5118
시킬	-11.5119
얀	-11.5128
▁끊겼	-11.5138
▁레스토랑	-11.5138
▁외삼촌	-11.5138
▁태어난	-11.5138
▁사물함	-11.5138
▁바로바로	-11.5138
▁자동으로	-11.5138
▁버틸	-11.5138
▁부담스러워	-11.5138
▁가깝잖아	-11.5139
▁충분하	-11.514
▁관객	-11.514
▁몰입	-11.5144
▁커튼	-11.5147
▁살아남	-11.5149
▁매출	-11.5153
▁망원동	-11.5157
▁언제든지	-11.5159
▁오래되	-11.5159
▁결석	-11.516
▁위주	-11.5169
▁초급	-11.5174
▁반영	-11.5182
▁과천	-11.5182
로써	-11.5184
▁바디	-11.5186
▁생신	-11.5186
▁일어나가지고	-11.5211
않	-11.5212
▁상호	-11.5212
▁있으시	-11.5216
▁2000	-11.5224
▁까먹어	-11.5226
▁외동	-11.5251
▁풀었	-11.5259
▁런닝	-11.5259
걱	-11.5259
갱	-11.5259
썬	-11.526
▁싱가폴	-11.526
▁안타까운	-11.526
▁햄스터	-11.526
눕	-11.526
▁단백질	-11.526
▁신세계	-11.526
삽	-11.526
▁경향이	-11.526
▁기존에	-11.526
▁나머진	-11.526
▁듣기로는	-11.526
▁빌딩	-11.526
▁CC	-11.5262
▁왕따	-11.5263
▁느껴졌	-11.5265
▁특성화	-11.5265
▁있겠구나	-11.5272
▁않겠다	-11.528
▁보이던데	-11.5284
▁미술관	-11.5288
▁추운데	-11.5292
▁풍경	-11.5298
▁소통	-11.5298
▁필요하다고	-11.5302
▁정글	-11.5303
▁써먹	-11.5304
슨데	-11.5306
▁나오더라	-11.531
▁시작했는데	-11.5313
랄까	-11.5314
▁사례	-11.5319
▁가득	-11.5329
▁공부하면서	-11.5336
컵	-11.5337
▁다닌다고	-11.534
해줬어	-11.536
▁짤렸	-11.536
▁정신병	-11.5369
▁광화문	-11.5383
▁숨겨	-11.5383
▁언젠데	-11.5383
▁정규직	-11.5383
▁쨌든	-11.5383
▁메이커	-11.5383
▁필욘	-11.5383
▁꾸미고	-11.5383
▁오락실	-11.5383
▁익숙하	-11.5383
▁숙취	-11.5384
▁건너편	-11.5384
▁앞자리	-11.5386
▁않겠냐	-11.5388
▁질투	-11.539
▁점장님	-11.5395
▁없으니깐	-11.5396
▁유명했	-11.5396
▁내려간	-11.5397
▁자켓	-11.5398
▁팀장님	-11.5413
▁형태	-11.5413
▁코디	-11.5416
▁투명	-11.5428
▁찍었는데	-11.5429
▁쟤네	-11.5436
▁소중	-11.5436
▁받았거든	-11.5436
▁헤어지자	-11.5455
▁찾아봤어	-11.5457
▁농사	-11.5463
▁외식	-11.5486
학번	-11.5505
▁멕시코	-11.5508
▁샤브샤브	-11.5508
▁에피소드	-11.5508
▁옮겼	-11.5508
▁존댓말	-11.5508
▁카트라이더	-11.5508
▁아나운서	-11.5508
▁킹덤	-11.5508
▁껍질	-11.5508
▁첼시	-11.5508
▁핑크색	-11.5509
▁측면	-11.5509
▁샘플	-11.551
▁빌릴	-11.5512
▁사기업	-11.5513
▁틀어놓고	-11.5515
▁통합	-11.5518
▁정답	-11.552
▁다르겠지	-11.5522
▁토토	-11.5523
▁추세	-11.5536
▁바른	-11.5541
▁키우면	-11.5543
▁감명	-11.5543
▁관리비	-11.5547
▁간격	-11.5547
▁모여가지고	-11.5549
▁제약	-11.5549
뿐	-11.5551
▁않더라	-11.5557
▁가까운데	-11.5566
▁귀엽게	-11.5567
▁머릿속에	-11.5578
▁불르	-11.5596
▁초보	-11.5619
획	-11.563
둑	-11.5633
▁놀이동산	-11.5635
▁맘스터치	-11.5635
▁스티커	-11.5635
▁트라우마	-11.5635
뭇	-11.5635
츄	-11.5635
▁누구누구	-11.5635
▁대중교통	-11.5635
▁라디오	-11.5635
▁멘토	-11.5635
▁하여간	-11.5635
▁팔로우	-11.5635
▁확실해	-11.5635
▁댕기	-11.5637
깨	-11.5638
▁똑바	-11.5639
▁가천대	-11.5639
▁학벌	-11.5642
▁팩트	-11.5644
▁뻔한	-11.5644
▁짤리	-11.5646
▁특유	-11.5648
▁찾아본	-11.5649
▁느려	-11.5653
▁가끔가다	-11.5656
▁걱정돼	-11.5658
▁진심으로	-11.5659
▁죽으면	-11.5659
▁이럼서	-11.5659
▁경계	-11.5661
▁외에는	-11.5664
▁급여	-11.5666
▁플라	-11.5675
▁나이키	-11.568
▁보내줄	-11.5683
▁평화	-11.5695
▁기사님	-11.5702
▁페이스	-11.5712
▁예진이	-11.5713
▁누르면	-11.5719
▁깨졌	-11.5724
치킨	-11.573
▁혼내	-11.5748
깍	-11.5763
첩	-11.5763
▁끊겨	-11.5763
▁외할머니	-11.5763
잎	-11.5763
쯔	-11.5763
팸	-11.5763
퐁	-11.5763
▁피어싱	-11.5763
▁깜빡	-11.5763
▁옥상	-11.5763
▁세종대	-11.5763
▁키보드	-11.5763
▁라떼	-11.5764
▁맨시티	-11.5764
▁호흡	-11.5765
▁짤랐	-11.5765
▁리듬	-11.5766
▁비닐	-11.5767
▁돌렸	-11.5769
▁살아가는	-11.5769
▁노후	-11.578
▁울면서	-11.5807
갖	-11.5808
▁점프	-11.5813
▁건강하게	-11.5814
▁하시더라고	-11.5815
▁취해서	-11.5821
▁지연이	-11.5827
▁10000	-11.583
▁해볼게	-11.5835
▁궁금	-11.5837
▁불안하	-11.585
뿔	-11.5853
셀	-11.5853
▁증거	-11.5862
▁볶음	-11.5892
▁스마트	-11.5892
햄	-11.5893
▁방탄소년단	-11.5893
▁쭈꾸미	-11.5893
▁추웠어	-11.5893
▁피드백	-11.5893
▁훠궈	-11.5893
쌔	-11.5893
▁레시피	-11.5893
▁남동생	-11.5893
▁조용한	-11.5893
▁놀이터	-11.5893
▁따듯하	-11.5894
▁우울해	-11.5895
▁불편했	-11.5895
▁불고기	-11.5896
▁전략	-11.5897
▁신앙	-11.59
▁예전엔	-11.5902
▁교토	-11.5903
▁발라드	-11.5908
▁깨워	-11.5914
▁터키	-11.5917
▁아침마다	-11.5917
▁반팔	-11.5928
▁들어봤는데	-11.5928
▁타코	-11.5933
▁자녀	-11.5934
▁세팅	-11.594
▁45	-11.594
▁애매하게	-11.5941
▁잘생겼어	-11.5942
▁인권	-11.5954
▁떨리	-11.5955
▁거북이	-11.5957
▁얘기하더라고	-11.5962
곱	-11.5963
▁맞추면	-11.5974
▁강남역	-11.5984
콩	-11.5986
▁장난치	-11.5987
▁화났	-11.6001
같	-11.6001
▁매점	-11.6017
랙	-11.6024
셈	-11.6024
▁다큐멘터리	-11.6024
▁디자이너	-11.6024
▁리조트	-11.6024
▁비빔밥	-11.6024
▁아디다스	-11.6024
▁향신료	-11.6024
▁홈쇼핑	-11.6024
읍	-11.6024
▁드레스	-11.6024
▁우울증	-11.6024
▁연신내	-11.6024
▁죄송하	-11.6024
▁무언가	-11.6024
▁메세지	-11.6024
▁아일랜드	-11.6024
▁테이프	-11.6025
▁700	-11.6028
▁생존	-11.6029
▁설득	-11.6029
▁영환데	-11.6033
▁특강	-11.6033
▁즐겁게	-11.6034
▁탈락	-11.6036
▁보여줄	-11.6042
▁요만한	-11.6042
▁풀린	-11.6045
▁체육관	-11.6047
▁친척들	-11.6047
▁추구하	-11.6049
▁소속사	-11.6049
▁허세	-11.6056
▁유예	-11.6061
▁악마	-11.6064
▁닫아	-11.6069
▁구청	-11.6071
▁드신	-11.6075
▁광장	-11.6093
돼가지고	-11.6095
▁취해	-11.6115
순위	-11.6134
▁시작해야	-11.6144
콧	-11.6158
▁로스쿨	-11.6158
▁밝혀	-11.6158
▁스파이더맨	-11.6158
▁엊그저께	-11.6158
▁챔피언	-11.6158
▁티셔츠	-11.6158
눅	-11.6158
▁집어넣	-11.6158
▁평범한	-11.6158
▁어짜피	-11.6158
▁배부르	-11.6158
▁컬러	-11.6158
▁링크	-11.6158
▁적혀있	-11.6158
▁어뜩해	-11.6158
▁래퍼	-11.6158
▁이디야	-11.6159
▁말해줄	-11.616
▁영혼	-11.6163
▁두껍	-11.6164
▁찔러	-11.6167
▁글케	-11.6171
줬음	-11.6173
▁드림	-11.6174
▁플래	-11.6176
▁있으신	-11.6182
▁영재	-11.6192
▁일반적인	-11.6201
▁괜찮던데	-11.6206
▁사이드	-11.6209
▁내리면	-11.6209
▁풀렸	-11.6237
냉	-11.6258
▁위쪽	-11.6264
▁숭실대	-11.6293
▁언젠간	-11.6293
▁잃었	-11.6293
▁콩나물	-11.6293
▁팝송	-11.6293
▁버텨	-11.6293
▁고시원	-11.6293
▁서운한	-11.6293
▁와닿	-11.6294
▁셋째	-11.6295
▁한라산	-11.6295
▁꽂혀	-11.6297
▁물어봤더니	-11.63
▁교류	-11.6305
▁일요일날	-11.6306
▁언급	-11.6309
▁다가오	-11.6309
▁화이트	-11.6309
▁보람	-11.6311
▁포기하	-11.6319
▁천재	-11.632
▁알겠는데	-11.6333
▁그러드라	-11.6356
▁음식물	-11.6364
▁문제점	-11.6386
▁심화	-11.639
뽀	-11.6397
넘	-11.6398
닐	-11.6402
▁스트레	-11.6416
▁평점	-11.6417
▁가보면	-11.6426
풋	-11.643
숏	-11.643
쬐	-11.643
칫	-11.643
▁IMF	-11.643
▁드라이브	-11.643
▁업데이트	-11.643
▁포켓몬	-11.643
▁열다섯	-11.643
▁기달려	-11.643
▁투썸	-11.643
▁피곤한	-11.643
▁스텝	-11.6431
▁그만둬	-11.6431
▁개구리	-11.6432
▁99	-11.6433
▁흥행	-11.6433
▁도중에	-11.6434
▁채팅	-11.6435
▁포항	-11.6435
▁기념	-11.6437
▁돌아갈	-11.6439
▁포기했	-11.6439
▁슬프다	-11.6445
▁큰돈	-11.6448
▁교체	-11.6451
▁포기했어	-11.6483
▁너희들	-11.6483
▁영역	-11.6497
턱	-11.6538
알바	-11.6547
▁없었으면	-11.655
시킨	-11.6555
챙	-11.6568
왠	-11.6568
▁똑똑한	-11.6569
▁밤늦게	-11.6569
▁비트코인	-11.6569
슥	-11.6569
▁단둘이	-11.6569
▁러브	-11.6569
▁알러지	-11.657
▁플랜	-11.6571
▁질렀	-11.6571
▁언론	-11.6578
▁직종	-11.6579
▁라이프	-11.658
▁보일러	-11.658
▁같습니다	-11.6583
▁갔는지	-11.6587
▁불쌍하다	-11.6588
▁들기	-11.66
▁봤었거든	-11.6614
▁운영하는	-11.6638
▁볼링장	-11.6639
땡	-11.6681
팍	-11.6681
짠	-11.6681
꼼	-11.6709
롯	-11.6709
h	-11.6709
▁게스트하우스	-11.6709
덧	-11.6709
럿	-11.6709
짭	-11.6709
▁포지션	-11.6709
▁따릉이	-11.6709
▁베란다	-11.671
▁무서울	-11.671
▁나중엔	-11.671
▁일상생활	-11.671
▁부회장	-11.6711
▁복귀	-11.6713
▁영웅	-11.6715
▁반납	-11.6716
▁경우엔	-11.6719
▁시댁	-11.6723
였었	-11.6725
▁필러	-11.6728
▁감사하	-11.6728
▁라멘집	-11.6731
▁채소	-11.6732
▁알려줄게	-11.6733
▁패드	-11.6734
▁고등어	-11.6742
▁행복하게	-11.6748
▁관점	-11.6773
▁보이더라	-11.6777
▁어떠냐	-11.6794
▁얘기해줘	-11.6799
찔	-11.6826
▁꽁짜	-11.6829
▁시원한	-11.685
▁디즈니	-11.6852
팽	-11.6852
괄	-11.6852
▁된장찌개	-11.6852
▁뚫었	-11.6852
▁섭섭	-11.6852
▁스쿼트	-11.6852
▁슬랙스	-11.6852
렙	-11.6852
릏	-11.6852
즙	-11.6852
흙	-11.6852
▁비디오	-11.6852
▁저작권	-11.6852
▁주짓수	-11.6852
▁사운드	-11.6852
▁해장국	-11.6852
▁극혐	-11.6853
▁GS	-11.6853
▁은혜	-11.6854
▁불닭	-11.6855
▁답변	-11.6855
▁한의원	-11.6855
▁만만치	-11.6855
▁학부모	-11.6855
▁맞추기	-11.6855
▁찬양	-11.6858
▁텐트	-11.6859
▁썰매	-11.686
▁교직	-11.6869
▁누구였지	-11.6872
▁않겠어	-11.6875
▁목포	-11.6876
▁탈모	-11.6877
▁차례	-11.6878
▁뛰었	-11.688
▁있겠는데	-11.6881
▁시켜먹	-11.6882
▁쪼그	-11.6929
벤	-11.6973
▁크레	-11.6973
퀴	-11.6995
▁돌리면	-11.6997
▁스물다섯	-11.6997
▁스탠딩	-11.6997
▁워너원	-11.6997
▁이랬던	-11.6997
▁두꺼워	-11.6997
▁디테일	-11.6997
▁보톡스	-11.6997
▁전화번호	-11.6997
▁스트레칭	-11.6997
▁코믹	-11.6998
▁방콕	-11.6999
▁여깄	-11.6999
▁다이빙	-11.6999
▁골랐	-11.7001
▁튀겨	-11.7002
▁자극적인	-11.7003
▁억양	-11.7004
▁모텔	-11.7006
▁다녀왔	-11.7007
▁배워보고	-11.7007
▁멀티	-11.7009
▁서운하	-11.701
적으론	-11.7011
▁친목	-11.7011
▁자기소개서	-11.7015
▁염증	-11.7016
▁비슷했	-11.7016
▁넘어간	-11.7016
▁단편	-11.7017
▁29	-11.7017
▁병행	-11.7021
▁실업	-11.7026
▁설레	-11.7031
▁최악이	-11.7032
▁복층	-11.7052
▁갔냐	-11.7101
닭	-11.7119
다기보다	-11.7125
톱	-11.7141
삿	-11.7144
▁2019	-11.7144
▁VIP	-11.7144
▁답답한	-11.7144
▁돌아다녔	-11.7144
▁미역국	-11.7144
▁바이올린	-11.7144
▁신용카드	-11.7144
▁햇빛	-11.7144
▁방사능	-11.7144
▁자기계발	-11.7144
▁인문계	-11.7144
▁놀이공원	-11.7144
▁마피아	-11.7144
▁파이브	-11.7144
▁기억난다	-11.7145
▁강화도	-11.7145
▁퇴직	-11.7146
▁목도리	-11.7148
▁로스트	-11.7149
▁평택	-11.7149
▁예민하	-11.715
▁생각하기에는	-11.715
▁면세	-11.7155
껴	-11.7156
▁데려다주	-11.7161
▁매워	-11.7174
▁출연	-11.7176
▁로마	-11.7179
▁선임들	-11.7185
▁말씀하시	-11.7192
쁘	-11.7202
▁마음먹	-11.7216
▁학생회장	-11.7233
▁깨져	-11.7236
▁나오냐	-11.725
▁조별	-11.7266
델	-11.727
쎄	-11.7273
쩜	-11.7274
펴	-11.7274
뼈	-11.7274
▁괴롭	-11.7292
벙	-11.7294
▁뒷담	-11.7294
▁런닝머신	-11.7294
▁스피커	-11.7294
▁이모티콘	-11.7294
▁인도네시아	-11.7294
▁잃어버리	-11.7294
▁초콜렛	-11.7294
낑	-11.7294
둡	-11.7294
엣	-11.7294
톨	-11.7294
▁깨끗한	-11.7294
▁여사친	-11.7294
▁인문학	-11.7294
▁하이라이트	-11.7294
▁불쌍한	-11.7294
▁마카오	-11.7294
▁깨끗해	-11.7294
▁믹스	-11.7294
▁사춘기	-11.7294
▁땡땡	-11.7294
▁합치면	-11.7295
▁끝냈	-11.7296
▁의욕	-11.7298
▁전단지	-11.7298
▁어쨌거나	-11.7298
▁바탕	-11.7313
▁체중	-11.7319
▁뭐시기	-11.7328
봄	-11.7428
뱃	-11.7445
왁	-11.7445
쭈	-11.7584
흐	-11.7584
엉	-11.7584
끝	-11.7584
녁	-11.7593
j	-11.7599
펑	-11.7599
맘	-11.7743
륨	-11.7755
쫑	-11.7755
갤	-11.7914
짼	-11.7914
펄	-11.7914
짚	-11.7914
떤	-11.7992
뇌	-11.8068
퀘	-11.8075
W	-11.8075
겜	-11.8075
붐	-11.8075
싯	-11.8075
킥	-11.8075
돗	-11.8075
엇	-11.8231
헤	-11.8235
찢	-11.8237
깅	-11.8239
렐	-11.8239
륜	-11.8239
팥	-11.8239
쉽	-11.8288
죄	-11.8404
멀	-11.8404
최	-11.8404
귓	-11.8406
략	-11.8563
뜩	-11.8573
푼	-11.8576
꿈	-11.8577
봇	-11.8747
윽	-11.8748
첨	-11.875
흠	-11.8752
뿌	-11.8752
쏟	-11.8923
헨	-11.8923
Q	-11.9102
렘	-11.9102
펠	-11.9102
찐	-11.9112
싹	-11.9113
깝	-11.9155
횡	-11.9283
햇	-11.9283
셰	-11.9283
킵	-11.9283
횐	-11.9283
쪄	-11.9297
쥐	-11.9297
뛰	-11.9297
뢰	-11.9464
볍	-11.9469
쿼	-11.9469
깬	-11.9469
뎌	-11.9469
셜	-11.9469
씽	-11.9469
펌	-11.9486
갠	-11.9486
빼	-11.9486
믹	-11.9656
꾹	-11.9657
뚤	-11.9657
땅	-11.9672
빡	-11.9678
찹	-11.985
컴	-11.9875
많	-12.0075
펙	-12.0243
멕	-12.0246
못	-12.0247
샹	-12.045
밸	-12.045
앗	-12.0487
짤	-12.0487
꿀	-12.0688
쪘	-12.07
씹	-12.07
쩡	-12.087
쿡	-12.0871
쪼	-12.0917
깄	-12.1307
싼	-12.1362
맵	-12.1367
넣	-12.1367
챔	-12.1538
댓	-12.1538
꼽	-12.1599
넥	-12.177
꼴	-12.1837
콕	-12.2005
낌	-12.2008
캡	-12.2008
갯	-12.2008
쵸	-12.21
쩌	-12.2247
꽁	-12.2331
귤	-12.2331
쏘	-12.2331
땐	-12.2434
껍	-12.2491
웰	-12.2502
킷	-12.2502
앞	-12.2587
갓	-12.2587
넌	-12.2851
숫	-12.3021
뜰	-12.3121
찝	-12.3121
빅	-12.3121
긍	-12.3121
뜬	-12.3121
핵	-12.3399
겸	-12.3399
룹	-12.3704
덟	-12.3852
혐	-12.3855
젝	-12.3856
퍽	-12.3856
빽	-12.3978
탔	-12.3979
쌀	-12.4277
흰	-12.4281
륵	-12.442
툰	-12.4453
밖	-12.4543
덮	-12.4594
뎅	-12.4754
윗	-12.4917
렷	-12.5088
캉	-12.5088
캔	-12.5247
짬	-12.525
힘	-12.525
낙	-12.5594
굽	-12.5595
썩	-12.5595
좀	-12.5595
헝	-12.5766
쩔	-12.5868
녹	-12.5952
틸	-12.6122
갇	-12.6123
뻑	-12.6123
쫄	-12.6322
숍	-12.6493
칵	-12.6878
퀄	-12.6878
찾	-12.7107
늑	-12.7277
랴	-12.7278
뒤	-12.7523
씀	-12.7685
듣	-12.7953
옆	-12.7959
쓴	-12.7959
꼭	-12.7959
첼	-12.8129
텝	-12.8581
쟤	-12.8889
꼰	-12.906
촬	-12.906
껜	-12.906
멧	-12.906
흑	-12.9389
붓	-12.9389
왜	-12.939
녕	-12.9458
셉	-12.956
슐	-13.0087
홈	-13.0471
덥	-13.0471
땀	-13.0471
맙	-13.0637
찡	-13.0642
캘	-13.0642
껌	-13.1059
쨌	-13.1147
앴	-13.1226
훅	-13.1684
푹	-13.1684
엥	-13.1684
헐	-13.1684
슷	-13.1851
썹	-13.1853
벗	-13.2351
뉘	-13.2467
욘	-13.2522
왤	-13.2522
썸	-13.3064
꽂	-13.3065
갸	-13.3834
쎈	-13.3834
쁜	-13.3915
쩨	-13.4006
낳	-13.4668
닿	-13.557
뽑	-13.5576
쌩	-13.5577
밑	-13.5577
썰	-13.5577
핫	-13.5577
냠	-13.573
곧	-13.6577
뀌	-13.6746
찼	-13.7688
낫	-13.8938
쫌	-13.8939
닫	-14.0365
춥	-14.0367
귄	-14.0522
쭝	-14.0538
헬	-14.2033
넓	-14.2034
걔	-14.2034
쿄	-14.2203
텨	-14.2203
뱀	-14.4033
뻥	-14.4034
쭐	-14.4034
뀐	-14.4202
맻	-14.6534
탓	-14.6534
묶	-14.6534
횟	-14.6704
닦	-14.9865
뺀	-14.9868
믿	-14.9868
뭔	-14.9868
젖	-15.4869
웬	-15.4869
갚	-15.4869
땠	-15.4956
귈	-15.5022
뀔	-15.5035
펭	-15.5038
뾰	-16.4877
뒹	-16.4878
괌	-16.4879
뮬	-16.4879
끓	-16.488
뺄	-16.488
겉	-16.488
걍	-16.488
뭘	-16.488
컹	-16.488
뛴	-16.4881
쩰	-16.4882
뤘	-16.4883
슝	-16.4884
삘	-16.4885
딲	-16.4886
잣	-16.4887
붉	-16.4888
껐	-16.4889
줏	-16.489
뵈	-16.4891
쏴	-16.4892
쏙	-16.4893
봅	-16.4894
숟	-16.4895
닙	-16.4896
픔	-16.4897
펫	-16.4898
얗	-16.4899
넜	-16.49
됩	-16.4901
늫	-16.4902
얜	-16.4903
굵	-16.4904
샴	-16.4905
뻗	-16.4906
짖	-16.4907
엮	-16.4908
깠	-16.4909
쭤	-16.491
옳	-16.4911
벚	-16.4912
꺾	-16.4913
훠	-16.4914
씌	-16.4915
맑	-16.4916
껑	-16.4917
넛	-16.4918
랗	-16.4919
숱	-16.492
폈	-16.4921
펼	-16.4922
맺	-16.4923
얹	-16.4924
팁	-16.4925
뭣	-16.4926
뱉	-16.4927
굶	-16.4928
깼	-16.4929
쏠	-16.493
짰	-16.4931
융	-16.4932
훔	-16.4933
흉	-16.4934
섹	-16.4935
맣	-16.4936
빚	-16.4937
뺑	-16.4938
엎	-16.4939
뭉	-16.494
멤	-16.4941
낯	-16.4942
딪	-16.4943
넉	-16.4944
췄	-16.4945
엊	-16.4946
쌈	-16.4947
쫍	-16.4948
돋	-16.4949
밟	-16.495
쉴	-16.4951
쌌	-16.4952
긁	-16.4953
띄	-16.4954
늙	-16.4955
좁	-16.4956
앱	-16.4957
뺏	-16.4958
쫓	-16.4959
헷	-16.496
쫙	-16.4961
샐	-16.4962
릎	-16.4963
붕	-16.4964
꽉	-16.4965
겪	-16.4966
땄	-16.4967
뷔	-16.4968
뜯	-16.4969
낚	-16.497
왼	-16.4971
얇	-16.4972
뺐	-16.4973
잊	-16.4974
팠	-16.4975
혔	-16.4976
닮	-16.4977
뚱	-16.4978
떴	-16.4979
꼐	-16.498
컸	-16.4981
깎	-16.4982
묻	-16.4983
밝	-16.4984
빴	-16.4984
꿨	-16.4985
섞	-16.4986
뒷	-16.4987
딨	-16.4988
걷	-16.4989
잃	-16.499
삶	-16.4991
깊	-16.4992
웹	-16.4993
씻	-16.4994
걘	-16.4995
뚫	-16.4996
얻	-16.4997
숨	-16.4998
눠	-16.4999
흔	-16.5
옮	-16.5001
젊	-16.5002
맡	-16.5003
홉	-16.5004
쌓	-16.5005
잤	-16.5006
꽤	-16.5007
짧	-16.5008
멋	-16.5009
볶	-16.501
낮	-16.5011
꼈	-16.5012
녔	-16.5013
훨	-16.5014
굉	-16.5015
첫	-16.5016
썼	-16.5017
앉	-16.5018
높	-16.5019
끊	-16.502
샀	-16.5021
굳	-16.5022
늦	-16.5023
읽	-16.5024
웠	-16.5025
옛	-16.5026
놓	-16.5027
찍	-16.5028
싫	-16.5029
밌	-16.503
괜	-16.5031
떻	-16.5032
찮	-16.5033
랬	-16.5034
깥	-16.5035
좋	-16.5035
